[PAD]
[EOS]
[UNK]
[CLS]
[SEP]
[MASK]
~~다
~~는
~~을
~~의
~~이
~~에
~~하
~~를
~~은
~~고
있
~~가
~~한
~~으로
~~에서
~~로
것
~들
~~도
수
~~과
~~지
~~게
~~되
~적
~~었
~~와
~~된
이
~~했
~~기
~~어
~~인
그
하
~~할
등
않
~~해
1
한
및
~~면
~년
~일
~~며
없
~~여
2
또
~~니다
~~서
상기
제
3
~~습니다
~~던
내
~
되
~~았
~~였
~~다는
~~에게
~월
경우
~~만
~~아
대한
같
~~까지
~~다고
4
보
~~지만
때
5
~고
~~야
~~라
했
~~나
중
본
나
사용
위해
사람
아니
~~될
~~면서
말
~원
포함
주
때문
~~으며
전
받
~~는데
가
~~운
들
대해
~~도록
~부
일
우리
다른
된
~만
~~부터
해
더
6
도
따라
이상
10
한국
많
~이
~개
할
~명
하나
생각
통해
또한
~~으
안
~~요
말했
후
~~겠
좋
두
~~라는
~~진
미국
자신
위한
~~라고
7
관련
~~이나
그리고
현재
대통령
~의
형성
~~보다
~~자
의해
8
함께
~는
알
~억
예
그러나
문제
~~거나
발명
시작
~~어서
밝혔
지난
~~입
이용
~시
~1
~을
구성
~대
~~습
제공
~~됐
이후
9
##기
높
설명
이번
~~데
갖
~~에는
정부
실시
~~니
~~시키
뒤
대표
정보
오
~를
발생
0
가능
~2
다시
필요
하지만
연결
특히
가장
시간
같이
의원
일본
다음
서울
모두
방법
~며
~~는다
바
시장
20
~~함
중국
##자
저
큰
12
##스
~~처럼
~~다면
사이
그렇
잘
~~하고
국민
앞
##성
결정
세계
##지
비
지
상태
위치
다
정도
적
바람직
각각
~분
##이
따른
모든
일부
기술
지금
30
~~에서는
물
사실
점
인식
약
만들
~층
곳
결과
이런
~여
모습
상황
경제
여기
회사
정
도시
이러한
될
~차
~~일
북한
장치
최근
가지
그녀
크
보이
부분
~가
11
~이라고
지역
위
##인
~~로부터
눈
자
~~로써
국내
데
##사
##도
##리
그런
이날
먹
평가
시스템
기업
열
손
처리
동안
서비스
~회
얻
이루
선택
~~로서
~~으면
입
많이
적용
~천
~위
~에
데이터
경기
다양
상
~호
고
싶
김
남
국회
~~서는
추가
한편
계속
~~으나
금융
이동
속
~간
계획
##s
그것
기록
증가
공정
진행
개발
못하
처음
시
##장
후보
볼
각
맞
~면
새로
내용
설치
~째
게
~중
##수
~시간
당
예정
15
##에
~~주
##대
거
~~졌
길
~씨
일반
국가
몸
제품
~조
결합
측정
~기
##로
효과
살
사회
##상
~~합
아이
~~돼
사
~라
유지
##트
만
바로
사업
따르
전체
직접
주장
~인
##시
찾
표시
##하
~물
알려
게임
~주
뿐
~~으로부터
지원
~번
~~져
~자
요구
작
단계
번
이미
너무
새
예상
100
##제
~자산
보고
신호
나오
물론
##부
기준
##화
~~다가
가능성
사진
중요
~도
어떤
박
제어
마음
문
타
##가
가운데
형태
당시
내부
~~있
기자
대상
~성
이렇
##원
아
간
이유
~은
집
~형
조사
방향
기능
~~는지
의미
##한
영향
존재
투자
~시장
역시
이어
해당
~~음
아닌
구조
걸
##주
영역
상대
##진
잡
50
지난해
~로
~~시
~당
공급
날
미
확인
수행
양
오늘
발표
정치
보여
~화
사용자
더욱
올해
이름
당사
~에서
~~지는
관한
줄
얼굴
반응
힘
~~란
개
낮
첫
최고
수준
~기업
~라고
이야기
~측
제조
##고
방식
자기
고정
관계
이하
오후
전망
분석
어떻
대
동일
~가치
영화
##드
세
자리
어느
서
관계자
~손익
인간
입장
신
기대
인터넷
화합물
보인
즉
##아
~하
과정
에
조성
여자
~전
연구
25
사랑
공격
죽
~세
여성
총
국제
##일
서로
~지
차
~~까
변화
16
지적
##서
온
여러
관리
매우
판매
마련
당기
##동
##선
듯
~용
~사
##라
##산
##다
중심
가격
~예
적어도
~내
~~어요
~~어야
막
~~엔
~~으로서
대부분
이제
모르
말하
13
난
~체
감소
왔
~~
배
됐
좀
~제
분
추진
18
소리
생산
결국
쓰
자산
전기
이것
대응
강조
운영
정말
사건
장
~~라며
##어
네
~~시켜
단
남자
목적
##용
대하
특정
정책
열린
##0
##전
합
기존
행사
14
~다
명
##비
강화
일정
참여
이전
배치
~가능
따라서
기간
건
자체
최대
끝
##호
~수
거의
놓
고객
성공
활동
공동
넘
확대
##구
위험
40
오전
왜
~장
통신
외
산
자유
##우
관심
준비
쉽
돈
원
의한
##식
성장
##a
~선
17
채
##관
##군
판단
이해
##치
~기간
전자
특징
문화
비해
방송
교수
삼성
지속
~~므로
불
~~니까
기판
밖
19
피
프로그램
나타내
달
뭐
개인
설정
그런데
~법
지지
작품
생성
교육
먼저
##법
구체
주식
제외
~~죠
위하
제거
최초
표면
만나
~달러
거래
동
역할
~3
##소
달리
##미
저장
환경
등장
##나
의하
~있
~the
~으로
올
무엇
외부
와
변경
인해
##들
해외
반대
들어가
~~아서
##신
씨
범위
만큼
산업
24
못
보도
상승
역사
##형
~등
나온
책
세포
못했
조
##린
선
~뉴스
~판
현대
##d
노
인사
내년
편
기타
다만
기
성
~보
참
장관
회전
공개
리
21
~~워
~에도
지방
반
마지막
아래
##권
몇
##즈
전송
업체
##의
해결
~~대로
과거
노력
##c
규모
##e
##m
~별
선거
법
광
군
##보
아직
정상
~받
~대표
~위원회
복수
능력
##실
~~시킨
방문
차이
~증권
대신
못한
거리
찍
##2
##마
##오
도입
기본
고안
구비
분야
머리
고려
참조
영상
마
넣
청와대
연
개선
규정
인
전달
##영
~~려고
~~냐
입력
로
전국
##1
##해
##석
유
어려
수신
뜻
lg
~과
갈
이라크
한번
선수
##정
반도체
~개월
친구
전극
추정
~~밖에
조정
나라
##3
~~려
미래
쪽
u3000
~와
중앙
제한
삼
이미지
그냥
공
보유
~~받
핵
방
##국
~~에서의
재
확보
어디
##계
##회
22
~~질
따
~씩
비교
##면
지분
##t
그대로
초
기초
적극
측
치료
분류
~상
##물
유럽
발전
~전자
금액
~회사
무
가족
카드
하루
전략
재무
감독
제작
취득
인정
~~에서도
당신
보였
맡
~~시킬
실시예
23
quot
얘기
부
학생
##만
~계
순간
발견
출력
동작
주변
면
~업체
디지털
의견
##타
반면
온도
60
표현
요소
공간
##터
유리
각종
~은행
우선
동시에
강
준
##현
~장치
매출
듣
~~려는
연합
##4
논의
~점
작업
보호
여행
는
회장
건설
감사
~정보
총리
평균
앞서
계약
차량
치
높이
담
~~라면
~~와의
기재
정신
학교
##재
##세
사장
나왔
통합
차지
전쟁
팀
##크
~금액
분위기
요청
원내
풀
활용
물질
재료
##코
~~이라고
식
구
우려
일단
너
네트워크
~부채
나타낸
~~든
~~더라도
~~지도
자연
##5
바람
조건
영국
##문
##단
참석
목표
~a
~사업
둘
27
피해
크기
##니
구현
은
앉
~~듯
~나라
~~건
26
비용
글
나가
비판
검토
28
~배
금속
##l
소
제시
파
개시
이르
모
##체
특별
상부
조직
부산
컴퓨터
여부
##조
조금
조선
생활
##력
속도
~권
구동
팔
##당
밤
이때
대학
무슨
분리
발
측면
진
##파
000
31
수지
현지
특성
##르
~산업
값
순
~제표
확정
~~마다
언급
~원가
방안
기사
~구
a
제대로
집중
현
목소리
검찰
디바이스
느낌
##길
음악
자동차
전력
인기
누구
~기관
~분기
길이
##r
~산
~어
검
세상
기반
체결
웃
##경
중간
마치
~백
방지
반영
지급
채널
라
황
질문
~~에선
엄마
29
전화
아버지
경쟁
##금
~~수
수출
표
~~고는
부재
현금
2000
유명
##질
~식
경찰
이곳
전환
최종
만든
안전
##간
역
전혀
80
##카
보내
~~임
접속
##6
##티
안정
독일
~지역
우
##프
##역
다르
도면
최
다수
~~오
##민
통과
금
오히려
늘
영업
층
대선
~~어도
아주
##7
향상
시대
접촉
유닛
기억
~~세
운동
~~과의
##안
함유
~~됩
~~스럽
가스
그룹
그래서
어렵
~말
책임
경험
구축
전했
자본
대비
##희
고개
실제
옆
나타났
##노
##모
제기
전문
무선
~관리
백
민주당
모델
말한
##방
선정
##g
##n
사고
##8
~~치
비슷
##학
도착
##봉
돌
~정책
아들
~~는가
모듈
~상품
##히
삶
70
~비
##p
##차
##루
디
갔
화
~~으니
가슴
단위
건물
에너지
아침
합의
행동
출시
도움
읽
개최
믿
쉬
그러
~~라서
시민
상품
그동안
변동
~주의
의사
프랑스
부족
##판
인한
프레임
마찬가지
##연
현실
출신
매
블록
##과
##무
작성
공기
기회
언론
디스플레이
하락
통한
패턴
전문가
형상
~서
##천
##토
건강
프로
~~시켰
지정
~~셨
90
공식
##9
연장
n
메모리
##바
##할
~안
러시아
천
수사
##론
인물
불구
부담
##포
##량
##중
~~을까
서열
~~아야
하부
##i
작용
향후
~~스러
환자
대한민국
모양
바라보
대화
성분
키
한정
~~이라
발행
공연
##유
회계
~관
진출
~~네
~한
##야
업무
시점
유사
~관계
~기준
조합
덧붙였
~기술
회의
2004
신용
온라인
##위
표정
지나
여전히
~~놓
스
방침
부채
가정
서버
해석
느끼
외국인
꼭
종
~방향
~급
~~준
회복
시즌
~센터
~종
~통신
##환
~군
아무
새누리당
별도
회로
소개
나타나
경영
돼
허용
손상
스스로
주민
이를
~부재
독립
연속
캐릭터
##씨
또는
예측
영
~조사
~4
~액
다리
##b
##액
##러
삽입
협력
잘못
~~다며
~아
첨가
논란
원하
호
실시예에
##공
혹
장부
버스
무기
완전히
박근혜
개정
수익
포
유기
통하
목
예시
권
정의
sk
폴리
술
상당
~위험
~초
시험
##키
적절
##y
봐
~편
~정
빛
~5
힘들
달성
조절
미치
##점
##레
함
향해
노출
전압
장착
직원
핵심
현상
##감
평화
그래도
~나
잠시
발광
인하
수용
~~으므로
부시
##요
##집
코
단말기
일어나
소비자
거기
~~긴
왕
국정
라인
광고
폭
~~대
##병
~단
어머니
중량
설립
강력
##류
작동
~~보
~국
##디
본격
홍
영어
초기
어
걸쳐
상당히
승리
~~러
통상
~치
필름
~정치
임의
##o
##음
모드
보통
200
원래
별
아시아
센서
##은
~~느냐
시기
끌
~~서도
감
주목
~~웠
~카드
전원
계산
검출
##게
제안
그리
애
열리
~같
얼마나
심
자료
협상
예컨대
대체
갑자기
발언
##강
곧
##온
~~더니
불과
팬
~~이다
바닥
##철
등록
~~으면서
맛
~~겠다
거쳐
우수
묻
추천
2002
짧
~형태
제도
현장
~~같이
##증
~~라도
전해
##명
그때
실질
##업
참가
당해
휴대폰
마을
500
~of
##림
압력
~개발
윤
미리
##피
##운
아내
실제로
걱정
하늘
기분
##종
##내
노래
땅
수단
문재인
이외
##준
암
~~아요
전통
~의원
가치
~~됨
건조
부정
약간
밝혀
겪
##거
초과
대형
바다
소자
카메라
진짜
혼합
인상
유형
여
메시지
상호
매도
자세
시행
한나라당
용액
조치
~단체
위원장
~쯤
그림
본인
신규
~~기에
종합
이익
나머지
잃
~가액
지난달
자주
꽃
강한
브랜드
~서비스
훨씬
회수
##교
대구
~~었다
대회
장비
총선
개혁
##네
##왕
대답
결혼
인도
피부
이벤트
야당
b
인수
##란
활성화
카
출발
나이
민주
시절
질
가까
내리
##려
깊
##적
~~구
과학
제출
원인
옷
혼합물
군사
##링
신문
수요
2003
##f
##심
은행
두께
추
장기
축
##복
~tv
투
디자인
시도
게이트
##릴
~~만큼
##생
혐의
##여
달러
##더
적합
##근
장소
배우
~동
~세기
중단
송
투입
소속
성격
딸
혼자
도전
수입
개별
차원
서브
만약
주가
~시스템
귀
~~수록
음식
반드시
위기
나무
2005
~~께
사상
##청
활성
~~로는
##는
의도
~파
작가
효율
실적
남편
자금
부착
##분
~~네요
자동
사실상
촬영
~님
움직임
비율
실행
~투자
얼마
떨어지
단말
실패
문제점
숨
꿈
##막
연기
의혹
테러
자원
광주
종류
북
변형
저녁
가열
주제
유도
부르
넓
소재
~~고자
##와
뭔
부문
떠나
전투
병
커
~연
##통
~정부
말씀
~기준서
이사회
사전
부여
##된
~거래
출연
송신
뉴
오르
생명
성능
##후
사이트
근거
아파트
대변인
반복
빨리
불리
언제
완전
보수
확산
~대회
##브
##규
~그룹
d
정확
##츠
대전
올리
지시
사항
통화
~활동
s
불법
임
약속
파악
~~보다는
담당
##령
그럼
배출
검사
소정
늦
~회담
셀
~to
이사
이끌
~소
남성
전부
2017
짓
조작
강하
충분히
금지
끝나
~~랑
여야
중소
2001
기관
분명
만드
치환
신청
##개
남북
절차
예산
~텔레콤
벽
기계
~쪽
~it
돌아가
후보자
항체
모바일
경
~타
용기
절대
특수
비롯한
호텔
콘텐츠
정리
레벨
300
업계
##탄
월
젊
2006
용
기업회계
~강
~표
그래
~~으로는
본체
특허
~금융자산
입자
부동산
~위원
주인공
바탕
##님
나서
~신문
##함
사망
구입
의지
~운동
사태
여론
지배
붙
가이드
##층
~량
획득
종래
~후
드
과
##k
긴
빠르
~~기로
상세
검색
##광
tv
게다가
스타
개방
충분
뉴욕
##h
외교
전반
##두
~동안
~c
전면
느껴
창
~백만
나누
배경
계기
말해
~~지요
~and
항상
정권
희망
~~려면
음성
##저
##직
장면
##태
생기
##x
좋아하
용어
형
~항
행위
전날
설계
~비용
아름다
~포인트
써
정당
~주당
교통
부인
주위
시각
병원
바뀌
권리
며
판
~~없
~문제
~~롭
용이
~~이라도
##창
35
주문
구경
~~에도
도로
~계약
꽤
~회계
섬
~사항
주파수
부품
명령
유엔
~경기
~팀
행정
단지
~율
유입
##순
##그
##발
드라마
설
충격
~경제
~사회
##v
수정
다소
차감
##버
구분
~구조
무대
기다리
유일
##양
~기말
마케팅
지식
성과
불가능
차단
흐름
단백질
심각
민
상이
실
주도
~건
##백
협의
놀
행복
##배
사례
음
보안
식별
누
제일
가입
##건
포기
~재
단일
~실
올랐
쓴
어린이
c
~~한테
~과정
접근
홈
뽑
고민
~처리
요
~~지를
구매
~nbsp
단기
외국
##훈
신경
##곡
##불
시트
공시
보상
화학
개념
터치
움직이
~인식
곡
~문화
2007
놈
채택
~단계
통일
소프트웨어
##암
모른
일시
~법인세
선언
~흐름
화면
~미
절
허
~키
셈
##락
##반
##데
인터뷰
~~여야
~~소
미군
작년
##급
조립
it
안내
훈련
시리즈
##망
괜찮
변환
부상
선물
수직
날씨
지키
~~과는
완료
단체
~경
45
맛있
원칙
##거리
가득
위협
~의당
~in
감정
밝히
올라가
노동
벌이
나섰
차례
~학교
투여
~번호
~곳
년
~승
패널
의무
다니
참고
억제
흡수
~방
거부
~방송
원가
미만
야
잠
~실체
대책
코팅
이뤄
마시
##남
규제
무료
~주식
##을
동물
~력
탈
##표
비중
친
~~단
비난
비디오
놀라
벗어나
소비
~어민
저항
##래
누가
어제
한반도
~장관
~연합
색
촉구
청구
종료
공무원
만기
보장
~게임
그러한
##임
더불
~조정
마무리
~없이
인터페이스
##덕
~시설
시설
대사
시선
베
실험
필터
상관
감안
오른
철
~~울
포인트
~공사
##값
##설
떨어진
보고서
겁
대만
~것
##색
공공
만족
##살
별로
탄
경쟁력
~입
관
x
미사일
1000
여름
손실
##약
2010
~기구
유효
~~고도
주주
##옥
혁신
바꾸
합성
프로젝트
니
매각
품질
앞두
진정
쓸
의장
실현
재정
##열
우승
~되
단순
##날
눈물
pc
유통
주택
후속
박사
~~만을
밑
신주
헌법
~들로
~~때
봤
웹
~평가
증거
~오
노무현
~시대
부위
전술
소스
~수단
녀석
맺
강도
죽음
점점
2016
소유
교체
듯한
반사
공부
응답
이내
~~께서
냉각
~회의
섬유
##렸
제1
홈페이지
칼
~~버
##본
걷
환율
버리
요즘
전시
미소
~포
~온
중인
~대상
액정
선발
인천
밀
전류
동시
~위원장
세월
트랜지스터
들어갔
##빈
명세서
빠른
확장
까
~~키
~문
대안
원자
##절
장점
##초
전용
~업계
커버
쌍
울
제주
결의
이어지
무리
쏟
~가지
오래
생
~~자는
갈등
비롯해
고통
파괴
글로벌
2015
이중
광학
할인
물건
인증
인구
~~는게
~~군
~기자
자극
정기
회원
~~은데
교환
가공
~m
코드
발사
엄청난
##랑
~협회
~가격
본원
##입
빈
공사
32
m
내일
아무리
소식
##각
보조
형식
공장
충전
응
거대
##투
엔진
~속
탄핵
~부문
입구
~해주
환
~리그
세트
레
공유
##난
제2
~i
항
~~아도
맞춰
전개
~부로
수상
부탁
겨울
완성
청
의식
근처
e
채권
~모
테
~6
~스
##퍼
성형
베이스
번호
업
~여행
밥
변
~상태
재고
~~듯이
교회
홍보
지구
근무
과제
화상
농도
~~에게는
감지
어려움
세력
기획
구멍
국무
투명
표준
간단
유전자
생긴
##술
염
대북
민간
##달
노인
메
손가락
##합
평
물리
##매
복
지도
신고
허리
##ㆍ
대중
##검
태도
밸브
왼쪽
청년
웃음
##속
골
~이익
존
평소
예방
법률
중합체
~손실
결제
구속
##염
액체
양국
집단
용매
초반
관광
##승
~환경
##ing
부모
~~게도
어깨
2008
확실
출마
~계획
체제
솔루션
고용
~~습니까
~효과
플레이
##목
~~신
~반
기기
##숙
이행
##테
수술
수소
~지수
99
~교육
밝
투표
##족
석
~레이트
긍정
추출
주석
##행
토
##록
##골
사정
통
요인
2012
뛰
나선
##션
2014
진입
메틸
관측
의
~~래서
아울러
갖추
소설
화학식
##품
~제도
구간
샘플
다이
##말
프리
기념
~~만이
들어오
##너
사과
2018
아이템
분산
##처
매년
##등
파일
임명
축구
운용
##커
저희
직후
유저
경로
법안
하우징
반발
인생
독자
##져
몇몇
매체
p
~리
성적
아마
대규모
~선거
~살
~방법
가수
트리
경계
항목
##향
빠져
수석
미디어
주인
한미
든
~~는다는
##율
휴대
가진
~평
자랑
~생
나중에
~전화
주력
~한국
~~와는
아직도
더불어
~세포
열심히
##슨
한국인
~해
우주
둔
당초
외환
달라
t
홍콩
탓
~~에만
##;
가질
실리콘
동영상
즐기
g
비트
뉴스
분할
조명
한계
덕분
아예
아닐
좌우
롯데
메인
폭발
##주의
가까이
됩
~역
##축
비밀
##했
스포츠
하나님
~b
~s
극
~지원
싸움
여당
산화
그린
##w
##팅
안되
안보
~채권
번역
체험
경향
보험
대로
불편
불안
~원장
칩
상처
공중
개구
~제품
매일
과연
##욱
마법
빼
비교적
위반
깊이
대기
렌즈
해소
심지어
유동
처분
스킬
150
만난
민족
연계
새벽
운
들어간
빚
회담
주말
국
예전
~여명
채용
전년
경고
못해
~자금
토지
간격
고속
##변
탄소
바른
싫
잊
올려
~회견
가동
유체
케이스
플레이트
95
가량
매입
종교
~무
언어
늘어나
사무
뇌
##채
조기
그럴
##항
임시
~집
~~조차
이탈리아
잔
점차
못할
이달
어린
맞추
75
승인
부가
상술
~결과
용량
~~들
채무
낸
##던
~양태
결코
수많
무단
화소
흐르
33
~생활
~~같은
k
~포괄
2013
나올
~때
##작
~방식
인쇄
타입
~7
산출
~이상
산화물
강제
관통
애플리케이션
나타난
절반
지연
##립
연출
한겨레
인가
신체
오른쪽
당선
도쿄
줄이
인접
기여
따로
분자
모아
봄
##를
매수
직전
리스
즉시
~거리
지점
~노
식사
~n
복합
취하
벌
방출
최소
권력
청소년
첨부
나노
굉장히
촉매
신뢰
금리
##00
쥐
~학년
제정
떨어져
##으
피하
국방부
전하
몰
~일보
모터
그러면서
##룡
~천만
~유
투어
너무나
~~거
인근
밝힌
월드컵
~진
##편
수치
마감
루
국립
무시
풍경
여유
##볼
그곳
스위치
단독
알리
이제는
##녀
~마
02
내렸
연료
##년
유가
천천히
압축
공지
악
##료
~들이
종속
관점
알킬
절연
발현
몸체
수집
예술
레이저
##예
정제
##줄
이어서
~~을지
복잡
당연히
태양
연관
~금융
결론
~x
여인
올림픽
아니하
졸업
품
재생
~능력
~발
펼쳐
~감
정지
양측
실력
옥
법인세
여러분
폐지
65
그저
~~더
##언
향하
비록
~프레임
프로세스
멤버
필수
##렌
활약
사내
국방
~대학
##애
##풍
죽이
~~뿐
여과
동원
선생님
~재무
손상차손
복귀
회동
##담
의료
가입자
터
화려
류
##er
낳
인력
~가스
탄성
플레이어
~~곤
kt
누군
주의
~30
##박
동의
소송
지수
부부
최선
##울
55
딱
~각
가을
분명히
##머
~주년
~g
의심
독
당장
~신
공통
400
2011
36
~신호
나름
돌출
~~내
##글
~보험
통제
동료
악화
테스트
바이러스
추세
동생
~박
노선
수평
~행위
아무런
당연
카페
##u
##악
~관련
~국제
상징
~~해지
방어
하반기
##것
홀
멀
입술
태
~~예
##평
무역
~8
동기
한쪽
질환
티
~p
##추
~~왔다
검증
버렸
나아가
걸리
권한
체계
소녀
~~게는
기구
~~마저
거듭
##갈
~~실
베트남
~소리
이송
공천
~이사
타격
속하
안철수
수득
파리
계상
몰라
이스라엘
흑
고급
봉
~회피
문자
파워
~~것
~표시
~~에요
머니투데이
급
##케
긴장
전세계
버
매출액
붉
요금
최대한
좁
서울대
종목
논리
진단
정해
충족
##쿠
~라인
##률
~~리
##ed
이자
##메
체
i
압박
사업자
~족
~사인
주입
이기
##른
98
##책
소년
수도권
돌려
오픈
고체
제휴
~통
~~로의
오빠
빔
교
근데
생물
그랬
전사
마리
~~면서도
##월
내려
대기업
안테나
스타일
48
챔버
제목
소환
안된
당하
증권
후반
일상
##출
34
힘든
각도
대략
벌써
가상
상반기
~의장
이온
내린
전형
싸우
체력
##결
~학
~석
재산
긴급
나갈
~공원
연간
기지국
옛
인권
문서
로봇
노드
살짝
발휘
##찬
엘
커피
##맨
여의도
위상
보관
~요소
정치권
##베
대우
총장
대가
극복
컬러
세워
젖
뜨거
열린우리당
시사
충돌
37
뛰어난
부대
내측
##탈
워싱턴
테이블
지도부
살펴보
~피
~~는데요
냈
경남
배열
##범
미세
출전
아미노산
~결합
대출
창출
~~자마자
끝내
용도
~막
구하
치열
코어
끝난
들어서
##필
~대비
분노
단어
##송
연주
지하
~업
~백만원
싸
일하
줄기
호주
전지
~~자고
정하
코스
순서
~체제
판정
~누리
담배
2009
~9
케이블
~분야
38
~개혁
저하
녹
~~에게서
~병
패
떼
~~까요
단자
누나
~정도
따뜻
식품
불러
##익
관찰
변호사
가졌
매력
##독
재미
앨범
링크
제3
탑재
합병
맑
버전
요리
당국
파장
~류
판결
숙소
뿌리
연구원
다음달
아빠
~d
교사
문학
이른바
~~자면
하이
일행
헤드
이론
~~로서는
벗
소요
예약
##팀
이틀
배터리
베이징
~~으로써
##였
##극
일으키
신뢰성
~~사
깨
~란
일치
뜨
발매
유용
숫자
집행
심사
진공
순수
~야
장애
소득
~~십
l
취급
축소
최소화
떨
석유
~~냐는
~정당
도달
운전
~~다니
h
올라
대폭
이게
##패
수립
바라
~작업
산소
부하
면역
외화
현행
~~선
가끔
##름
##텍
양태
유치
##알
~내용
회
패배
세우
새롭
운행
외측
무려
~본
##폰
모여
경선
초등
~준
~링크
##홀
~민주연합
~급여
줄어들
~~두
~~뿐만
##택
그만
끼
범죄
쌓
##며
법원
엉덩이
산정
불만
주요
스크린
공항
축제
지하철
틀
초청
~~래
엄청
~시점
유출
##쳐
도중
~마다
~제의
재배포
~~까지는
언니
덜
눈길
계
고리
고유
직업
~버스
~부분
일자리
~연구원
스페인
패키지
원장
다루
관객
~투어
네티즌
오일
저렴
##삼
##워
~가구
전후
이래
특별히
~pc
돕
상하
~뿐
~자로
지켜
##궁
바꿔
해제
시내
~변동
사퇴
연말
다운
로마
~class
상상
겸
빠지
식물
도메인
##섬
①
그러자
닫
85
성인
조심
내수
##윤
##벽
r
리그
##올
이른
객관
~무기
취소
감시
진동
##손
털
~이기
건축
배당
만화
~론
~우
~설
~마을
세척
증시
전남
~~로부터의
슈퍼
~~줄
올렸
42
핀
~민
파견
투자자
천연
저작권자
~불
~물질
##혁
멀리
분기
##돈
히
말할
폐쇄
~없
선임
폐
~사건
나와
##칠
목숨
세금
지도자
덕
~간의
항공
~이자율
쇼
절단
완화
~메틸
달하
~~구나
완벽
그려
무릎
저자
일대
예비
전방
##홍
자격
합리
어쩔
이건
호남
혼란
~외
##싱
인용
##으로
##킹
작전
자녀
지상
~info
육성
발달
생겼
엔
~교
~총장
돌아오
꺼내
벡터
미안
##섭
면적
가볍
~quot
집계
49
~건설
이거
분포
개정안
맥
심리
썼
한참
침
버튼
진실
배제
갖춘
의문
행하
~span
돌리
##쉬
~~같
맨
나눠
##on
점심
감염
공포
군대
설비
곳곳
농축
정식
~었
64
떨어졌
느낄
상대방
용해
신속
~범위
숲
할당
~t
확실히
캐리어
##탕
120
②
오랜
~두
저작권
흔들
~~온
심장
~tomain
~연수
~기기
부진
특
자전거
답변
거론
공략
끊
~수익
병사
식당
초래
로드
신설
그나마
고무
기도
출범
##웅
웨이퍼
필드
노조
실내
시원
~사고
~전재
의회
~병원
짐
##별
남부
무서
최소한
보급
개성
~루
액세스
걸려
##침
멀티
47
냄새
마스크
어떠한
스프링
망
~~나요
##졌
쿠
~별로
~체계
둘째
점검
제약
보낸
~기능
근본
바란
추구
~~는다고
소장
단부
위주
겨우
무게
##z
차세대
잠깐
의존
제재
~부터
##에게
~률
초점
기체
비례
거두
혀
외교부
예수
~할
침대
~조건
느꼈
분양
국내외
시인
위성
##측
근접
애니메이션
단순히
가져
언제나
수학
~현금
직경
과세
~라는
블랙
취임
97
보냈
컨텐츠
##갑
파라미터
지사
~~라면서
거치
모임
몰랐
옮겨
육
~~겠다고
##혜
~~데요
~~에서부터
덮
매장
무장
재판
학습
정치인
필요성
~10
46
상향
누적
유로
센터
영향력
났
~채택
일종
스토리
방해
관광객
강남
생략
호소
토론
첨단
도포
##황
낼
~검사
매매
짜
개편
##틴
임금
향
개입
39
~엔
##돌
그걸
레이
44
황제
~~시킴
~전략
~및
빌
##친
적층
자식
~짜리
대량
미칠
영웅
골프
부과
##번
##귀
##블
명칭
척
사라지
포트
43
~된
~차원
죄
조각
~~당하
단점
진보
밟
명예
~스타
잇
푸
멈추
지출
커다란
##외
세대
평면
##압
대처
~~으니까
묘사
~is
~상황
대단
꾸준히
손익
~감사
원료
지나치
에틸
울산
내장
약물
~이란
아기
고향
링
밴드
맥주
데뷔
확률
펼치
에어
~지분
~공
고수
~공간
정확히
지지율
~~고서
##톤
손님
하향
비상
이성
~항목
지닌
52
변하
대차
패션
유발
o
닿
교류
특이
56
꼽
고기
전주
선박
f
##런
계열
알루미늄
배선
지내
똑같
##총
만났
~작
부처
제국
사드
지니
##센
전제
드디어
연락
~~해보
##충
격
페
~~든지
##딩
~리스
혜택
쳐다보
아닙
코스닥
손해
##균
특검
~~워서
ms
선출
~r
포장
~~세요
실시예들
출원
노동자
미친
내려가
~단위
##릭
소멸
~코
띄
~철
비즈니스
파병
접
땀
~~에다
~~어주
경화
늘어난
##련
흥분
한마디
탄생
곧바로
~망
균형
~양
뒷
널리
##핀
보강
양쪽
~~이야
##까
정체
이자율
~영역
쳐
~끼리
~창
떠
대결
~~보고
실수
관해
변수
라디오
유래
절감
찬
남녀
협조
사무실
수원
고대
1999
한때
증상
집안
혼
96
~결정
##엔
##지역
당부
지나가
계단
재개
~~으로도
런던
600
시키
메뉴
~~케
셋
올린
논문
독특
분해
마이크
이용자
~도로
~총리
사기
수주
~공장
버린
장식
질병
깨끗
아까
양상
취지
재미있
펌프
##페
그리스
보아
##혈
후방
승
구름
자사
ㅠ
편지
일체
질량
복지
체포
한화
##든
섹스
승부
조지
활발
~w
지칭
제주도
가하
상장
이웃
희생
탑
화제
오염
병력
~통화
출석
택시
주사
접합
가압
가리
조금씩
~행
물품
기원
디스크
심하
춤
캐나다
굳
##슈
~차례
신기
~연구소
풍부
분말
정액
중합
벌어지
도발
할머니
달려
편리
멋진
~~해진
소화
~~가는
실천
걸린
인공
갑
~~야만
살해
위원
내공
좌
시위
드러나
점수
정면
양도
뭘
~j
궁금
김정은
해군
57
증대
~세력
일어난
~보유
##걸
고위
임대
그러므로
~~지가
오디오
바이
##헌
01
추적
아아
~패
~~군요
72
대조
~lg
드러내
뉴시스
~세서
~중량
상위
촉진
와인
아크릴
허가
연극
41
~소득
토대
발굴
철도
선호
양자
연대
맵
끼워
보스
접수
53
무조건
주최
~격
모으
선생
회계처리
훌륭
~~더라구요
만일
나쁜
피해자
사이버
뚫
경사
##곤
~카
아프리카
차기
철저
~for
##짐
안정성
~도시
즐길
삭제
##홈
##람
창조
마우스
근
상면
##ng
바이오
신화
~자료
표명
직장
순위
합류
폴리머
중대
행
~하나
어른
복원
##격
불가피
받아들이
자살
당사자
~~어지
종종
최저
~토
~~로서의
강원도
찬성
~매매
~행사
와이어
~발전
구조물
##닐
배정
##낸
##례
그렇지만
나갔
~연대
폭력
본사
흔히
좀더
슈
58
질소
순환
62
야권
먼
접착
생존
담보
본래
~자동차
개설
~보호
나사
영입
내놓
~~이랑
구역
보일
~~는다면
~거
##쓰
중동
~수준
실시간
태국
단면도
쓰이
혹시
~코리아
~보고서
누르
가시
패드
다섯
##때
각국
현안
지켜보
~연금
데리
조용
옛날
비행기
단편
묶
y
튜브
개봉
연방
~후보
~본부
##촌
공약
어두
취업
형사
~만큼
3d
드러났
압도
~심
수익성
이슬람
~수석
응용
~법인
보존
굳이
~협력
선두
##핑
칠
플랫폼
상실
05
~~다면서
54
주한
돌파
~영
범
~지방
이소
부른
~시기
일어났
##틀
쌀
공원
원형
집권
마이
체크
가변
임무
~전쟁
##업체
~~론
둘러싼
코일
일방
상세히
다중
롤
~~마
북핵
##협
~~까지의
틈
퍼
테트라
필
~~왔
시청자
~~잖아
상단
~~겠습니다
오늘날
생성물
서서히
전신
뮤지컬
즐거
수업
~로드
소문
~투표
~줄
~연구
##q
동부
광원
이탈
왜곡
방영
~경영
63
~국가
~~셔
~측정
~~로도
~등급
섹션
~낸
~직
인류
~lcd
##엽
금융자산
빠진
적응
스트레스
자리잡
부장
~~이란
부활
##되
풍
51
신임
콜
~채무
경북
u
양성
계층
음반
연습
~주택
확신
유동성
보입
아무래도
처벌
과도
클럽
분배
블로그
주기
##징
해양
납치
신장
탈당
~열
v
텐
스트림
~e
견해
~항공
지명
##혼
실온
특파원
캐
근육
전파
화장실
닭
경영진
~질
강의
~과학
초대
~인치
배양
~시험
##춘
~~는거
~천원
워낙
박막
쏘
c1
남기
회피
선고
평양
빨
800
즉각
59
넘어가
~al
마친
농업
간주
~~느라
십
노리
~방안
행정부
몬스터
수취
내내
상환
업종
안녕
입증
붕괴
학
운명
귀국
혈액
00
철학
장애인
사안
##북
양호
리더
~sk
실무
강세
~요
소집
투수
적당
그대
의자
북미
띠
정착
~박스
~대조표
##먹
##샤
모집
옵션
실장
~지구
호흡
아저씨
경주
속성
##닝
~~에겐
들어왔
날개
규칙
평범
정통부
정작
늘리
감상
대체로
다음날
형제
~~부
고문
감각
##텔
특유
~여부
~기사
내역
광장
~부대
##움
걸음
~날
마스터
브라질
대립
법정
선보인
철수
설득
~에틸
얇
##슬
z
등급
~학적
패킷
비행
61
급증
답
판독
한층
감동
혈
~장비
##텐
헤
임기
당분
~~답
타이밍
융합
상무
세부
닦
상승세
목사
스테이지
간접
아무것
농
~네
열차
~세트
해명
주관
흥미
구리
휘
야구
~규모
본질
##긴
충
통보
정한
미니
주재
부실
68
다하
느낀
성향
##시장
역대
남쪽
250
뻗
서울시
혁명
회계연도
고생
한달
##죽
환상
평생
~~데도
제자
정비
~비율
##맛
힘입
대역
익숙
##클
~~용
선보이
분사
없애
나설
의외
##착
##완
접착제
비스
들어갈
88
아마도
수송
시공
심한
##팔
~자본
~영화
자네
~기도
찾아가
아쉬
미술
각자
~분석
~~고요
변신
~폭
부각
사유
매출채권
중반
상담
j
민감
과장
항의
개폐
보완
남겨
과목
고전
부드러
##엘
##벌
~이용
~등록
메타
한글
환영
가깝
씻
산하
다를
~절차
원작
기운
~니
5000
무공
또다시
겨냥
편집
감싸
만남
도대체
나타냈
통계
단면
유의
픽셀
67
~판매
##j
여러가지
##탑
구상
페이지
비전
대륙
외주
~~에게도
##될
1998
실정
가게
~세대
마침내
~개국
본회의
안쪽
한숨
잠재
##객
##겨
##튼
시청
탈출
고도
소형
반송
바위
~사진
소수
서명
일찍
##앙
~산은
~5000
수분
어둠
이종
궁
들어온
육군
71
수납
이슈
~시즌
중요성
##존
펀드
전북
##먼
상업
##나무
66
3000
직
~훈련
~~시오
~~만으로
부근
월드
재질
~축
~미터
거절
옳
추억
1990
반전
실린더
##욕
그래픽
여겨
진영
폴
노트북
칸
모래
관람
향한
~on
##취
희
흘리
종업원
92
~남
귀여
개수
명확
~품
이사장
들려
94
수비
~단지
논
거짓말
~~답니다
기독교
들리
닮
##넷
~게
##es
맞서
풀이
주소
##있
동양
만날
통로
도어
간섭
눈치
돼지
~기판
놀이
붙여
리드
벌였
마크
신발
오직
~아이
지금도
~l
키스
활
거친
포토
~총회
~전극
연설
키우
노즐
~조직
가산
색상
증착
동네
깜짝
물량
##셀
~회관
직무
~바
수록
~작용
결
홈런
한도
~소자
그날
##폭
~위기
##습
종전
모색
pd
~원대
성명
박스
들어와
적정
포괄
~채널
해체
완
계좌
비닐
너희
ue
##km
신분
##좀
드리
##잔
~절
조화
~성장
##밀
전설
코너
그야말로
박물관
78
~~으로의
~당의
소통
~버리
타이
거주
밀착
빅
항원
어찌
민생
##le
~교수
조용히
저지
##스트
~h
무렵
위원회
180
μ
눈빛
쇼핑
정원
심판
얼음
##딘
~업무
③
던지
~부틸
아동
화폐
원리
며칠
펴
유권자
~대학교
~속도
~24
롤러
우측
##운동
##턴
증명
정말로
영혼
자세히
용접
북쪽
##새
파티
##산업
고구려
##시설
지불
아쉽
##누
지휘
인터
임원
~~당한
~어부
유력
##힐
당한
머물
낫
~공정
재무상태
차입금
도구
이란
뼈
~~졌다
머
패치
드래곤
업그레이드
장군
정수
인지
클
침체
경과
대손
69
샤
보정
업데이트
청문회
지위
이러
해상
한일
군인
~~거든요
총재
##읍
어레이
오프
수도
표기
~년도
플라스틱
~의무
선배
테이프
보지
눈앞
드레
예쁘
공주
오랫동안
~매수
93
적자
##득
시범
w
~ms
어쨌든
~패널
차별화
모니터
##플
ktf
근로자
~았
선진국
펄스
~공단
##정책
인프라
둘러보
~as
외면
잇따라
##었
##al
~실험
76
터키
아프
양산
살려
살아가
착수
나간
불교
~길
얼
컴포넌트
명시
동반
가벼
블루
제제
침해
##죠
배분
~mm
컨
답했
대거
##능
희석
휴가
무언
일반인
편하
개헌
신음
03
~홀
포털
~~부터는
부자
아름답
불렀
~~터
콩
인원
진화
태풍
##왔
##없
세정
요건
~20
살인
파업
창업
편성
건너
예쁜
77
~놓
~대책
~kbs
선전
종양
살리
수리
~재단
점유율
역량
~mbc
소위
~영업
탱크
북부
열렸
~의견
누리
##얼
통증
전시회
편안
~~데다
##ly
도와주
원격
다행
신제품
##릿
녹색
~이후
가만히
줘
유행
87
밀봉
모니터링
벌어진
##갔
일제
심의
부호화
~호텔
당분간
소모
nbsp
~코스
~~스런
~먹
1997
대외
##이다
꼴
경력
밀도
채워
안팎
일각
고등학교
금방
700
~그
돌아온
~디
파이프
타겟
자국
단속
최악
투쟁
##화된
~협의회
반박
82
시계
~대전
알아보
끈
복제
~축제
곤란
정렬
04
현황
신라
항공기
간부
멕시코
케
관하
스위칭
소중
사법
떠오르
##관리
연인
그러면
수성
생체
포스트
~방지
극대화
야기
집합
착용
당했
91
73
입사
물류
대학생
에이
김대중
속한
~알킬
뻔
~금
결심
##견
뛰어나
곁
성질
증폭
86
주행
독점
##ion
호수
부지
김무성
무한
정규
오류
부당
리스트
~~달
단축
겉
거지
##탁
~갈
휴식
백화점
09
~마리
막대
퇴직
한해
조언
~~길
자신감
법인
~처
그쳤
복구
끝났
하드
팔레스타인
진지
애초
출구
전역
컸
발동
폭탄
~~야겠
~라운드
물체
~조치
84
에스테르
경매
α
나쁘
들여
수십
##콘
사이클
오해
여권
함량
~수지
스위스
mp3
예외
실망
피로
볼트
축하
##밍
묵
천하
구별
시나리오
주차
~~냐고
어울리
자라
흔적
뚜렷
할아버지
~처럼
계절
~~하고자
무척
관여
~기가
~모델
~베이스
헤테로
비명
좌측
기소
떠난
##빌
과일
~~디
~차이
08
분쟁
멀티미디어
##하여
~~록
하얀
일본인
또다른
언
공군
최적
운반
~청구
원활
액
서부
이점
레일
인재
상응
ml
상당수
~~는데도
타임
전당
세웠
용융
74
ㅋ
계수
굴
조만간
연동
입학
~모듈
~~으려고
유전
행보
81
클라이언트
##위원회
~학생
~mg
~~더군요
부모님
트
~kt
~감독
꺾
가보
연구소
마이크로
흡입
~공격
바르
이걸
명백
~at
프
싱가포르
흥
인텔
구글
오버
이젠
계면
앵커
내주
~규칙
##회사
둘러싸
추측
파트너
데미지
출판
유도체
입법
~웨이
~국장
~~에서만
취재
~선수
~성과
내달
이어진
심화
벌인
~~보다도
받아들여
충당
최신
~통신부
확
모노
동아
지난주
턱
##센터
흰
환산
자외선
기온
~보증
차관
높여
~공급
노사
그럼에도
짙
위축
넘어서
정밀
부작용
페닐
~까지
돌아왔
~지사
~때문
충남
플라즈마
이쪽
애정
제고
~기반
~개사
부회장
화재
83
하드웨어
종이
입주
스마트
~화학
원소
##육
바랍
국토
1h
소련
~혁신
##관계
에피소드
그다지
증
납부
~레
기아
불확실성
육체
지진
샤프트
~이라
부사장
##척
~구역
손잡이
공세
해방
~신청
황금
79
놓여
무사
말단
장난
담긴
균일
입수
파생상품
모이
##쪽
이혼
화물
이모
~~시다
~순위
뒤집
시켜
집회
서민
##릉
구단
##칸
독도
핵산
의결
비싸
하여금
~생산
벤
비하
~led
~축구
장악
가교
##롤
돌아보
임신
예고
코딩
네이버
##느
아르
110
증발
~친구
레드
등지
##쳤
네덜란드
준수
스펙트럼
서류
문헌
##사업
패스
##몬
무거
온갖
빵
~센서
휴
~복지
~화물
##젠
기지
축적
어차피
##셔
89
간담회
가방
##끼
외치
부총리
~v
아이디어
~료
소니
상임
캡
~프로필
신선
07
지역구
가구
~세계
~eu
공격력
연마
자꾸
가문
인도네시아
사이즈
두려
~운영
가해
지혜
청산
~펀드
인체
사라졌
록
유선
화장품
논쟁
넌
~~야지
접하
기둥
분열
~유닛
팬티
~트
외모
~~주세
~기록
순차
당업자
어쩌면
폰
발급
수명
당원
김영
##벨
~he
##밥
비리
마찰
위력
자치
코리아
약정
알코올
~11
늘어났
1980
더해
모자
후술
더욱이
~않
최후
~미사일
상각
가사
내밀
##렛
극단
왠지
젊은이
연산
지향
~미디어
용서
태어나
플래시
무관
북측
쓰레기
화이트
유승민
##굴
야경
~천억
##졸
수급
라이
~질량
에칭
가전
티켓
신중
지냈
##킨
트럼프
슬롯
맹
난이도
탑승
바디
~나가
~전환
커넥터
~목적
부드럽
대개
~that
필리핀
주연
단량체
추석
~충당금
##an
중계
고양이
~자치
##몽
내다봤
##공사
~드
윈도우
동력
청주
~~만의
솔
철저히
으
히트
ap
학원
~대사
별다른
전공
청소
옮기
싱글
요약
##or
일주일
꼬
~달
용역
열정
한동안
강해
깨닫
##김
주먹
~k
극장
워
둘레
~온라인
인연
바보
합동
##ch
##은행
윤리
봅
제어기
구해
~인력
엄청나
되찾
~제한
~난
커플링
살아남
콘크리트
브리핑
수수료
차별
돌입
상하이
~곡
~골
개막
기법
~~시는
영업이익
에지
~조합
합금
이연
욕
130
연예인
발효
크리스마스
도저히
시체
주체
무상
기상
줄여
농민
가난
리튬
서쪽
점령
캠프
전진
이어질
~티
그간
##기관
부호
~기지
진술
대장
기다려
명성
다가오
배기
국정원
현역
주류
교차
입체
맘
스님
진상
기쁨
걸친
##문화
포화
약한
악마
색깔
김치
~구의
전선
브
그치
##좌
시야
품목
평행
~사로
혜
편광
투기
심정
이룬
견제
짐작
정의당
의거
##맥
저런
06
~버린
던져
침묵
~~으러
교과서
시가
곽
보건
허락
##빛
고르
~실장
방향족
~소수
측근
ㅎ
귀족
흘러
lcd
전이
기어
후원
신비
펜
엄
터져
세운
효소
~메
약세
출자
불량
음료
대대
상계
돌아와
~당국
콘서트
공감
따위
수능
~순이익
안착
눌러
##틱
에스
탁
적절히
약제
합쳐
~주기
하위
철회
~박물관
수반
대다수
화장
부패
간편
오브
봉사
담겨
~창출
매트릭스
켜
흙
가중
탈락
문득
고장
물가
~이동
##납
징계
중점
치러
확립
##힌
~광
그러니까
운송
운전자
넘기
도전성
잘하
~~과도
동쪽
푸른
~기획
심볼
~전문
~회장
이식
아미노
~ip
~가능액
일환
먹이
개략
보증
콘
이어졌
다짐
~데이터
~korea
~에너지
강원
메이저
고가
진심
~경쟁
끊임없이
이명박
절대로
순식간
별개
조달
~음악
취해
##칼
~국회
붙이
q
재단
아니한
린
중부
~f
폐기
기술력
근대
하아
결함
모았
소음
가장자리
탄력
##시간
우위
~~노
임직원
순이익
사냥
교육부
인민
내려오
##롱
건립
주차장
짚
~et
장르
후세인
~발생
학자
##빙
그림자
중순
~버렸
나란히
팽창
벤처
당일
~보다
기차
어느새
~~구요
유해
지낸
공작
정보화
액션
커뮤니티
재현
계정
~no
님
의뢰
##랄
국경
챙겨
~전압
서술
~꾼
##꽃
고온
카르
사라진
훼손
~부품
비싼
문장
~~가요
~삼
에틸렌
~조절
핫
편입
기름
객체
섞
잔뜩
여사
계곡
##효
~처분
##se
~안전
##앤
앞둔
줄일
버퍼
오리
촛불
아가씨
변조
치르
돌렸
##잉
~총액
##in
학문
은퇴
~교회
맞춤
##냐
참사
천원
~였
~be
하단
각오
특성상
##응
위로
승객
태어난
화살
자율
~가량
위대
잡지
~sbs
노예
##펜
제법
몫
구도
차입
빌려
##십
~학자
~개선
장수
##죄
케이
이념
흔들리
~아민
낮추
입지
~잉여금
대향
~기금
인형
피크
##우스
##us
동굴
잔액
안심
벨트
믿음
와중
생산성
고발
cj
앤
구조체
브레이크
si
발목
명단
세그먼트
지르
잎
테마
~중심
임상
~관광
둔화
추락
중지
재분류
~fta
~순
이집트
~교통
배려
2019
달린
턴
재평가
##륜
향했
인자
다이오드
버려
익
~strong
일관
~시리즈
우린
겔
~합체
새해
램프
케리
드라이브
~가족
공모
수익률
쟁점
프로세싱
포항
깔
댓글
응원
~요금
깎
제발
가르쳐
~블록
##렬
증인
~12
~50
차라리
채우
영토
마쳤
묘
계열사
투과
전도성
##풀
~도이
여지
존중
함수
단장
연령
신인
걸렸
~~진다
진전
~~으려
~~우
##접
메일
커플
개통
배향
~협상
##잡
끄
밀리
거칠
r1
~~키로
기대감
~설비
감액
언덕
~샷
자제
보통주
감추
차가
깨달
고교
부피
~프로
일부러
첫날
~매
##찰
센
풀리
광범위
~찍
스텝
새끼
한국어
충북
~사태
기부
성장률
원고
설문
곡선
##논
민주화
~단의
위장
토론회
바지
쇼핑몰
~자원
뒷받침
흑자
~관계자
어서
이산
전차
거울
출
전액
급격
연상
급등
~안타
꽉
일요일
수위
체육
수동
입찰
재벌
##단체
~모드
도출
칭찬
선도
민심
줬
부리
한창
~지대
수용체
~거래소
자회사
원천
연금
벨
개체
고분자
재배
가계
~술
드러난
일련
크로마토그래피
저렇
아직까지
강경
타이틀
일례
~자리
다행히
1995
~~어가
~규정
##럼
쳤
선행
기조
~재판소
~예술
반기
슬라이드
무산
##ce
##혔
타인
효
리스크
등등
##장치
~~렀
~에서는
계시
미국인
이끄
서양
~y
~~는걸
~실적
1996
사원
궁극
떠났
더이상
냉
온몸
꼬리
출입
경유
~dna
날리
본격화
~~잖아요
깔끔
~~여는
안개
~15
신당
~~제
시중
문명
~~아주
~램
이적
~~리라
튀
컨트롤러
~저
바깥
원주
오가
붙잡
강요
~보가
도모
##솔
바뀐
태그
컨트롤
무섭
꾸
공조
적발
몽
따지
##닌
~왔
프리미엄
동맹
시일
~척
전위
지표
넘치
죄송
~차량
~~으로서의
컴퓨팅
~변경
앓
공직
명분
마디
심해
의학
지음
캠페인
혈관
중도
신앙
오페라
내외
정국
창문
성당
영양
처지
~인사
cd
참가자
여기저기
##허
수신기
대충
잘라
~누계액
##농
승용차
~사업자
경비
##룸
대목
예금
수백
중복
출생
통지
동북아
줄어든
뷰
##소리
##st
백색
백악관
~했
선단
~해준
르
수면
보충
~생명
일제히
##휘
말라
김정일
프로토콜
빠졌
숨겨
관계없이
~현
드럼
~대출
고맙
비롯
한강
무력
중화
해안
피스톤
섭취
##50
정관
~~에의
선형
후회
체중
~프로그램
아민
였
~~라고도
나뉘
불가
상자
비서실
목록
덮개
~~해졌
애플
피곤
배포
잉크
출간
대여금
##정보
우유
물고기
아베
앙
~전력
라이브
인질
여건
고백
역임
##겐
##te
걸어가
마구
~로스
개척
~미래
반응기
넷
아릴
창작
대리
~연맹
엄격
후기
어셈블리
정서
루프
양식
유상
~사람
청약
##봐
에폭시
##묘
이주
방사선
높일
~의식
~신용
보조금
매주
출장
세로
여담
~주일
내릴
~본부장
고소
달했
신의
합격
~~당했
떡
샀
##na
전작
농촌
원한
대표팀
현대차
~by
##벤
음향
~하우스
중국인
~스포츠
휴대용
총괄
##큐
~with
작중
편의
##엄
~~줬
격려
##낼
찢
직선
~하고
##냈
솔직히
~평형
빼앗
밀려
무수
그래프
녹음
~재무제표
아군
증언
행해
약화
##um
상원
배합
원화
언론사
~~지라
올라오
감자
~종료일
왜냐하면
불필요
마르
~싶
철강
##푸
##젤
본선
애널리스트
~컵
돌아다니
교반하였
소폭
아웃
기인
세미나
지상파
~~으로서는
##따
~투자회사
결성
연봉
방사
~식품
김종
백신
일으켰
족
오랜만에
~la
더구나
사후
욕구
홍준표
~~던가
횡
이득
구원
한꺼번에
~you
소지
몰래
법무부
~금지
빙
협회
~부장
오사카
##칭
지옥
~동물
넘겨
~0
~알
고조
남긴
~치료
안경
~화하
led
왕국
힐
용인
합계
엠
전무
터지
용병
버티
~id
그거
과학자
해변
~~까지도
##mm
일으킨
제의
조금만
r2
광역
##혀
##웠
주된
신부
임의로
~임
압
동화
빨라
동참
제조업
즐겁
실리카
무형자산
파문
~억달러
답답
취
대법원
영구
뚜껑
아줌마
~co
유학
분당
소금
폴리에틸렌
~현상
태평양
컵
만만
사방
~냈
메이
영광
##닉
흡착
동해
효율성
~치가
비치
##몰
떠올랐
~밴드
대항
##활동
~연결
와이
거래소
내각
~증자
기울이
체인
조리
원정
수영
~태
~미군
~년대
~영상
~~더라
널
~파일
~지도
시퀀스
##랜드
~폰
~시티
대단히
~변화
최고위원
쭉
높였
~레벨
우정
~구가
클릭
표적
~특위
##문제
문화재
##렁
##학교
나이트
건의
반성
병행
##틸
최순실
연소
왕복
##났
파키스탄
~타임
글자
~시트
백성
~q
언젠가
돌연
타자
포지션
레지스트
간단히
~~여도
짝
남겼
##ta
~연막
##10
160
신나
유감
도심
증권사
남한
늘려
친절
괴물
야외
도서관
더블
후배
시티
~테
~위치
유혹
반경
##엠
정전
~rf
법령
유연
격차
창당
성립
정성
~포럼
이럴
시신
의류
슬라이딩
염기
##는데
프로세서
##흥
쓰인
벌어졌
주거
중공
공화당
고집
구성요소
머리카락
이마
석방
감압
놀랐
시료
먼지
성숙
완충
파도
조류
물러나
김용
서둘러
됨
리더십
반해
##밭
돌출부
~ph
자석
침투
선보였
늘어날
재검토
몰려
졸
신사
아리
중첩
~법안
~올림픽
화성
절정
피할
약하
드라이버
취약
트랙
##칩
포맷
가로
베어링
가리키
~cd
키워
갖춰
표지
터널
야간
기능성
900
탄화수소
상식
민정
낙
시정
1994
당선자
~작전
##de
상각후원가
~지지
잦
보드
스마트폰
최적화
장사
저해
회전축
라이트
분자량
##겠
역전
말레이시아
최강
두산
랜덤
오토
무림
김성
자문
라면
비타민
피아노
민중
중시
캡슐
##콤
시골
##th
##뒤
~통합
뜻하
~톤
시급
납품
조종
~앞
소원
지주
도덕
블레이드
원유
~2000
락
마침
텔레비전
세기
한방
드물
다해
죽여
mg
~~느냐는
핸드
식량
끄덕였
방치
140
~극
일어날
~과제
~ap
이리
~채
이의
~소재
~대통령
얼른
썩
연휴
낚시
대미
스피커
전직
중학교
##회의
~에는
영문
범주
홀더
##ic
컨설팅
##찌
##cc
##레스
연신
횟수
응시
골목
~~어졌
초음파
능
피드백
~전이
미션
토요일
암호화
게시판
마당
일으켜
간판
정상화
감사원
구호
면담
~~준다
진주
문의
보석
제압
##et
교황
마법사
~o
생일
범인
박리
결승
칼럼
휠
막판
급격히
득점
징후
아끼
##덴
연재
새겨
사라져
국장
도약
어딘
~신문협회
ph
##맹
교정
1500
연애
명확히
실체
~~서라
~17
톱
##럭
~리드
~공항
허위
##cm
~소프트
1970
우연히
출현
기다렸
##참
##줘
착각
휴대전화
조항
재화
주간
고마
씹
~밸브
지자체
지경
파이
바퀴
##시스
상정
홀로
~기법
코트
수용액
~지부
입국
성우
~21
권고
~배당
유압
놓치
~총
다룬
##과정
이재
격렬
상인
##기업
챔피언
드러냈
제형
##겼
내면
욕망
포착
경상
명의
~운용
가려
중립
~메일
##쇼
~풍
##이라
##기간
팀장
감가상각
정화
~공연
~~로만
곰
##컴
화력
~겠
##nt
순자산
유의적인
들이
행렬
차질
영업권
##둥
방위
~회복
골드
~~만은
이승엽
결의안
알칼리
아프간
##짓
~던
빛나
ceo
오래된
부서
의결권
수습
돌기
~클럽
가짜
아이콘
약점
비유
챙기
창립
퀘스트
협박
뒤늦
생길
반등
~~다시피
늙
툴
침입
향기
세무
정무
경기장
~쇼
##머리
카운터
대변
여신
~업자
빌딩
~점유율
허벅지
면제
저감
들어있
가르치
재밌
탈레반
주둔
~커버
~si
##킬
지리
연결부
미스
박수
달한
바그다드
욕심
무형
##놈
클로
~봐
흥행
~극장
신성
~~채
~체인
흉
수련
신형
판매량
사격
잔기
지목
전격
인덱스
어느정도
코치
사시
광경
과시
그분
~가능성
모은
사양
유아
골라
101
~~으로만
건축물
달라진
##컬
쿨
설마
기세
~혁명
할로겐
무소속
종족
위안부
박정희
의상
~u
이뤄진
국면
정통
##했다
래
~~걸
~작가
~옥
지형
사흘
불투명
에테르
~에게
포스
주름
~중앙
방전
##버렸
##털
~경쟁력
고등
##콜
아쉬움
~광고
여긴
~주주
##시스템
관할
강행
~fc
의약품
##ve
외관
폴란드
성남
##빵
증기
확충
유세
스웨덴
선진
플
계약상
##트리
천장
사운드
성경
~집단
황산
벤처기업
생겨
책상
##nm
왕자
~용품
~공학
지능
트랜스
아미
##꼬
보물
질서
모시
##팩
~동맹
가요
방송사
승진
맡기
어플리케이션
~제어
레스토랑
올릴
~데
~안보
아날로그
성장세
완공
대행
허공
~코드
~백화점
세종
태어났
스캔
~화제
갚
웹사이트
즐겨
~담당
이은
~~엘
아세테이트
간사
~서버
애니
별명
단단
~종합
##잎
지붕
문구
id
꼽히
##re
프레스
타이어
습관
안보리
정체성
허브
처
동결
방한
비서
##눈
##둔
이치
~변수
표제
대학교
강연
크로스
개장
땐
##딜
증세
페이
병역
구사
마약
β
만성
유방
호전
흠
친박
규명
##뉴
~비트
그중
~평균
~내역
~간담회
어릴
~아파트
강릉
아픔
일원
포스팅
기업인
개조
더하
산책
~여서
##교육
탐
감성
국산
처녀
~~은가
극히
##답
해킹
##놓
딴
~이닝
엘리
힌지
~수사
불꽃
히터
등기
ic
~돌기
~팀장
~매체
변해
출국
~~에서와
두개
안돼
총회
원자력
스카이
~~랄
사이드
##곳
불순물
함유량
약해
소식통
규격
~약정
구성원
자존심
졌
##레이
고이즈미
~측면
##ne
스키
구석
암살
##짝
논평
싼
전일
올바른
전도
전적
불행
사찰
유물
성사
모션
곤
괴
여수
~책
~칸
~볼
~법원
mm
선명
함정
출산
농담
탔
불린
재능
단행
~500
장기간
사형
배당금
부탁드립
두려움
치수
발음
##씩
염려
##ma
이민
~형상
취한
~리스트
측벽
비로소
안하
벌여
사막
배수
이뤄질
갓
~트리
협정
~사용
##거래
갤러리
거세
양보
주자
다크
환원
냉장고
컨테이너
##대회
루트
하락세
무덤
~형성
##놀
등판
크로
견고
절망
큐
~지점
싫어하
~범
~~아라
손쉽
##이드
~~하는
kbs
다가가
몽골
이지
치아
##뢰
##병원
텍스트
~갑
서구
여왕
로비
날카로
~아웃
추경
우세
회원국
김정
급락
호스트
눈동자
딜
명품
~령
그랜드
재발
열매
~실현
들렸
스피드
한자
##흐
전망대
섰
탁월
롱
형광
세라믹
충실
전투기
그러니
지분율
당당
~용역
찌
##40
이수
~짓
권위
비대위
검정
~보이
치유
내재
까닭
퍼지
외쳤
앞선
쾌감
아픈
##거렸
사물
열쇠
보낼
후퇴
지지자
사면
로이터
##el
파손
~하니
~협정
~값
~~서만
직면
~카메라
~존
~부동산
컬럼
안티
비교예
승강
선사
전장
공인
~기계
~~봐
영위
예선
게재
~필름
안정화
~팬
어째서
복사
복용
##늄
관절
일부분
미생물
선별
델
~기어
고지
응답자
##없이
아직은
잔류
~금리
##지만
무인
~민주
~sw
세계닷컴
아름다움
##rs
목적지
급히
~베
사자
클래스
질의
매개
접지
찾아보
열릴
오를
오목
##ge
##is
빨간
똑같이
~당과
안전성
수축
아트
빠
~린
어쩌
동향
조세
기후
노하우
~장애
il
존경
성기
주머니
##룩
야생
꽂
~학원
~페닐
작곡
##팬
이메일
터미널
댄스
인출
상용화
더러
~~잖
기울
분량
출근
~펩티드
~~와도
모금
중구
~보상
기호
~유지
~~어라
~용기
~심사
낡
발간
상점
배관
④
감히
소매
~패스
핸드폰
일괄
~nm
화해
알파
추격
##꾼
굵
##ra
점프
관행
밀접
프레
노광
조율
조회
금전
협
~행정
신축
요원
이겨
증진
~~당
결단
~~해질
~예정
~or
학부모
캠
소프트
공방
표결
착
~크릴
그러다
강성
구두
동행
##한다
국무부
강렬
날려
하강
##첩
인지도
일본군
안겨
떠올리
곱
소규모
다녔
강력히
~모터
##럽
수렴
백제
~전선
감옥
따라가
오차
호조
게이머
조국
주부
~결
여섯
~입자
부합
귀찮
잭
~코딩
~치환
~봉
##델
~약
~탑
둘러
재직
저주
압출
제로
비추
민간인
~모형
상영
열려
리소스
음식물
~년간
쇠
~~다는데
웰
~~볼
잠실
도금
비극
쫓
~소송
약학
매달
즐거움
외곽
##pa
국왕
~안이
한가지
미사
꾸준
저가
~현장
~체험
원금
비정규직
교반
실종
꿀
외형
지면
토크
울리
클리어
취향
##70
열기
전담
~자원부
펼쳤
올라갔
##띠
~합
##방송
동방
동남아
치료제
음모
뛰어들
최상
본부
##대학
움직일
건가
덱
~협
도서
350
열풍
아크
엘리베이터
던졌
강호
##롭
예상치
어드레스
가속화
헌재
~16
~튜브
~13
##이었
부수
연수
~~으려는
메가
기금
~근무
대사관
오로지
직장인
급여
초월
유량
소주
박지원
~사실
gm
~go
~ktf
##폐
몰리
아이스
손바닥
~플루오로
양극
퇴직급여
하원
원전
거짓
##리스
~was
연통
##꺼
텔레
~신고
배지
뛰어넘
염두
와이브로
사스
흰색
걸림
플러그
아테네
슬픔
간신히
굽
~다이
##버린
사인
파란
물결
대원
계승
~~으론
디자이너
민원
희생자
국감
~~토
~~이라서
때로는
베타
해설
##개발
원수
붓
스토리지
한잔
적립
##째
~웨어
감축
재판부
시판
도래
~종목
계급
로켓
취할
~14
아연
영원
가톨릭
~만명
##30
~추
이견
~법적용
어색
굿
습격
제임스
적외선
상가
~정신
##받
고시
떨어질
고형
~호선
~~던데
합작
~다운
추모
내성
하나하나
소외
날아가
드릴
~순환
~쿠
##ck
키워드
보험료
카이
걸릴
행성
뜨겁
~~다거나
##억
듀얼
호응
안타깝
탈북자
세번
~ic
~보조금
마이클
좌석
아무튼
hp
수량
옮겼
~an
자칫
~~거야
~계열
분쇄
금강산
해리
~~는데다
지났
원재료
~섬유
금메달
4000
포로
전단
##달라
~청
윈도
총수
~노조
다이어트
배신
시멘트
~아미노
꿈꾸
학술
벤치
베스트
근로
모인
배틀
밀폐
~투
돌아갔
움직여
~노동당
~탄
co
~음
~세가
총무
통치
방금
~재료
엔딩
~동기
춘천
컨셉
수천
폴리에스테르
통일부
날짜
베르
펩티드
노동당
잠금
시술
문건
나스닥
면접
나트륨
양단
판사
맥락
뜬
그릇
시청률
항구
##셋
1993
무너지
1960
켄
갈라
~외교
추출물
획기
입장료
특화
클래식
온천
~소설
포스코
~do
자본금
아프가니스탄
##칙
~사이트
dna
이길
~패턴
고압
~학회
~결제
시달리
박차
~복
##았
##봤
크리
가져가
일실
스승
##en
~반기
신세계
전분기
솔로
훈
커패시터
미루
바꿀
황교안
~조차
킬
~전지
구할
연차
##제도
##널
좋아한
세균
~선물
잔존
3g
골프장
~인터넷
1992
##캐
각기
실제로는
틀림없
흑인
세이
입원
~시절
~고기
수중
가져오
치명
억제제
연체
~me
엔터테인먼트
관리자
막상
~~거든
##ment
~무역
일기
전구체
킹
자발
배달
유인
eu
프로파일
##증권
증가율
레버
펼친
이차
##기술
놀랍
폼
리눅스
위탁
~균
변한
~네이트
~함
멸망
포럼
##계획
참석자
미달
##협회
주전
멋지
경영자
행운
예산안
##삭
뱀
##경제
##환경
밤새
이윤
그리하
가속
조조
겹쳐
딱히
크림
솔직
가죽
랩
베를린
견
재건축
오프라인
팁
춘
치솟
##퀴
~확대
발걸음
대여
징역
~~시고
~청문회
~대행
인장
가라앉
때리
~전기
잠수함
잠정
~활성
재건
배럴
유료
~출
~손
al
푹
~영장
이력
~고정
김재
~1109
호기심
자궁
주주총회
발판
독서
~의사
모형
거실
~18
나눈
책임자
~광부
자매
팩
~us
mbc
화산
##ar
~분리
단일화
꾸며
##헤
자지
운항
방열
크리스
~단자
잔여
극심
몹시
~so
##아이
재즈
##괴
##da
~~려던
형님
천재
보스턴
~we
나타낼
~검
##다리
~으
관세
거래처
##톨
손목
마사
목격
##20
결혼식
점포
1991
블
~콘텐츠
이영
모스크바
마주
만지
헤어
~25
##투자
치밀
비공개
러브
찾아내
사령관
장거리
거품
냉매
트럭
수시로
잡히
나타날
~구간
협약
ip
한인
사임
~미술
이어져
아르헨티나
~버
강사
##리아
하중
평판
음주
당국자
벤조
~여대
라디칼
~100
지지대
~ml
잡혀
~40
시집
참배
아우
안타
귀신
해임
프로필렌
##멸
오브젝트
~시민
지지체
~분할
보전
연구팀
~업종
~수리
디아
아파
차액
구제
~고객
~화한
침착
sc
각성
괜히
피우
170
~부담
~규제
mc
~vs
탐색
~rfid
여파
~de
침략
~인수
텍사스
~~토록
~dc
하이닉스
친박계
기적
대상자
##조사
선회
분비
토끼
변했
그러다가
~테러
디스
첨가제
~인증
~나무
차분
##럴
최다
~up
##멘
탕
좌파
뮤직
파산
집착
가닥
관광지
##ry
~클로
숨기
시그널링
몸매
~~졌습
샤워
~선언
sw
시카고
갭
억
재차
알고리즘
##ps
메탈
카트리지
메커니즘
기질
캐스팅
살피
영원히
동아시아
카르복실
삐
데이
과감
##낭
의제
~이전
~르
주시
매니저
을
조짐
장벽
침공
중년
광화문
부끄러
아일랜드
원자재
사외
일일
공화국
주권
고쳐
글리콜
발열
##랜
시세
견디
생생
~월드
권유
딱딱
##ss
식민지
~이지
##듯
올라간
##만한
~공시
효력
확고
천사
교실
란
관료
경영권
대치
한류
농구
마비
##스터
추첨
양심
교섭
져
반지
내세우
접어들
##밤
장갑
유적
말투
~송
엑스
진리
공동체
~구멍
##끈
무선인터넷
도리
수상자
멋
~년전
표준화
유족
낭비
온통
국세청
##테크
좆
로그
~모양
~요인
발포
##ol
이어가
~~었는
입맛
배운
~접속
~합성
시비
떨리
~19
타협
과잉
~ceo
##80
러
타워
~~은지
적대
효능
소유자
정공
현저
~몰
실업
##퇴
파일럿
아세트산
상금
~이사회
에어컨
행한
감탄
퍼져
##데이
창원
##ro
~성분
캔
일명
이물질
~증가
적재
제치
~발행
김경
~레이
염색
선포
용산
레이어
감기
적당히
~아크릴
필자
~몸체
유비
~대변인
~31
감사인
서방
##루스
바꾼
세션
에이스
고고
현직
~교통부
사료
좌표
클린턴
비핵화
페이스북
주방
사거리
~심리
재빨리
애인
##능력
재난
퇴직금
아스
~dmb
마사지
지침
ar
오스트리아
천안
##셨
~cc
##턱
~달라
이면
매칭
~ii
com
선관위
la
구획
##닥
중장기
특별법
사출
스핀
~22
##짜
헬
얹
~~본
##이트
dvd
벌리
우호
무지
야후
이쁘
kg
~여자
맞이하
나빠
cc
이승
감당
진료
모험
~주의자
어떨
사망자
올려놓
세제
말리
~~겠지
한중
헬기
동등
궤도
명목
역설
엘리먼트
전산
##os
금형
인테리어
한눈
~명령
유화
외무
에탄올
##즘
##행위
내쉬
##옷
짱
소망
~유로
~~가를
지문
~자유
헛
채취
추산
극성
내정
끝날
반환
꼬집
일본어
멋있
김태
~said
~기온
~반응
~차익
쓰여
불안정
재선
~z
~상승
위헌
##짱
~특
브라
~위해
##co
체류
비자
~제공
맞춘
바라본
##생활
~text
흐
법칙
아님
억울
~준비
맛집
해산
사로잡
~배우
사제
처방
~만대
게이
복합체
엮
점유
드립
~변
조제
론
기동
~문학
시장가격
~특허
~고리
장미
##쇄
~hp
붐
대공
~자수
~시드
공구
정령
수령
~조선
지대
불참
~센트
##꾸
원조
뇌물
대박
그만두
과학기술
sm
덤
불황
소유권
~합병
##랭
~대금
하기
##60
생선
동서
천공
강점
재계
죽인
위임
##라인
태양광
발의
~dvd
이화
~~으면서도
익히
~사단
~일정
나비
##닷컴
원심
~홈런
한두
##렐
~엔진
햇빛
던진
대두
트라이
중원
윈
장교
갈색
~오염
조상
~계좌
음식점
세련
~사장
~경제부
실태
가드
수수
적혀
요새
볼거리
~대가
c2
~필터
다름없
~헤드
가르
관람객
~질환
놔
~보수
~대표팀
~사상
탭
##서비스
학계
생산량
컨소시엄
이듬해
##di
##핵
##호텔
~~어져
~~주는
꿇
~계정
연내
~침체
히드록시
~크
유전체
아시안
스페이서
계파
일일이
반격
마리아
~~을수록
~롤러
귀엽
메탄올
노릇
~서울
1988
돌아서
사슬
~활성화
지나친
칼슘
~지배
이에따라
주도권
정복
반가
솟
모서리
음극
봉인
~~단다
~옥시
드러낸
과다
연세대
이룰
뺨
걸림돌
기습
~현황
~23
룰
억지로
달콤
~ta
갱신
그늘
국적
~일자
수여
새우
~케
로버트
원통형
보복
바늘
피복
기쁘
105
비정상
따져
1989
~청장
창고
퇴진
찾아온
생리
수색
~라이
흡연
~안정
대리점
복장
금품
황우석
초고속인터넷
교장
##방법
증가세
~놀이
스튜디오
철거
r3
c6
실전
효익
~할인
때려
무늬
끔찍
##러스
오른손
파트
어떻게든
버릴
~주자
유산
~작품
섹시
던전
달려가
##맞
유독
~from
다음주
찾아오
개재
브리
레이스
아이돌
~추진
~~야할
~피해
규
창설
잉글랜드
해주
달랐
로컬
무효
빌리
투명성
다녀
##또
##la
##am
모리
렌
남해
거점
이례
컴
해법
공산당
살균
대접
야채
영하
파생
형질
~화폐
~교체
역사상
지우
양손
##사건
골자
폭넓
반기문
결국은
##ty
탄산
~증
정계
똥
시상식
도박
##뜨
거뒀
시간대
~~옵니다
~염
~인과
인적
이정
요지
화염
~청사
주고받
비박
마루
근원
개량
~not
남아
~수익률
집어넣
~요건
전해질
~해줄
~분해
~플레이트
항문
신세
금요일
부도
~애
총기
들어
~사채
신기술
레이더
신흥
받아들일
프로브
~요원
플랜지
발송
호평
계신
~~던지
##공원
마차
선거구
실로
유니
위생
배후
불포화
니켈
위쪽
~낼
제4
얘
윗
대표단
지체
##탐
전세
버프
~전문가
##tv
##라이
전인
시켰
자진
사채
~~시면
~행동
돌아간
~금속
~hd
타일
앞장서
보편
정자
~환
~~라기
~단장
밴
고인
여동생
##처리
거둔
숙박
김동
탄도
참전
주님
미쳤
~~라니
김진
등산
커뮤니케이션
울음
~놈
~과장
cm
교토
~pd
no
안료
~예산
선보일
##tion
##잘
적격
돌아갈
절약
미술관
치안
목포
상용
불안감
~~란다
싸워
떴
상의
re
마신
fc
조합원
대금
공백
생태
##ga
샘
차장
~액과
정황
음이온
고작
~스크린
~올
후면
미미
재원
~8000
##ia
인산
##활
~케이스
함부로
##연구
차림
녹화
치즈
가맹점
조금은
개그
~end
수호
~좀
지루
명령어
~라며
뉴질랜드
~~길래
내구성
암시
네오
워드
~께
벌금
~적용
~면적
들어선
경위
업적
꼽힌
~200
찾아볼
##시아
트래픽
~~바
##켄
장래
##분야
마력
트렌드
스테이션
시리아
~~게요
시행령
중세
교역
왼손
관장
쯤
성실
##춤
반문
딜러
##켓
격자
아랍
김현
##스타
피치
부친
무용
소극
실감
줌
##폴
기상청
##it
듀
대권
타결
연합군
중독
핸들
만료
산행
달래
공업
서해
~~야하
모순
~~으시
자동화
~실점
~이나
좋은
중진
해결책
이경
종결
극도
재구성
부스
바쁘
학살
금감원
소방
기증
메모
##본부
~러
접목
치마
연쇄
~십
~~움을
마음속
~are
미러
보너스
행태
~ni
급속
칠레
##사회
좌절
지장
모노머
당뇨병
야마
~종류
염증
무사히
~왕
부천
초고속
보좌관
폭풍
꺼
음원
추후
납
상해
건전
~wo
냉정
쉴
인격
제5
단호
주저
평창
##상태
애매
농산물
불길
불신
은혜
~플레이어
~역사
~야한
되풀이
~맞
~~이야말로
머릿속
~지급
타임스
rs
스트립
금강
~메시지
~~줘
~cm
다름
들려왔
~교류
버그
비틀
~본체
저축
냉동
경보
모범
반응성
페이스
~~지에
웅
##륨
담체
최우선
~책임
물음
빠져나가
수년
싣
~운
~수요
선교
##as
~에테르
~볼트
안타까
사단
사각
1987
리조트
폐기물
처형
도장
~his
마나
악기
본부장
단정
고려대
유가족
여전
리얼
##구조
##ent
느리
웬만
~무대
절개
산성
~홈쇼핑
소리쳤
~스로
취미
~촬영
정세
앗
저서
용제
해고
쌓여
450
컷
슬
so
뿜
설사
##il
~유산
화합
끝단
후임
호르몬
변이
부틸
~퍼
마커
보트
전대
싸이
마땅
엘프
##건설
오프셋
배상
~부위
벗겨
##겔
동적
단식
전락
데려
페스티벌
적색
##21
~정지
##쇠
급하
긴밀
청색
마이크로소프트
~활성제
~~니다만
##금융
신원
~정위
다우
125
아래쪽
스파이
양면
폭로
발라
추위
~제작
##me
~연설
~~더라고요
~회전
~원자
기준서
~my
질렀
경품
내뱉
에러
##념
~단말기
리듬
##ts
루이
발길
##픽
병렬
##캡
달라질
~보드
제이
스택
잠들
본능
강남구
경치
캠핑
검출기
상공
젤
톤
식각
반란
무난
~의회
지질
사나
재조합
##팡
~비리
##ac
척추
상임위
멈춰
사연
매물
~부처
가액
로우
군수
~모씨
테두리
~ra
##윈
실사
~쓰
~환율
첨
그레이
~~만한
~기업인
cf
~머리
걸맞
핥
받침
전한
진로
폭행
하류
해치
##ri
팝
과반수
기점
개발자
변제
계측
~인하
~inc
여학생
짜증
데이트
시뮬레이션
납득
속옷
##코리아
##둘
포즈
라이벌
프린터
~~움
##11
~mc
##프로
의아
~동력
~통제
tert
황당
~~았었
미흡
썬
인종
##웰
a1
후진
후손
~식사
전철
~적립
~추정
수확
대선후보
가로막
피터
신학
다운로드
키보드
동지
~페
놓인
작업자
ㅋㅋ
##ll
~인물
~국민
양이온
##들이
ㅠㅠ
커졌
페르
가결
절삭
~식이
브라켓
##롬
~투쟁
아암
대세
증식
~임금
요즘은
아키
푸틴
##ter
~물량
102
~증시
주축
드림
##뇨
~보장
각호
유성
~li
참모
##먼트
천지
국고
독재
포르투갈
~3000
연루
가령
불빛
##버스
~정권
전문성
~레일
~운전
바쁜
##넘
뿌려
열처리
유키
목재
##휴
디젤
벽면
원통
종로구
팝업
촌
호랑이
광산
소나무
##ap
해상도
~열차
##이며
~광장
햇살
내심
싹
~터
좀비
슬러리
디메틸
만찬
두루
김해
게시
도핑
실려
우회
길거리
##못
목욕
하천
차폐
다가
단풍
없이
~암
~머
동정
구형
영주
##베이
주역
##ation
밭
할인율
~am
몇번
난방
서식
##룬
고스란히
방콕
~보안
박씨
소셜
토출
~~낸
비롯하
##않
~근
시드
sbs
www
퇴
옮김
~단말
탐지
간혹
~노동
이윽고
~new
##at
날렸
정교
~화면
맛보
편의점
떠오른
악재
관심사
~거래법
~연승
안양
~자인
아이스크림
~패드
김기
그리스도
클러스터
다가왔
##있다
통신망
##위원
캘리포니아
~진흥원
급속히
이형
##사항
츠
기념품
헌신
~투자자
빗
절벽
입단
자사주
체질
귀속
방패
##랐
국한
강구
##빠
##하게
몰아
너트
항공사
내걸
##벅
김일성
공자
쿠바
중견
##쥬
손길
맡겨
조인트
##to
현탁액
회절
외국계
글씨
~돌
본관
제조방법
유연성
데이비드
하하
~대장
올라온
촬상
김상
접점
~공업
듯했
일곱
균열
오만
배웠
센싱
진학
고치
구미
월요일
숙주
~ti
정정
~pdp
~na
##sa
cpu
늑대
~파이
##멜
지름
ca
단기간
느
~타운
범행
머물렀
~잡
~~먹
공직자
달렸
##컨
중재
파동
~가이드
충청
원숭이
고립
김병
책정
다이아몬드
~보안법
그후
수험생
서울중앙
밸런스
~배상
죠
##국가
비서관
발기
~평화
부산시
칼라
프로필
사업장
평등
덥
활짝
하느님
몰드
헐
부유
계통
육박
103
상주
~니스
~ir
~분이
##넨
겹치
순방
명문
하이드록시
장성
정문
플루오로
시킨
~펩타이드
폭포
찌르
##제품
인선
~네트워크
염료
매립
입안
포도
~ac
기용
360
##mp
~협약
잔류물
릴레이
투표율
##rt
~바이러스
번개
스팀
수법
행진
남미
##되어
~피스
~언론
폴더
~조달
다녀왔
융
앞쪽
스킨
박지
공익
조약
영동
로터
엉뚱
스틸
제작진
~start
은근히
~여성
형편
후지
교대
몬
바짝
숨지
##전략
장인
~이소
상측
~다리
실은
정유
연안
다닌
~탱크
아가
균등
전동
fa
쓰다듬
상류
염소
신약
흡
넘어섰
어때
트레이드
이천
가감
현물
오찬
매월
들여다보
배워
신도
천국
무겁
상봉
~~지라도
우산
명명
~~들이
메신저
my
##ers
친일
기각
스윙
가져온
배우자
죽일
막내
~중합체
~~다고는
단서
~백억
1950
벌일
관중
~접촉
파격
서초
##덜
조카
~화재
분화
li
한가
능동
~사이드
~구성
차체
상한
##32
백라이트
##험
~아니
l1
##께
표본
기하
재활용
트위터
~프
##넬
~포털
공존
##ms
보컬
한은
~취득
슬리브
~~으신
내려와
~클레오
튼튼
~~에까지
카라
캐시
~~까지만
기절
충성
지방산
~강화
~타워
어이
~연패
동상
비춰
건국
~os
한하
국채
공명
~매출
플라
타깃
이원
노화
벚꽃
삼각
연이
us
가늘
꼬마
불소
부속
악수
대국민
계란
오리지널
경악
비단
6000
태우
너머
닥터
그라
미뤄
위해선
~확인
더더욱
종사
##잇
해적
##지않
나눌
~뱅크
~실현가능
중얼거렸
악성
광의
양사
사귀
감수
요한
~have
석탄
결실
번쩍
외신
압축기
발상
##ke
시장성
라운드
항복
##보험
안주
뮤
~야마
~ct
셔터
성취
##작업
농사
순천
웰빙
~~유
~마트
##90
떠날
증오
~will
~심판
좀처럼
직렬
선거법
입시
~홈
승강장
잔인
생애
숙
기득권
방수
틈새
##펠
붙인
각지
신탁
스크류
~여건
두꺼
경감
보병
마이너스
~~으라고
단부에
인명
동전
~코어
다량
가면
##하고
희미
~진흥
##숭
샷
연일
새삼
##ha
사위
간직
~el
오토바이
마술
##nd
##샘
~이하
~~어진
안건
~체육관
쥬
~인자
##12
1200
유령
영감
평일
프로야구
점도
알콕시
~컴퓨터
유한
쑥
변명
##방식
스팸
전수
요법
모조리
~가요
경질
워크
~~께서는
기이
출판사
들린
~보도
견딜
기울여
nm
쪼
~~으려면
백인
두가지
일어서
부식
다층
1m
~우스
담당자
우연
~진출
워터
~램프
중국어
##그룹
실용
막강
~일차
월급
발주
~수입
저지른
~졸
##렉
열가소성
움직였
##ca
황색
끓
취했
육상
남측
##no
~북
~밀
하우스
충고
~양가
##시대
박상
차이점
~fa
막히
사주
농협
일으킬
매치
재해
선제
##평가
불쌍
##ct
편향
슬픈
~화해
경쟁사
~나트륨
공산
잡음
##떡
입가
옹호
~정화
배리
아카데미
뜻밖
남궁
애무
이통
~비서관
~추천
내용물
응집
상사
쿠키
국어
sp
~모임
~해석
입당
다물
하나로텔레콤
~용이
~목표
일간
더위
처한
절실
로이
001
통영
~캐
요동
라이프
~소가
액면
결속
소파
~공화국
전계
~시각
cr
노후
스페셜
마그네슘
이리저리
~공기
어마어마
~28
면모
아라
로딩
부통령
베이
~스키
올시즌
레이트
군주
탄탄
##체제
그토록
~학기
sd
##콩
~릴
오이
스코어
~~졌으
~허가
압착
~비의
~참여
##끝
장병
한시
실버
봉쇄
마셨
매번
특혜
매핑
~감독원
우울
골격
~수행
~공개
노려보
~노총
~~하고도
브라운
fta
속속
선점
~if
망명
안될
중앙부
매수세
~29
~6000
원거리
탈수
젖가슴
~필
~9000
~촌
명절
~but
감행
일면
~~만큼은
~장소
ra
106
미묘
##오스
##도로
휴일
점착제
음란
올라왔
밝힐
맞물려
부러
싸울
보호막
다시금
발탁
~의료
신랑
상표
탤런트
미립자
~전용
##세력
동경
저온
달려들
결승전
~4000
제보
방북
시한
종가
108
~26
암흑
미드
털어놓
왕조
조금이라도
펼쳐진
코미디
짐승
복도
일산
~제국
##kg
기색
~인상
외국어
카스
이불
영화제
~유통
박원순
허나
김포
하트
산물
가세
차리
당황하
텐트
##므
정책위
~라이트
~~려다
재확인
결산
사설
##에스
~중공업
~~워요
~가공
바닷가
##렀
레인
~특별
~예금
~월드컵
공룡
5m
111
패러디
증정
후자
호출
산타
상승률
~목
군단
돌아섰
##냥
~노기
~~는듯
머신
쓰러지
대동
~성자산
기술자
##人
과자
~복합
~all
팔리
~who
프로그래밍
과거사
~수출
~광역시
마른
찔러
시약
올라갈
~부서
강철
##~
회색
~~으리라
대지
세계화
스케줄
##묵
~~왔으
지지층
~재가
트레이
제왕
~지법
앞세워
체감
##쟁이
견인
다닐
규소
지배력
증류
##지원
일축
각광
회견
막혀
기량
수장
로스앤젤레스
직교
거래량
ii
~침
성주
합법
토양
벨기에
도망치
~point
깔려
##랩
산란
스케줄링
헉
더민주
쉘
건교부
법무
조금도
##pe
장시간
어렸
##봄
양해
##힘
독성
유난히
특사
묘한
~cu
그쪽
~특파원
기밀
~좋
공고
껍질
~~적
~색
페놀
고의
c3
유무
~통일
칼날
쾌락
버디
고주파
디코더
웨
혁
위험성
쏠리
중심지
줄곧
노벨
대칭
##옹
~상거래
##쯔
고성능
모자라
정점
톨루엔
저기
호위
##쥐
~골프
의욕
도체
액상
세율
혼인
경찰청
체코
##hz
소설가
##긋
~전망
~바닥
~아시아
격리
플러스
톰
서면
~위성
도광판
아크릴산
주인님
덴마크
덧
~가서
~~왔던
~공제
~one
128
소감
~지표
작곡가
재수
벗어난
구출
in
메리
안동
심심
~담
가리킨
##뷰
빠질
요철
김민
신념
수율
##13
~거나
기미
~ha
~새
김수
슬슬
낙관
~교환
~~보단
~시청
중심부
매진
호스
중쇄
편차
이뤘
중고
직물
우물
처치
전월
기술분야
손자
~사랑
지극히
##조치
변성
신혼
휘두르
하야
~1000
내세워
대면
차트
후쿠오카
뒤지
~사전
##줬
고양
가담
안면
소각
셰
복무
잘해
근거리
미처
~포트
윤곽
코엑스
온수
거꾸로
ℓ
##파크
##과학
매직
들러
레바논
~this
일측
##땅
~이치
낯선
빈도
화가
박정
엽
현명
사나이
게스트
스케일
##do
호감
카본
생각나
~시위
##앗
~요구
공보
기업회계기준
##사람
~사원
~조작
끄덕이
승격
~27
##가지
~제재
커진
~상담
교전
체적
~gdp
침전
얀
~타점
##id
마늘
나들이
커질
창구
가루
~cp
##딸
사의
자위
~un
~장의
함대
소켓
농장
안산
##겁
일체형
달러화
멀리서
##싸
모기
~일지
지난번
~hz
소아
축복
변위
하이브
창단
240
뭐하
~ed
##특
조이
~리고
도널드
기르
~사이클
포드
조그만
메톡시
블루투스
클리
1986
노부
마음껏
유대인
상생
220
##메틸
곤충
데이콤
~로봇
발병
다가온
~옵션
~치의
##습니
쓰러져
~요리
##냉
대역폭
로스
관건
##바이
##븐
스트
페리
김대
~wt
이자수익
실리
~변이
##레이트
이병
원로
뜯
~과목
경지
개표
장로
~터미널
뜻한
##사이
중력
토로
돌아올
마셔
필터링
흘렀
발산
~수술
혈청
노트
픽
~효율
~~어야만
상륙
방면
세계관
##의원
커맨드
188
장난감
김종인
조준
할리우드
고성
~득점
트리거
~~매
##쟁
1a
아메리카
##숲
햇볕
##si
방송국
상회
~펌프
##멀
서정
보리
데스
신자
과열
##01
대부
##폼
~제가
gs
~히
무죄
리처드
퀸
피자
##ti
숙이
~~니까요
소량
애써
당황
마드리드
~~기때문
장애물
군산
뚝
##잠
향수
액수
~~드립
~마켓
민속
신뢰도
직권
투영
섞여
##지방
fi
채소
##뮤
방어력
강아지
올라와
~렸다
로고
~캐스트
징
마왕
ac
추미애
니트
남북한
가야
~its
8000
~이론
~개편
~마케팅
~폭탄
풍기
점진
~요법
~노선
~imf
~문서
~~갔
##들로
예의
둥근
미녀
대위
훌쩍
~리는
김영삼
~회원
이뤄졌다
광복
~발표
태극기
ㅋㅋㅋ
노골
~기일
~usb
오마이뉴스
~커
몰락
연평균
~~었었
읍
선대위
회화
사모
예뻐
스노
위조
~문화재
포위
소성
겐
길드
당론
밀어
119
~~라고는
증폭기
용의자
발리
2a
~지고
~플레이
원시
아나운서
송수신
r4
자질
한껏
내려갔
경구
상반
##깃
만져
~~습니다만
퍽
돌진
고부가가치
나치
하필
투구
화두
난자
도둑
대주주
분단
쌍둥이
귀환
~히드로
어떠
싱
~에틸렌
파형
##포스
아무렇
김지
행할
욕실
굉장
아야
세탁
~시계
평택
무색
as
표출
여타
~cdma
이와함께
~ss
~감소
진압
아냐
고령
실상
포켓몬
환경부
헝가리
~연합회
마냥
동계
던
원망
공짜
아니합
진한
##들어
스테
외상
##기자
~공무원
~7000
##하기
재편
채무자
옮긴
고혈압
~손상
제지
~bo
홍수
지성
리간드
~모토
~~드려
어음
긁
##웨이
대수
##ee
저조
단리
~쿼터
##타이
##be
~부대표
~브
187
팬택
내려다보
플레이오프
~부총리
하단부
na
당할
전문의
일선
##뇌
대학원
어리석
##하신
~ps
블럭
펼칠
~성장률
농가
112
비제
##교회
위함
~구매
내놨
끊이
국물
존속
~~냈
~원인
~~거라
~da
난민
엔드
우량
염화
~사례
카테고리
~지기
일차
~아래
미인
~타자
~표준
최희섭
~려
외교관
영남
중기
제동
186
재경부
내비게이션
~~텐데
김형
주저앉
~끝
me
상법
~타입
응력
~루타
도주
즈음
유익
104
판타지
~유출
헤이
활력
폭주
발명자
이번주
##16
갑옷
아카
~학습
~~아지
다국적
위안
~발언
부적절
엉
난리
당대
경호
검은색
사우디
##정부
빼놓
자르
~~운데
~out
경찰서
컨디션
섬세
보여주
플로리다
~바이
유망
암호
~고속
##ur
전경련
젠
고심
우즈
싶어하
##결과
~서류
조흥
끌어안
고래
마주보
누설
~주민
~직원
양념
~교사
ch
##체계
~신기
상품권
~1039
~오버
숨졌
설탕
~wi
치른
유보
~플레이스
박찬호
파주
##가스
다지
크레
비비
실린
몸통
외출
액티브
랭크
천명
규탄
##쌍
수월
시동
지워
~봤
원본
~닷컴
흡사
반갑
끼치
좋아했
거액
~~에다가
~육
흐른
마모
굴절률
##기구
뉴클레오티드
콤보
들어섰
덩어리
~설정
~위안
끼움
온실
권장
청사
~중간
~구장
유수
##킴
~지검
먹거리
동조
헌
입금
이색
창의
hd
총액
춥
퇴근
장기화
##대상
~~어왔
보육
~~음에
방학
구슬
볼륨
안색
초콜릿
~카페
~걸
본문
정동영
##op
납입
레지스터
상시
다투
~ad
사명
##드라
마라톤
##옵
비주류
공급원
~계층
삼성증권
ㅜ
출품
백업
갖췄
~주가
~ro
국군
~건물
이진
아사
대담
~기만
동구
아마추어
~벤처
~언더파
~차입금
페니스
내다보
c4
언더
개미
파월
특위
ibm
ad
~경험
~can
알몸
대나무
칼리
중형
성막
##25
사외이사
사용량
공감대
pp
복권
##der
~도서관
원자로
긴장감
득
~미술관
ba
경화성
신년
해수
토니
~원칙
유치원
~향
##자금
배울
마녀
~단과
앞뒤
프린트
오바마
구체화
~부탁
유비쿼터스
오렌지
항만
빈번
~사령부
건담
특집
~체육
선조
해지
열악
##31
폴리이미드
소변
~숙
발족
전라
잃어버린
희귀
친척
수거
이놈
라덴
분획
오락
은폐
통행
##ive
양당
무당
선수단
##ds
기생
##山
단열
~표상
지식인
용납
가져올
마산
신도시
탈피
기념식
삼성동
~비스
클럭
범위내
수차례
##게임
소신
##효과
기종
##子
경신
~독
한발
방울
공통점
율
상상력
##연구소
##꼴
개관
굴곡
유니폼
건데
아이디
한국군
이산화탄소
경쇄
쿠데타
그립
노이즈
cp
다녀온
~비닐
하측
오오
##엇
추방
미주
~오픈
db
재활
##떼
기아차
야심
δ
~학부
로직
적폐
반대편
##붕
~pt
터뜨리
바인더
대피
~선택권
채팅
착공
당겨
구한
송신기
고비
~탈
박성
~te
~이트
~농
~~레
~ai
유진
하긴
과실
퍼포먼스
김승
~zdnet
공로
점착
안방
소품
컨베이어
상판
자가
옵
만주
의석
쇠고기
백작
찾아와
하와이
생계
광선
~리스크
횡단
금호
~소장
##ns
분출
벽화
##픈
우아
클로로
샘플링
~집회
st
##통신
~~느냐고
황사
모발
이순신
##같
~~었던
기류
~간격
부엌
파지
연구개발
옥수수
모티브
1985
##여행
##ver
~건강
바꿨
115
탁자
다녀오
수질
무방
자성
리브
플라스크
가급적
ps
가르침
2500
~재정
美
##에서
그렸
권총
~문헌
##hi
웜
촉각
미얀마
신전
~버튼
시프트
##장관
~캠프
~스트
히로
접한
알킬기
~저장
담화
~dl
차려
사장님
런
밀집
상속
접전
내전
엄지
##lo
편견
~따
비준
환급
유우
용의
포스터
앱
인디
채권단
우발
회상
~해오
~스프링
침몰
~밖
학과
~st
김창
더듬
순회
드문
일가
~배치
~집행
~경찰
겨
열전
교훈
~~마저도
박종
평형
~ep
중남미
슬릿
낭
팽팽
신동
수고
껴안
##전자
수영장
피리딘
~이브
~갔
~비중
비롯된
~pi
경도
달라붙
##도시
프라이머
우편
저격
하하하
조속히
건네
코끼리
뺏
신행정수도
라이스
위험관리
##톱
불공정
날로
사립
국회법
저택
입문
미쳐
습도
~사업장
부임
ta
응급
~많
보건복지부
쌓인
말기
매질
##쿨
소액
노르웨이
솜씨
탄압
학력
~에스테르
고추
##부터
pa
죽였
엔트리
흔한
묻혀
랭킹
1984
금융권
~절감
107
판시
덩치
현실화
응하
~ri
복음
북한군
패권
도청
남산
시연
권한대행
##나라
산악
타카
~환자
궁전
압수
~만화
~토론
노란
~~겠다며
근위
열거
안희정
추상
달걀
at
진도
식탁
영장
김병현
##02
##낙
의무화
~~이서
현저히
m2
맞닿
2m
추궁
가이
~bc
악영향
지킬
종자
엑
마실
군부
~공동
국악
봉지
~pp
~한적
##다이
어조
##템
~경영자
天
공적
자리매김
~글리콜
쇄
배출구
배아
##쌀
재임
이런저런
##댄
정했
정산
##ㅠ
##신문
약자
고난
~전원
~필드
불쾌
제사
##덤
감면
이쁜
탈퇴
~설치
접시
달할
##세포
~~아왔
~ca
낭만
걸어
이방
##티브
~선과
빈곤
카즈
다카
~sta
이룩
~ci
훗날
~게이트
제조업체
짠
부동
푸르
135
어리
~시내
~~치고
~감사인
##댔
~마크
미라
느린
~랜드
사업부문
성별
토해
종료일
패밀리
대도시
넋
~에이
~의학
신상
~페이지
좋아해
뉴욕타임스
아주머니
순조
깃발
##흔
울려
일화
저절로
잇달
3a
##니아
헤더
노키아
들어올
~부인
피고인
강간
지휘관
증강
암컷
인조
출동
~봉사
여관
~~만으로도
취재진
체내
당대표
마켓
아담
문턱
환기
~경로
~pe
##ul
매트
사소
~상자
~타이드
109
##28
~선택
~가게
##man
플래그
##물질
~소스
누드
몰두
~팔
국기
예배
특기
샌프란시스코
종로
출처
퇴출
고사
프라
~~야한
장례
그라운드
~착
~린다
둥
서적
이스
예술가
~악
잡힌
사신
잠재력
전승
강판
통산
공안
콧
전구
피어
벌써부터
비결
##하면
##레이션
서문
임계
전념
삽
타율
大
주상
바로잡
성남시
환율변동
~철도
반미
~제조
~인구
##ft
이것저것
분주
내가
프로모터
~이야기
##34
센스
제반
~~하고는
##fe
~소비
벌레
해운
공헌
~드라마
~~는거야
메이커
머금
수시
~식수
바깥쪽
##ot
동포
후반부
아세안
~누
##ㅋ
불확실
~재정부
집값
루이스
학위
를
몇년
뺀
중개
스커트
재작성
댄
~솔루션
색채
피고
7000
가축
스파
##23
돌보
선원
~재산
위법
##대교
메르스
대인
싸늘
~스터
~사무소
하프
##26
Ⅱ
더군다나
경찰관
도망가
그해
공수
의의
환입
손학규
발레
값들
~tft
~전사
##생산
지나간
~사업부
설레
##쯤
티타늄
터뜨렸
시너
민사
흘렸
게이지
2020
##옥시
셔츠
착한
원단
교보
목걸이
잡아
알콜
오크
치매
~~조차도
~전달
sa
불화
걸치
반도
열화
환형
대꾸
지켰
총력
##소프트
~범죄
우울증
cs
작정
##77
##금액
습득
절제
제작사
~수용
~뉴클레오티드
일러스트
찬반
##써
차익
준공
억압
피력
~일기
교수팀
지친
~대응
격파
아비
비만
클립
할인점
도시락
삭감
##윽
서점
~~에게만
키트
더욱더
~sa
사마
장력
~du
제자리
~효익
이시
γ
주신
양반
아버님
넉넉
~~로선
응모
##rd
연예
다큐멘터리
어느날
더한
풋
이완구
~보전
신차
수락
강타
자기장
주춤
태워
출혈
제6
고함
종단
가늠
코믹
차관보
건수
하노이
맞붙
ch2
운영자
어긋나
구매자
최우수
유대
##베르
벌려
dmb
대용량
~이적
청정
~cap
조속
~농단
정장
도망
##정도
~워드
높인
인트
~프리
전임
공기업
신경쓰
미숙
메달
is
연중
행적
~기화
조영
올레핀
정류장
못지않
국소
~제일
슬쩍
끌려
잠자리
리본
~규명
~성형
##뼈
##大
가설
##첨
##ci
녹차
촉
##공간
가져왔
돌연변이
띄우
~야하
~구도
성벽
##데스
~대우
넘긴
~db
자바
까다로
##카드
돋보이
단단히
항해
왕실
네트
광주시
덴
은밀
##ine
~렌즈
플랜
프라하
스피
치킨
액추에이터
~해제
~공주
노동부
ㅎㅎ
내려놓
##궈
배급
##64
화질
넘겼
~칩
글루
~~지고
~경이
장외
에이즈
이긴
##om
풍성
분수
블레어
~~아가
넘어선
에어로졸
바르셀로나
삼진
도자기
혐오
~has
하룻밤
깨지
~고속도로
강자
##하지
경사면
펜타
전두환
합치
~민주주의
윌리엄
살펴본
질투
속초
114
~인수권
푼
~ul
골든
무의식
디코딩
~보건
ai
##듬
강좌
트레이닝
에릭
~도록
~희
~우위
양방향
병기
입각
증설
본토
조차
자택
저지르
양수
모멘텀
상단부
입히
bo
인코딩
케이블카
고종
사육
결집
트리플
~가전
한옥
실물
동요
픽업
전시장
모호
콜라
옹
##자리
##이나
~당시
~body
흐리
물들
립
들어주
권취
ㅇ
~브랜드
오케스트라
집필
~리온
요정
어댑터
헥사
~약품
엘리트
~핵
색다른
~기인
생전
쌍용
~~아보
특권
##파이
월간
~보스
송출
클로라이드
크롬
천정배
윌
한성
조식
##륙
da
~통상
~~더러
185
##대책
정직
대문
어머
피리
장내
분무
섞인
자격증
옥션
~연료
볼록
차갑
못지
정립
쌓이
~화기
수하
kr
지각
식구
정조
동북
수컷
멍
~~어내
해병대
~법과
##ea
아나
발전소
폭격
~system
술집
거취
~이체
~사무
~일간
~pro
사표
~용량
~바다
전화기
룸
##li
~성물
~상환
오키나와
다양화
~동시
정답
직류
최첨단
습
불사
##ex
전경
폴리프로필렌
수감
떨어뜨리
안좋
~클릭
~공천
간식
##원회
고요
~김
뱅크
터진
1b
조장
##녕
기피
성매매
상체
펄
우뚝
de
##46
홈쇼핑
~손익계산서
~박사
모욕
~조각
~~는구나
수용성
##릅
멜
단원
바치
레오
혹은
~유치
웬
퇴임
외교통상부
어이없
번영
##15
늘릴
전자파
스티렌
획정
~dr
~신당
제네바
모처럼
##스키
익명
평탄
허무
코르
~차관
할로
비자금
계류
노린
~~곳
격투
이어갔
po
~디자인
안나
미르
~무역협정
##ad
흘러나오
눈썹
레저
지쳐
카트
철근
~교과서
단연
##조건
바둑
급성
스토퍼
~사업부문
##피스
포크
~gm
타당성
승무원
우라늄
요시
~부족
모방
ti
금년
무능
완만
각계
객실
시속
~ko
플레
##찍
삼국
열대
문양
자부심
~특성
색소
당정
중추
~승인
여가
찬양
s2
기뻐하
자아
내열성
멍하니
제품군
~벨트
~건조
인건비
산림
번지
~판사
여의
옥상
꺼냈
후유증
123
유예
##버리
##었다
넓혀
씨앗
~~당해
행정수도
라인업
모양새
신입
모의
~타수
잔디
칭
해수욕장
정선
갖가지
대표이사
주지
불타
~식당
나뉜
리오
고품질
경제학
한적
ci
~개념
받침대
절로
대상물
~소통
##기능
~법상
보험사
추이
시종
티셔츠
##놨
~요청
장중
내보내
선동
여우
행정자치부
~장애인
1982
~ab
덧붙여
##ho
~방어
로즈
전례
~md
어린아이
투여량
도료
간극
~~져서
입성
미용
피스
~엔터테인먼트
움
자정
연기자
네이
##인지
촉발
캄보디아
이겼
~플
동아리
이만
~용지
트레
임하
찾아왔
~귀
엄중
~인원
적시
750
제스처
스쳐
붙였
공표
레알
악취
벗어날
수출입
일조
갇혀
##24
가시화
이빨
친노
~입장
~궁
재신임
초당
tg
하얗
~매각
~sn
ss
브루
~총수
~정보원
크라
~인간
유포
~먼트
커져
##땐
##인데
인성
184
직사각형
수혜
바뀔
~데이
부응
##pi
~구동
##적인
국도
교양
주당
~~느
흘려
릴
~하신
~빌딩
~nmr
세팅
사담
벼
~~게나
투신
평상시
박테리아
육아
피랍
~bi
전복
金
엔화
##흠
~rna
깊숙이
sn
##된다
부풀
언론인
박영
~파생상품
여정
우월
흘
빼내
내포
살아나
##bi
포켓
손톱
그놈
후계자
dc
든든
스티븐
##잖
과징금
캠퍼스
⑤
결말
##세이
초조
수염
인버터
쓰러진
스페이스
~uv
cl
사도
~they
고위급
~만원
팽
다치
~케이블
일생
삼국지
~특별시
다툼
케이싱
두뇌
자재
꾸미
잘했
연구자
장마
pt
어둡
##ff
ga
##33
금연
~wto
~감지
플라이
한지
공학
~미드
~확정
전향
~pa
~안내
본딩
##해서
경직
##스크
공제
나눴
##oc
진통
잠겨
라벨
어르신
답하
퇴장
##mb
활발히
1979
돌린
괴로
치과
~설계
설득력
송수
소급
~메탄
~~락
##연구원
입대
호칭
~ga
쏴
지오
불렸
알맞
사죄
##51
캐소드
~될
혈압
~특별위원회
~대학원
지나갔
종일
~ue
박용
거센
텅
신한은행
비누
오름세
카지노
제작자
이현
다자
열람
캐리
주지사
일찌감치
~po
대검
##기준
최대주주
공청회
공습
~대원
유무선
다채
##37
~미가
국부
~스위치
전성기
~야구
플로
##혹
예민
os
등재
편의성
##03
아메리칸
발전기
연못
냉전
##네스
예매
ep
~임이
다양성
##65
##롯
무성
~아제
~트랙
얕
조종사
친정
십자가
괌
숭
~~고만
결선
국가안보
깨끗이
동종
썰
230
##mi
판별
케이크
~car
##88
망치
인코더
다듬
파고들
캐비티
~머니
대법관
~습
보궐
열교환기
지뢰
랜
~~까봐
처해
~이온
당첨
nhn
현미경
한가운데
~fi
핑계
##당국
학대
~아트
##경기
남용
반군
욕설
~크림
무선랜
가마
제조사
##47
즉위
임피던스
~검색
입양
~fe
1983
번갈아
심도
~페놀
띈
~좌
상한가
리치
무작정
한양대
##로스
##계약
##ir
풀어
~확보
선로
~~지면
133
~저항
mp
낙하
똑바로
##52
국영
최장
플랜트
기수
유머
차츰
기한
~경찰서
2d
##밖
~분양
멍청
~wa
묘지
후후
청계천
간호사
회생
텔
~비행
서두르
##ka
~고시
##렘
~기용
돋
옥시
~감시
아르바이트
돌격
##ls
단숨에
전분
~성향
해독
~음식
##sh
검거
탄화
##온도
##옴
가혹
pi
가나
티오
지그
연초
##더스
그친
~~었고
노란색
스펙
재촉
반입
법규
~진단
제트
범용
~공인
~식물
~스타일
슈팅
##즙
imf
끌어내
원위
시력
하나로통신
변함
브로드
~노트
띤
나흘
타측
117
하사
찰
~1115
슬림
##듀
~발광
~~데다가
자루
말없이
교수님
움직인
앵
의약
##마을
~전형
펩타이드
이목
다가와
저리
능가
단절
억지
중상
~공의
~~더라면
증후군
굴절
~~우며
~규
당권
본점
기입
~수취
태아
포격
~들보
게임기
지갑
~개소
~~어놓
가치관
~~주었
잡아먹
~합의
겨울철
##누스
1945
~시키
전망치
단가
아라파트
신조
자민당
발령
~~집
드레스
드라이
##영화
여행자
비드
경부
복부
김광
해석좀
버섯
공영
과언
탐사
~현은
장남
~sc
싱크
코오롱
무술
들려주
화석
핀란드
발신
부끄럽
겹
울릉도
中
주희
##선수
~~이여
직결
모토로라
왕위
알릴
순익
~부지
형광체
##선거
카에
에리
~인권
은하
충청권
큰일
~헤
태세
구현예
##상품
이명
소울
한진
~소녀
착색
~pda
비한
투과율
충동
땡
~운송
쾌적
ma
##얀
활기
~에스
~녀석
~증후군
쇼트
##78
씩
##너스
이해찬
대성
소용
강변
~~해져
신작
공관
과격
돌풍
박탈
320
유죄
##발전
~기념
~~에게로
낙찰
엎
관련자
교량
타당
통신부
정맥
게놈
~지출
벌떡
교과
~아스
돔
정경
해발
지지도
유가증권
임계값
애국
~lte
웨스트
풍력
~time
그리드
횡령
~투수
페이스트
김준
~유동자산
~아미드
탐구
선교사
~계산서
단락
피의자
175
~지식
스퍼터링
##야마
숙제
##42
면치
변태
퍼부
치료법
전량
훔쳐
회사채
견지
묵묵히
~질서
골수
~경기장
~버전
쿠션
여름철
~효소
~vi
머무르
##ip
145
##49
상수
우선주
기여금
초창기
~~시예
~가수
아랫
외무성
##단계
떠들
ro
~상부
자명
필사
~그램
만두
##리트
잇따르
시스
##둑
재보
미연
김선
포트폴리오
세계일보
##셜
낀
~하락
예언
~서상
합산
낙선
이별
##규모
한복
관습
~~서야
교감
산업용
##cs
기공
##초등학교
지폐
교원
~~때마
매달려
##캠
지리산
단수
병용
~중합
라이브러리
넓히
양주
클러치
흐려
관념
애로
##랙
정사
~~게끔
총체
명소
~ev
중성
~반대
~방침
~업소
약품
시킬
밀어내
##그리
살펴
골고루
##좋
리프트
내세운
속해
~주식회사
ab
비웃
##ba
권선
##램
대덕
거둘
사부
내륙
~파이프
임용
보람
r5
헤매
얼어붙
보현선
~님들
##쩍
보일러
이세
##48
스프
예보
무력화
~제거
포획
교도소
액세서리
소동
##ure
실세
~동이
##fa
적힌
인위
찰스
##14
mo
면허
심상
~렌
##굽
막바지
파기
요란
##04
일컫
염수
용사
~의가
~방문
##고있
천마
~강도
리포트
갈아입
상위권
카운트
보류
~연도
최경환
##대로
~리아
##92
때때로
~ba
##메이
웅장
주일
만족도
왕비
~만기
~cs
##웃
흑색
##킷
하산
매크로
그러하
~법률
감촉
##ow
스카
크루
셀들
행방
##시키
내정자
반감
~사유
~톡
무너져
~민족
이마트
도요타
정찰
득표
천주교
에르
데스크톱
여운
##넣
엇갈리
기저
##지대
##놀이
~gps
실업률
이정현
퀴
~전류
어느덧
머물러
차마
윙
휘발유
꾀하
~ag
깨물
두부
동문
다정
유쾌
~고있
##age
캐주얼
생사
우크라이나
설명회
양대
배타
배면
년간
인천시
부류
이양
미모
일관성
파르
~처장
오징어
어딜
##63
##빔
해저
##99
~홍
당뇨
~통신사
주무
에드
경관
##18
##되었
심상정
~ge
##74
묶여
##할만한
ㆍ
~무늬
~~니깐
정차
청원
~대사관
중장
~over
~둔
친한
오라클
~싸움
박살
~~졌고
다뤄
교단
불균형
사업부
##야할
입상
민영화
펑
손익계산서
카메라폰
동사
엘이디
~상대방
미터
받아들인
구절
호재
~독감
급수
곧장
~나이트
반하
s1
저쪽
구실
전반기
내한
끌어올리
~ytn
~sm
##94
##딱
겠
불구속
피트
~종일
부결
호환
~ibm
국익
달라졌
~컨
합당
급한
~~해볼
선반
상방
저널
~담보
시너지
~~만으로는
~경주
회복세
##뿐
마트
초보
클록
경쟁률
인사말
155
에이전트
##39
증감
반항
대령
파크
5a
~레지스트
알렸
기숙사
환호
정몽준
##tt
징수
시상
do
기성
~sd
##디아
자비
##73
줄어드
~~아내
싸운
##검사
갱
210
안도
결과물
서해안
정례
하수
~경비
~주면
중증
낚
건너편
프로모션
채권자
균주
잔잔
외침
버릇
째
t1
물러났
1981
쇄신
공진
##푼
부양
멀쩡
280
183
파라
##79
##걱
괴롭히
쓰였
지탱
삼성sdi
~32
~인민
승려
광물
유언
~자격
습기
무제한
최고위
레코드
4a
스탠드
##레이터
~mac
충당금
제공자
##싶
포털사이트
~cf
##od
~정상
귀중
생태계
##so
파이낸셜
zn
조개
임박
생겨나
능선
~압
출제
산맥
재학
농지
회의실
~아릴
다공성
~도입
##슴
정글
경쟁자
주총
bi
~재생
~마루
재판관
비공식
##큼
1973
사라
~유가증권
악용
싸웠
패러다임
실란
##he
##81
나눔
슈트
~가드
감격
양극화
개개인
불평
~모노
~mou
가처분
페어
~점검
뒷모습
~압력
군데
~분자
오줌
##텔레콤
an
~체결
~동의안
후발
이공계
##45
열흘
##22
우리말
~수신
##프트
~cnet
본명
su
~스님
##하에
~~갔다
##공업
내비쳤
곡물
김윤
중얼거리
조롱
##sc
se
##수준
신병
출하
교부
입장권
승자
##업자
항생제
방대
이노
병합
~포스
하인
도무지
광대역
~their
클린
초고
190
친분
나카
글쎄
인슐린
비대
유효량
왕성
거인
낮춰
##cl
권역
타선
##조직
di
태권도
불이익
박혀
##댐
오존
~~까진
픽쳐
##44
~fifa
권하
##43
여러모로
외자
##갓
cu
캐논
해금
폴리아미드
~45
광섬유
~글로벌
각별
늦추
알바
대포
담임
~연속
사리
신속히
슛
초록
~적자
bs
터빈
원피스
물놀이
~도어
돌아
강북
121
~~십시오
균
~이식
~~게까지
##가격
관철
불출마
이회창
##lt
타락
~마스터
조망
스플
~ㆍ
2b
근방
기리
셀카
~모습
플로우
##보이
##va
동성
##57
잊혀
~조약
##겸
따랐
쾌
~~놓고
구강
필연
오디션
저것
장담
##61
단순화
착륙
이끈
깨어나
여보
인서트
그래요
유방암
가미
~sp
~km
투사
공연장
여행객
지녔
그제서야
##gi
크루즈
마주치
간장
~지향
ir
자취
말합
망설이
바나나
급변
강인
~황
혜성
당반기말
석사
포르
벤질
~~줘야
여행지
##國
태블릿
~융자
한결
교복
옥소
인삼
##머니
휩쓸
워크숍
극중
종사자
간략
여느
재개발
무명
힘차
가정용
휘발성
힘껏
~~드리
토마토
피했
송금
바리
몰딩
고독
~전체
~her
악몽
##76
넘쳐
세수
택지
아웃소싱
트라
처하
##에이
단골
나열
복호
간절
분광
배송
차종
위배
반짝
급기야
쿠웨이트
낙폭
##끄
ue00f
아홉
몇개
물러서
~기준일
~그래피
신생
~참
##늘
구로
주형
550
교재
페루
넥슨
도끼
##ec
~턴
~반도체
##nce
요르단
벌어질
~출력
~차단
~번지
##네이트
~배정
~구조물
멘
정세균
손잡
~어티
영세
113
##릇
~보고
글리
##sion
~경보
~~줬다
파행
~soc
지독
~고등학교
프로듀서
진수
공단
122
행사장
##66
스프레이
베네수엘라
풍요
~공모
개각
청춘
준하
아부
##em
감사위원
주조
~찬
맹세
시전
원주민
질타
~동향
~시한
리니지
~노동자
문신
셋톱
한대
연고
누름
~셀
~휘발성
##75
##페닐
시아
~보좌관
~le
그릴
##이션
##돔
gt
~최고
가는
운동장
주중
사용시
요기
집적
~점수
아바타
스미스
셀룰로오스
편한
대의
~korean
의정부
~쌍
~으로부터
~av
일격
~청산
하차
##wa
성도
##웨
그칠
이관
~스톤
모음
도내
~정원
~world
~연장
~~어갔
소박
~허
아바
도관
협동
우주선
신하
랑
헤르
카세트
am
##톡
배낭
여덟
##05
~더
~ke
박진
~~에관한
m1
##08
##깔
수로
인천공항
힙합
꼭대기
##지도
길러
행장
웃돌
~en
##있는
우레탄
~다의
느긋
~자체
~메가
자회
헌정
##하이
극한
청탁
##하며
오프닝
초안
짤
다가갔
스치
자선
한차례
일당
부처님
~입력
간호
날린
요금제
관절염
~펜
~폴리
하도
##71
~유입
李
##룰
산불
~응
##댁
한시간
간첩
울렸
기준일
실드
말씀드리
ho
천년
득표율
~60
원했
##이고
skt
세리
응축
~아세테이트
##샵
유두
살아온
테니스
~녹
rf
~출구
유영
~순실
하한
발발
무책임
ec
놓이
속이
##붙
보디
fe
##버릴
~코트
mi
~35
##68
삼키
##켜
한빛
어찌나
~판결
성령
비장
165
116
~메이
헥산
치우
118
가할
쿠폰
로또
사카
~클로라이드
유이
~매치
무시무시
뒤이
~토스
주유
만끽
더미
내려왔
~~든가
일간지
ex
~청구권
명동
리모델링
~lc
pb
존스
김홍
im
박경
소속사
카피
한순간
성문
흔들림
뿔
브로
교육감
여행사
스트리밍
~출신
##87
##화학
험
동해안
~ofdm
잘한
달아나
로드맵
친해
관문
농성
건드리
##경영
데려가
~기술부
담담
도지사
파인
근절
~33
임플란트
리버
줍
펀치
막힌
##케이
~신경
~fo
~철학
~실기
패하
두통
질주
cn
뱉
장편
~또
~pre
개인전
정동
he
~교실
틀린
인센티브
토목
무작위
샌드위치
봉투
필리
침실
1976
~마일
생존자
갈리
##컵
내버려
~같은
~차장
선호도
정규직
한심
표하
##ist
내려온
연화
시아파
송풍
##흑
유능
~~짐
기업체
~~겠죠
택
##91
씨티
가용
정량
한장
좁혀
조교
시위대
길가
공동대표
약탈
독소
오래전
쓸쓸
##소득
~로서
선장
하나같이
핑
너무너무
1975
조건부
아산
~사격
Δ
물기
디카
~헥산
파이어
##공단
승점
끝낸
에코
다할
~즈
릭
~학위
~~에서나
페인트
오피스텔
강했
~콘
한전
대학로
~전과
~~다보면
##아민
북경
폭락
문단
##프리
디즈니
##tor
3m
변호인
바닷물
숙련
급해
치중
~자화
해피
자위대
구독
~로프
절곡
##르트
정반대
진작
##빅
급식
산지
료
부직포
맞은편
~수수료
민족주의
엄정
망고
서빙
ce
~gi
스캔들
리셋
~까
##토리
부흥
초연
으음
~태양
##97
휴지
달해
과태료
웨이
자막
임계치
가한
성전
이를테면
감마
불어넣
댐
##bo
vi
##씬
흔하
주교
반찬
성완종
~의지
##릭스
b1
##85
##깨
##팽
사생활
##ld
노무
##io
##입니
보좌
동맥
1930
벤젠
~거부
650
수입차
~리터
~iptv
핑크
열교환
~성능
부상자
실례
베리
~진행
림
##엉
##피아
~파워
~~야말로
##버그
불상
수비수
~겸
박영선
비방
~공부
##르르
아깝
##티스
헥
~파티
~ec
~cn
270
##her
잉여
~개시
159
한사람
터졌
상쇄
등대
우체국
보름
거부감
~일치
##륵
발하
~해서
근래
휘도
똑똑
우파
미화
##카르
북방
굶
넘어갔
n2
##82
현관
연주자
##ble
##ay
요령
로프
광양
##클로
거시
~사법
##연합
김인
무척이나
은은
~문의
~홍보
물리치
정진
전해졌
점등
~apec
자이
마카오
~38
수산화
짜릿
~oecd
커녕
여드름
래치
예년
뒀
~출자
~~때는
ct
~사이
올드
~매입
꽃잎
붕
~~겠고
전투력
~ar
농약
걸어갔
~ng
##잡이
번식
##략
태극
~ppm
1978
sns
귀두
공산주의
##개혁
시설물
##54
북구
의대
##95
##랍
젖꼭지
##녹
~cpu
팜
동명
오븐
##17
표방
256
교반한
~효
방화
시끄러
나르
1920
김장
이승만
~바위
##un
바스
애완
옴
기쁜
미끄럼
이어받
애기
특급
##켈
여겼
헬스
문화부
당황한
산업화
##럿
##ni
원치
타석
방송위
드린
버블
~more
흩어져
엔티티
유학생
볼넷
~에어
연성
발인
개구리
~휴가
찬스
흘러가
~ig
재킷
ni
~총생산
합참
슬라이스
유신
아티스트
~~냈다
스타크래프트
기포
알아
~블
재치
ㅡ
182
시스코
황토
~~자니
수건
181
178
~per
~링
~잔
층간
갑작스런
##법인
감광성
후반기
탈취
접근법
승계
완결
느려
수없이
~취
~~로와
자처
환류
즐겼
메디
헨리
받쳐
##비아
콘택트
서포트
다급
내벽
1800
~단가
혼다
~먼지
~요지
a2
~협의
씁쓸
외경
실효성
~민주화
객
격벽
여럿
##팍
세자
캡처
책임감
리서치
각료
노을
##행사
휴게소
조업
분담
~cbs
리메이크
총통
야스쿠니
구애
##는지
무어
지팡이
127
##줌
전자기
명심
이완
예능
마틴
정확도
파편
##라이드
몰려들
되돌
존슨
##가루
라이너
~수당
합하
~~말고
둬
~특별법
수표
케이블tv
##테스
콰
진해
~사정
해운대
리비아
##닛
가는길
##드리
불려
lt
고른
~유도
##앉
덕트
꼼꼼히
관례
증자
##포트
신경전
난감
~하우징
처참
##단지
명상
~선생
열광
~날개
프론트
김한길
사학
~~는바
구석구석
##뚱
to
~완화
전교조
~취한
아이폰
##큰
단추
~역량
염산
뜰
그외
##내용
냉각수
##는것
##ning
~~루
몸무게
사촌
~실업
##상황
후쿠
내일은
##ue
##ki
적하
##갤
목요일
최고급
~~에나
며느리
~스트림
~유리
~장형
~울
죄다
기하학
~~는군
~dj
시내버스
대리인
~~주고
##시티
유교
추리
호의
뭉
보기
##go
군사력
##햄
누릴
독려
~결의
그루
공허
초대형
음료수
일할
기다린
sf
근간
딸기
~불이행
~~는지라
섭
가두
연꽃
미시
호황
사살
~주차
성지
선비
~mi
실명
빨래
179
전열
바이어스
대중화
~ne
시련
계집
로열티
##나가
노스
그쳐
~내기
수요자
갤럭시
지상파dmb
광명
시합
경합
##트로
솜
달빛
쥔
질러
##젓
나경원
단번
깨우
기관지
##트라
##35
개원
지켜봐
행자부
셔틀
##du
금세
~제약
##ie
타이거
~혼
##h2
장학금
증여
미지수
후크
공립
멤브레인
매화
오지
맥스
~워킹
일했
~가는
사각형
원점
장려
카타르
~전송
수산
둥글
~di
우도
몇가지
집중력
주유소
~~겠소
프라이
사적
중학생
받아
활성제
포커스
##19
~~서였
1972
##포드
미약
정밀도
옥사
##미터
~대화
커튼
##무라
이월
급감
##텀
살포
틀림없이
호박
꿰
~39
~변환
전함
암모늄
~권리
##sm
힌
풍선
성폭행
초선
바이올린
상급
##58
~대책회의
링커
##확
전년도
마주하
~love
압연
~경찰청
과천
육지
법적
##56
~물류
오산
두드리
자력
소수성
청취
무적
260
다룰
조문
총알
유정
택하
~호기
강물
아시아나
~~다구
불문
~됐
~~여서
폴리올
현대인
진열
~클
~영화제
사무소
저장소
샌
동대문
폐수
##im
~~든요
극동
컨퍼런스
~가입
~등기
독주
무너진
테라
수다
애액
~취득자
유나이티드
쌀쌀
마니아
1974
~임대
~~테니
~수산부
~~히
거듭나
경상북도
각인
팀원
대주
비료
~36
라마
줄줄이
a3
##oo
~bar
노래방
##mo
h2
##져있
가출
스티브
bbc
프리즘
거부권
##89
jp
미련
~대신
받아들였
히틀러
침수
un
장문
144
빨간색
라이선스
콘솔
변할
삼촌
##41
아이언
잤
분신
현존
대왕
설교
당직자
내뿜
~kr
급성장
##베리
남구
~거지
저질렀
~스킬
안치
운운
재앙
연구진
겸손
~자부
도보
국수
디클로로
쿵
~~서다
저번
함선
##까지
흑백
동성애
연사
궁금증
과립
방향성
~윤
사직
소독
~~워지
te
교민
삭
모레
세탁기
움켜쥐
바이어
비지
환승
회전자
실링
~벽
클론
습윤
뽀
어젯밤
~~수도
~대기
엔지니어
pl
삼가
된장
능숙
여객
서포터
막장
강진
##코스
~man
콤
물성
양질
~시마
늘어놓
보이스
당당히
신용도
질화
중산층
이브
계량
경희대
히어로
슬라이더
##츄
은행권
미정
~hu
~lo
도적
몸부림
거제
미즈
뒷면
칭하
##이기
발생시
어그
청장
~high
탈착
안해
가속도
일삼
타이머
##하길
##획
금융상품
~줄기
내실
정보통신
등락
도트
황홀
하이드
~ea
클라우드
어필
잭슨
b2
~~는군요
콜레스테롤
##if
보답
접할
추기경
~실린더
##96
##없는
켈리
설령
유람선
헤어지
호적
~교의
존재감
인준
노동계
반납
줄인
~학과
1300
저술
직위
한바퀴
요격
사타구니
소총
얼룩
칼륨
진폭
~su
비상대책위
그로
이태
가뭄
진짜로
발자국
~품목
~식별
서산
처절
~pet
크리스탈
sl
화랑
꾸려
대승
~윤리
포용
뭉쳐
포수
브라우저
피막
어쩐지
~가루
잔치
유관
##나이
or
##mc
##자원
~촉진
단층
~nt
~재고
~오스
한솔
~현대
~방위
##200
##곽
~동축
~맨
~rt
카리스마
~~겠어
이제야
~은거
##53
~의약품
외식
외장
~cj
어미
소용돌이
굴복
백금
그물
f1
##굿
거동
~공녀
시클로
평평
친숙
성장성
~괴
미드필더
왕궁
파면
건설업
범죄자
##고기
~앤
~사령관
~지주
세법
폐하
~선수권대회
~에이트
슬러지
참패
철폐
체온
##ru
신청서
캠핑장
시차
dm
양파
암튼
애드
대입
재주
wtru
수증기
태연
건너가
보험금
~조성
분실
메이크업
경상남도
~pk
~산화
폭우
발부
~카와
반짝이
~cb
정당성
넘어간
큰소리
~화소
인문
거슬러
소란
~상사
의총
co2
~erp
##을때
~결손금
도덕성
추대
고도화
용지
##67
~시안
##셈
부형
합한
막아내
쓰러졌
가칭
~혈
농림부
##84
벽체
~충
~건수
촉촉
~조로
베어
~도구
맵핑
충주
의구심
스타트
다스리
왈
획
혹시나
후원금
테크
외벽
##메이트
지날
##62
대구시
아실
##됨
~ddr
폭파
~핀
nr
~수송
~~둔
##자료
욱
##天
##리오
퓨전
##법원
~복제
~기이
사쿠라
en
##36
풍속
152
##렴
그래핀
1977
순진
무심
영지
~섬
강수
행정관
이준
산재
말려
~tr
문인
##비스
nc
동호회
끌어들이
수요일
친수성
~iso
~병이
##으면
뱅
메카
살림
사우디아라비아
경제성
cnn
벤츠
##했던
학업
브레
피살
실외
폴리카보네이트
연관성
구현예에
공대
축합
에도
퀄리티
~보험료
162
##식품
노려
정재
삼각형
##티드
남경필
이격
~주간
일리
제프
~~다든지
~정리
전재
마린
차차
##음악
##닷
~~을텐데
~공보
~불안
~ucc
표심
~발전소
안전보장
광전
컬
~~들의
성수기
##랏
하이드로
~가가
##다니
##빗
개신교
~명부
스크
##fi
~마사
백혈병
~데이트
마진
~펠드
~~주시
연비
소령
4g
연구위원
마운드
~공과
시조
대의원
위촉
3b
삼성sds
동물원
힐러리
~자재
~융합
술잔
업소
##83
혈장
따름
뮤직비디오
보태
안출
적군
~이에
~~수있
반론
결여
dj
~자형
포진
착탈
~ce
##하였
영등포구
서한
~~때까
법제
여객기
##조합
모릅
~war
결렬
~용어
##방향
##튀
~블럭
~mp
홍성
~~라구
맛볼
관능
##bc
##즌
사치
##수단
끊임없
페달
168
##콕
~min
아키텍처
눕
~보조
명백히
##o3
이대
가해자
농어촌
넘어갈
핏
최정
##투스
오카
비관
선착장
sh
##결정
중요시
가위
~nc
유네스코
서기
~불명
##ht
기묘
~증서
~농구
~kg
람
##27
엎드려
~inter
상온
황급히
김주
리뷰
재일
숙여
태안
삼보
전멸
~300
연정
이국
~스토리
~치기
평안
포부
두명
역동
~~께요
동반자
국보법
공격수
한양
트렌치
~박람회
거미
kb
피식
pda
##ko
##인사
깃
쇼크
반대쪽
계셨
청각
132
##보호
스코틀랜드
손질
조씨
~영향
139
##ity
~사업본부
##06
수퍼
축사
방사성
여배우
##주택
막말
스토
표창
모였
기침
치렀
정당화
만회
스무
픽처
~권력
하체
~호화
~로부터
1600
흡인
구르
~csi
성서
세심
프랜차이즈
~알코올
절박
사이언스
한손
ds
가로등
폴리올레핀
사업연도
~ex
통역
한신
블로
일출
램
넘어
블룸버그
~건의
~~서부터
서청원
보온
성균관대
##끔
오기
벽돌
이십
##노동
~꽃
암모니아
불규칙
~기본법
축산
분석가
재기
보행
~칼륨
구이
개막전
데크
##융
pe
~슬
엔씨소프트
br
##one
올라섰
부딪히
김희
~~으니까요
통장
156
모셔
~알루미늄
~관리제도
무관심
131
에로
수세
다쳤
가했
북극
근사
영화관
~테이프
난간
노동력
~~가고
~성명
모델링
~라디오
~~아졌
서른
어울려
수조
떠돌
남매
영업활동
신세대
꾀
언뜻
민법
~~재
나돌
##렵
~~지지
##방지
효성
1968
~em
간과
소결
##킥
~참모
~~으세요
##맵
눈치채
가볼
~42
몰아넣
관제
인파
~노출
가소
~800
사업비
~품질
~나노
멜로디
날카롭
꿰뚫
타이완
고액
치닫
한국형
미들
~~드린
해역
tft
~34
~타임스
천황
잡혔
예견
##부르크
지구촌
문예
제소
레몬
왁스
도난
역학
이분
성원
택배
양육
지켜본
깨달음
##믹
포천
예리
~~나가
에미
공정성
천만
공극
##덩
~~랍니다
~자기
md
~핵문제
펜션
~확산
##스럽
그래야
민영
졸업생
태양전지
사악
##박물관
인턴
외로
충실히
##촉
~연이
풍자
논술
##ant
임진왜란
과반
샤론
전라남도
재경
명함
자행
rt
~경우
항균
청나라
~예방
~상과
사역
백지
쏜
탈모
뱅킹
히딩크
당근
##og
폴리비닐
몹
~41
몰린
꺼리
뒤덮
콘택
첩
최영
~지침
~이내
표했
교육청
~암모늄
~72
심야
콜린
변질
##ag
es
이뤄져야
~뷰어
##클리
##세계
변환기
준우승
소명
입출력
~국면
##닉스
~이익률
조여
##29
차등
제7
자의
낯
훈훈
~sha
가히
중심축
골키퍼
애노드
서울역
면밀히
떡밥
126
옥사이드
럼즈
~가정
먹여
김학
가용성
##一
감속
등극
~re
충진
앨런
~46
분식
투약
베스트셀러
멸균
정우택
기해
재테크
~잔액
패킹
같은
알레르기
~야드
물리학
잘되
조선인
~정의
~케이
파란색
유기물
드랍
##디스
친선
메르
신영
엿볼
전체회의
##젼
~억제
찬사
가로질러
~여점
기화
미츠
칭호
수배
덧붙이
##est
발생기
매달리
백두산
진격
앞섰
티베트
##금리
지원자
옆구리
성대
레이싱
필러
표지판
커터
sr
백만
하드디스크
~조립
젠장
~넘
변속
시즈
이어폰
숲속
마인드
용출
~~정
불변
화분
모토
정중
쓸데없
퀴즈
개막식
투광
주선
순도
네오위즈
사법부
러닝
요하
##ut
되돌아
자꾸만
~70
~준비금
##사이트
타구
##07
천막
~ka
~해하
판명
신진
##rc
자립
ed
슬퍼
소실
풀린
새로이
~콜
김선일
공법
특색
두터
공손
##쏘
적법
딘
묘하
광기
한자리
종식
~ho
이강
클램프
사당
이닝
스탯
177
스톡
감찰
~ma
~청년
2g
알루미나
~접
경이
005
##살이
~역할
이슬
북한인
청하
베풀
박재
필라델피아
만점
~개정
산책로
농부
~언니
볶
맞출
어째
진흥
쭈
극우
다했
##헨
국보
집전
깍
일찍이
~부장관
열중
미간
러시
몰렸
x1
202
미진
시드니
눈높이
~동의
매듭
요오드
중국산
이질
압전
성직자
##핫
스태프
##런트
~구나
저소득층
아시
끌어
공용
환수
심리학
탄식
~일수
~이유
훑
히드록
생식
창간
~지오
~에서도
~소화
##예술
자민련
로맨틱
##처럼
문화관
~~만큼이나
##리나
맞물리
유로화
개그맨
세븐
교리
~메모리
~견
토종
고산
124
##뜻
~바람
10m
침범
승패
서너
김원
폐암
재연
##72
##방안
tc
잉
요미우리
##혁명
9000
~dm
ge
표절
~~당할
~오리
가꾸
~bu
우대
~이행
공화
뮌헨
λ
단조
##oh
문법
~pl
통신사
~우주
1971
출사
추종
신정
~바디
157
##09
수교
혼돈
~외의
~mol
빗물
천정
~유예
중소기업
~~나마
실험실
~ds
~벅스
##한뒤
##폴리
##38
~토리
멸
초원
현수
코스트
당나라
베이비
있을
부딪치
점화
~주체
##ber
~외과
~구경
136
자손
~진영
국외
히로인
융자
틀리
굴리
공문
~양식
미네랄
재조정
~~겠느냐
~ebs
컬렉션
통계청
발해
직속
스트링
인내
방사능
~배럴
100m
다변화
특수관계
무실점
테이
~비전
거쳤
~홀딩스
약국
관상
초보자
~주석
미나
~pb
동점
김은
제천
결핍
억류
도마
풀려
~~움이
마지막날
~해내
고모
151
복조
사슴
~주인
튕겨
θ
고갈
어학
~지정
폈
정년
oc
병진
광우병
ls
~mu
스캐닝
경상이익
양키스
위성dmb
공판
~년경
~폭력
츄
산적
~혜
##있던
열망
조수
~계수
##꿀
환하
~cr
아르곤
~cl
시외
pm
천상
161
느슨
저그
패션쇼
상설
~전시
##떠
즐긴
길항
경사지
주변국
~~가에
아오
찾아갔
부적
할부
~단체장
129
본성
후문
이종걸
눌렀
세계무역
위키
비주얼
##니스
리플
퇴치
~원료
찾아간
수영복
비정질
330
기뻐
##듐
~도서
어김없이
반죽
~pm
답한
밀양
부추기
쪼개
잠수
물자
김영란
불평등
##들은
크리스티
~방학
정합
~your
끓여
~생물
탄약
통째로
이재명
맞대
항소
~hi
~배출
기다릴
입경
세르
따라오
검술
봉합
사사
진위
정진석
끌려가
두드러지
천문
010
##맥스
바빠
동국
본회
##쓴
쑤
~세이
비켜
회고
첩보
방법론
콘덴서
두렵
~재산권
콜롬비아
진정성
만년
이석
허물
ne
소우
~je
##사이드
기꺼이
~~라든지
직각
##룽
김명
~소프트웨어
흘러내리
~~려다가
##셉
측부
아하
~화합물
~금과
정쟁
빅토리아
우병우
~키스
중소형
이인
멈춘
완성도
세액
귀한
공모전
목동
세밀
인맥
드렸
원판
살며시
##이스
접종
~니아
밀가루
지주회사
~~라든가
전시관
리즈
~37
작성시
~had
강국
가져와
바코드
~구치
파울
~조항
~market
~부호
순찰
개혁안
누락
~테트라
웨이브
특강
박람회
법학
1969
~op
lo
~개입
~각서
여력
~대상자
찾아
프랑크푸르트
튀김
위태
안가
샐러드
4b
소름
대통령령
틀어
재래
무차별
~텐트
~설명회
역방향
조례
~현재
일몰
~휴
내세웠
~what
생중계
경남도
원만
어머님
~한거
학사
하나로
~운동가
kcc
남학생
~찾
비파
힐링
경성
내려앉
세울
마음먹
~노드
편이
~이성질체
초라
테이퍼
정류
절연체
##즉
이미징
일컬
~sns
~대역
~당원
~벤젠
~매도
톱니
재가
감도
~충당
~개방
164
일어섰
킥
소드
밀린
한판
메시
염원
비평
~발급
습식
aa
패시브
번거로
아자
경전
역내
민감도
도전막
그럭저럭
안성
##냄
동남아시아
굴욕
토벌
~불량자
~컨설팅
고분
가져갔
보증금
~400
##대사
아리랑
국책
최저치
터보
데미
~통계
필기
##98
ko
~글로불린
팔려
머무
~~이네
어선
~혜택
5g
불쑥
##모리
cbs
차이나
##바람
직책
##종합
고루
전과
컨버터
명나라
킨
~year
##之
이장
아지
저마다
~52
작물
벌크
~~겠는가
##ton
버거
루시
다시한번
~재해
영리
고찰
모뎀
폭스
몰입
굴러
친환
물속
캄
속출
형상화
우상
은근
심벌
~와서
송도
빙하
너비
~이미지
함락
정연
아미드
룩
##었던
야수
벼슬
랙
귀가
교묘
상쾌
알아본
p1
앤드
삿포로
내려간
~분열
탄핵소추
대청
잔혹
~틸
동유럽
사우스
용품
ri
재사용
~기회
동인
장례식
~언
##son
가파른
~우레탄
1100
거창
순매도
~ts
해산물
~경선
~한가
생방송
포스페이트
미카
rna
~흡수
~이름
차선
자각
제대
하이라이트
이라크인
대표작
적층된
두드러진
도리어
~파괴
~이용자
식욕
신촌
환불
하이드록
에피
##겟
햄
찰나
200m
무의미
~44
~급식
세레
기말
##하다
의존도
도깨비
날아오
개인용
동맹국
pr
검은
~군데
수은
##돼
트리메틸
채운
놀리
##ous
~입법
일회용
진우
##닭
~~었지
복면
쑤셔
한나라
파파
146
앨
~노즐
형법
~~해봐
키리
월가
유료화
도피
정파
스톤
이데올로기
마하
엿
##집행
~판정
##pc
~책임자
~부양
모친
독창
el
자수
##라고
소홀
걸러
철학자
루비
샤프
소형화
~won
함몰
패전
소유주
선봉
##sp
커리어
신문사
~tm
~라스
벗기
~guide
포근
~정상회담
r6
스물
버터
이동성
선착순
~어음
르네상스
한산
##라스
##왈
1400
이어갈
판촉
친근
~가야
파열
카나
한없이
증액
##게되
지휘자
176
153
화요일
플루
##메르
사라질
변모
金
휘하
보여줬
대열
있는
태평
##협력
딥
기독
ha
무모
##59
부극
신입생
상권
~환산
~~에대한
##리지
툭
재물
브로모
소진
~강의
편찬
겸비
휴전
경련
악명
154
빌드
~don
근교
~비치
경향닷컴
~입구
##기도
##해야
##and
~gsm
용수
~같이
불거진
##자산
~디스크
제작비
연맹
운수
~매장
~회초
저거
켈
통기
취직
4m
~중단
전달받
빈틈
~벤
##가치
개국
소소
이용객
최하위
들렀
텃밭
~percent
##몸
필살
총평균
~침해
dr
기병
군중
흘린
모종
고화질
##하실
찼
내력
구축함
감광
go
##는건
~깊
다각
암기
랜드
잠입
우익
방어율
당무
~수정
백운
##o2
곡률
~화법
두바이
혼잡
숫
서남
절묘
미지
햄버거
블라디미르
~베이
일류
줄거리
##부문
저항성
비대칭
성명서
다니엘
동급
~~봤
134
##갱
~박근혜
##ok
춤추
기장
##신청
분지
남짓
~소유
씌
법관
분간
##po
~~만도
토하
흡수성
원동력
누출
~실과
141
##껏
~ack
상층
mt
##뚜
1948
컨버전스
하신
메탄
쓸모
##브리
서원
베드
##cr
만인
sta
##삐
이쯤
살린
~저축
~~짓
새마을
무분별
~우리
~~주면
장세
~건축
겨루
치부
잡아내
김기춘
임대료
감쇠
~프로판
~~었는데
지령
에피토프
광택
클램핑
세퍼레이터
bc
##총장
~비즈니스
##aa
~지휘
개개
붙들
~트릴
빼앗기
관통공
누이
캘리포니아주
~상가
##dc
##gn
~~는커녕
고구마
수녀
~하이
##家
쫓아
~행진
뇌졸중
나폴레옹
건넸
~48
트리스
##첼
~품이
~센스
송이
주공
~~갑니
옷차림
예루살렘
~타로
~usd
참관
마리오
~감정
조형물
##밋
친화
권익
~대결
불복
더럽
##이어
펌핑
킬러
주식매수
##권자
흑연
파쇄
로밍
지금껏
아사히
##글리
별장
실책
~bt
##흘
l2
집결
어처구니
찍어
성급
국화
동거
톡톡히
엉망
유동자산
정형
만장
166
숯
반장
2h
pcb
단련
피아니스트
개소
대본
달려갔
주니어
참여자
씰
1962
모닝
148
~재판
~pcb
온전
6a
이낙연
나주
물려
##ance
남극
##컷
이에야스
음악회
138
변론
적중
헤비
숙성
급속도
실컷
~터널
bl
##박스
체육관
대테러
##法
인플레이션
~55
판교
의료진
해답
제갈
희박
~신탁
친하
불릴
ag
파이널
인양
소관
하자
마자
혈당
세인트
범하
~80
힘쓰
~끼
허허
집요
히데
~기한
영등포
~san
두르
되돌려
##55
##ard
##첸
죄책감
키운
~gra
##런스
유서
프린팅
한우
의정
경연
##문학
반동
우드
알림
닌텐도
em
뜸
카오스
~슈
~thf
~함대
예감
선뜻
동백
##000
##ate
차광
임차
두사람
~교섭
##93
三
메쉬
파급
도파관
배추
##둥이
과감히
쐐기
~ft
불허
국세
전속
~네트웍스
~tf
~voip
##적일
~~게만
이토록
타원형
난무
경인
한국사
적성
거푸집
가까스로
~sr
슬프
~신도시
~파크
휴먼
지킨
~검토
힘겹
##훈련
137
관용
연희
백리
전폭
자연히
pro
협치
우승자
아흐
아세틸
골짜기
~현안
한식
~카르
가다듬
알아볼
~물가
퓨
퍼센트
부의장
까지
~tu
탈바꿈
~태세
~세율
비약
세가지
서랍
데드
~마법
~~랑은
~위주
타단
~파운드
두달
~고용
##소송
반품
##으며
선보여
~기념관
~트랜지스터
~시작
~상선
저작
얼핏
방심
도이
~테스트
~마스크
1967
유효성
빌미
~북도
~600
##넌
화답
강등
~소위
수인
메우
브러시
~치료제
예술의전당
구했
끝없이
~~낼
플런저
쉰
대손충당금
1963
~과학기술
템
장대
꼽혔
~mr
~mon
푸드
wa
받들
롬
모델명
낯설
~~졌지
143
또래
술자리
~마이
국산화
각질
마개
##셰
세일
~하이드로
결점
몸짓
~만족
박힌
대성당
~seq
무너졌
~분류
##티아
##아제
##rn
~연기
잠자
발가락
중위
서재응
축전
출토
일쑤
~es
모씨
첼시
엽기
##fl
~보기
~메이트
플래
음부
~만여
av
브래킷
히데요시
갑작스럽
딕
~마당
배용준
~mo
애쓰
만한
독수리
거처
##궐
세분화
~플러스
~워
고질
팔꿈치
그제야
5b
성찰
부쩍
고로
##69
경쾌
189
##시켜
##노인
~표면
펴냄
~저널
해커
만기일
~해결
##마리
##보기
증원
##rp
~토지
##젯
활물
le
노는
~43
~총괄
~than
~룸
봉우리
트루
뵙
박세리
~~은데요
##경찰서
알아내
눈여겨
선체
관능기
무안
흉내
포르노
생겨났
~통과
~포주
~챔버
##밑
##의식
계약서
거느리
거장
~프로젝트
민망
흠뻑
##공급
정극
송파구
약관
쿄
pdcch
##cy
속내
~다면
일러
용적
출고
물의
찌푸리
부화
1900
센트럴
다한
어기
바라볼
천식
무심코
최경주
위엄
응고
호화
~복구
판매자
냉기
급전
잣대
163
172
~대체
금융리스
농림
~선도
310
##vi
~내부
총격
전염병
글래스
수용소
이문
스포츠서울
마그
대형화
~마련
149
식민
##田
~성적
눈부신
공소
절도
경영학
이봐
~~해본
티탄
에폭
돌파구
우와
입힌
~청문
147
검지
궤적
수순
제국주의
작사
~레스
화사
과기부
158
~으로서
~스테
보직
늘렸
~혁이
완주
아즈
창건
스테인리스
흘러나왔
노사정
그지없
통풍
~수급
~which
장전
연예계
##심사
전동차
시클로알킬
종말
익스
텅스텐
지중해
ㄱ
병장
##gh
~칠
~빛
##티지
브릿지
일자
神
~동작
##들리
##pt
법사위
방산
유류
강동
듯하
##nk
##이사
숙였
~크로
~부패
##경쟁
중앙당
~~건만
시마
##wi
판례
채찍
어울린
네이트
지출액
윤영
알라
cb
우주인
따라잡
좁히
낙엽
소라
~~겠어요
앞당겨
단결
미야
출퇴근
내려진
단양
대물
영국군
##핏
보유자
섬기
브래지어
네거티브
171
후미
악역
~62
베일
넥타이
~설명
npc
~sf
나이지리아
삼척
학부
~푸
시애틀
학기
~정비
~투자업
~통신망
웃도
베네치아
~tri
인터넷한겨레
익힌
~당사
~길이
~한도
~vh
~oled
살릴
~독립
##스케
매설
알선
양말
다스
체면
코인
도막
~청소년
팡
코디
부럽
인제
~고사
세차
뿌
~er
자작
거북
곡면
갯벌
수도원
##홈에
~사기
~au
쉐
땅콩
당혹
이희
부설
진성
갈라진
~전시회
필립
막걸리
성산
~부진
유리창
##부에
가로지르
##조정
쓰리
택했
탐험
ft
칫솔
맡긴
푸짐
다낭
아케이드
량
둥지
一
##tra
헌데
태생
다친
경기력
휘감
~~졌는
~~랴
##앞
##ies
tu
조경
사상자
~분권
안목
~회차
키메라
홈경기
단종
우습
화기
다산
적잖
어린애
연구실
안드로이드
~there
##르산
##란트
##녘
불러일으키
연세
지부
~천여
호가
대선주자
~타이어
~des
##펀
세례
둘러싸인
회귀
~성기
토마스
점쳐
티아
##평화
실록
세이브
라이더
~티오
이동식
일전
빌라
~유동
피난
~비디오
핑거
슬립
불펜
일반화
오동
~예선
지방자치
외우
가이드라인
~씨가
~관측
엄선
~마력
신변
따스
당면
와이드
~와의
금고
~부부
~~겠냐
두껍
품종
접견
142
##vo
조형
마인
뒤져
이코노미스트
맞췄
~건가
주성분
##sk
~수업
~수색
열적
~기타
심각성
##하우스
손색
광대
한몫
마이너
간행
##봅
확고히
액면가
나토
송구
물러난
동일성
~스틸
~레버
하마스
재계약
미아
크랭크
외피
##전기
퇴적
도시바
167
역점
이단
정할
손발
사수
~덕
인듐
담장
이성질체
심했
주임
조연
~헌법
이글
비영리
개화
한탄
~정상화
~선발
~감염
롤링
스트리트
만류
~한건
##쓸
##속도
~mb
띄워
군림
日
고아
##지마
멸종
~완
1965
~해양
타고난
피사체
유흥
환입하고
~차액
~농업
흠칫
시베리아
성금
좌안
악의
힘겨
이철
스테이크
클라
아기자기
~jo
~fm
라우
추론
##현상
자연스레
홈네트워크
불어
냉소
~good
소인
당첨자
##저우
##정치
배반
##ual
과외
으응
헌터
누님
~she
소생
급진
탈북
자생
올인
~차별
~벤처기업
204
##랬
##ting
얽힌
복당
불완전
웹젠
영호
##바위
야시장
딛
##pp
점성
nack
##道
집무실
이순
회사원
장안
~여도
회부
~바운드
~랭킹
문경
마포
늪
신관
상냥
우안
tp
와일드
망상
~투자가
850
~이군
초식
휘둘러
~대수
스폰서
숙명
셀프
놀러
합친
비과세
공언
아이러니
단합
1940
고양시
조르
영수증
비벼
스트라이커
~주입
슬로건
연합뉴스
공론화
샹
파우더
무승부
부탄
타르
똑
섹터
누비
의복
발진
신종
~홀더
유적지
파멸
##크로
##진흥
라이언
살아갈
朴
~정보기술
태조
##니까
규범
~엄마
당헌
~방지법
~솔
스티커
소리치
~격차
~~다니까
금발
##하라
##판매
해야
세단
붉은색
##ze
수긍
##언론
##넥
알카
바티칸
쟈
민우
서재
~해라
협업
챔피언스
~기둥
~대로
독일군
~심의위원회
점거
패스트
부안
##펑
##벡
대전시
불씨
ts
##개선
##탱
사지
알린
~지연
사령부
~높
챙긴
~콘서트
각하
심포지엄
목격자
스키장
기승
가격대
~코일
~향상
탐방
알렉스
펠
어리둥절
##면서
##감독
매표소
물갈이
갈래
~유형
길목
경기회복
국빈
~읍
완수
만세
~~서인
서대문
~배선
tf
##시험
##ys
~불가
만전
~~가며
보잉
첨예
##겹
##ted
동남
##그라
울부짖
~~다라고
~포함
생산자
~~어준
강풍
~죽
~back
우스
게릴라
~말단
어지럽
##슛
수산기
감금
et
떠올렸
고뇌
~~려니
수류탄
개월
소거
##프라
미분
~td
박해
금융기관
p2p
성욕
원유철
무정
간질
요코하마
##거린
~실태
~se
##학원
~폐
~결산
방황
넓이
애원
페르시아
가신
290
~운행
짓밟
수박
창피
미스터
대법원장
조향
이소시아네이트
무더위
퍼스트
~제1항
안장
형평성
km
브리지
재회
부사
다중화
감소세
##빨
대표자
필두
교도
치켜
365
무자
네팔
피한
~보관
회전력
울타리
500m
##팟
하회
프로판
하계
인화
뛰어
듭
에어백
~시아
##ml
명사
##비치
콜라겐
닥
연락처
유추
225
의논
~공유
방문객
hs
역력
##더니
##타운
꺼낸
~nsc
듀오
끝냈
~함의
blog
수심
생겨난
천둥
방미
##찮
골목길
~해변
~검증
##였다
놀라움
걸림턱
퍼졌
~군사
끼어들
광고주
쫓기
육안
알람
~전차
걸이
이다
~나리
히드로
막론
~계단
혼입
떨쳐
국사
복종
이광
~oh
관영
타이베이
움찔
물려받
사무국
프랭크
푸시
nh
dl
##깁
아토피
이정표
요괴
실습
마츠
op
날뛰
뒤따라
튜닝
대응책
~테크놀로지
베테랑
~앨범
양양
~주신
혼수
##che
닥치
~정보시스템
~출원
뽑혔
레이디
~폭포
파랑
컨벤션
##무역
무지개
##뒀
가뜩이나
~인형
트레킹
주호영
카레
맞이한
배율
~도전
802
~day
##질환
미끄러지
에드워드
한바탕
퀄컴
kd
최성
~벤조
점막
망하
경복궁
백수
현주
집게
즐비
음력
빡
마땅히
##부분
이격된
~천억원
패러
t2
평론가
뉘
타운
~용액
~전투
자폭
일족
~would
예뻤
th
환전
청바지
~~에야
소홀히
~석유
책자
##항공
회선
카리
~스펀
피리미딘
아인
구청장
~sms
~공세
mb
하이퍼
##門
홀딩
리턴
막연
~권부
2c
두들겨
십자
동창
min
##붓
허구
계약금
여태
델타
~~어야지
하오
##cp
발광다이오드
총파업
에멀젼
인디언
원년
격추
라스
정예
심플
공교
산길
전염
~송금
넘버
~보존
한국hp
~장면
어휘
故
일진
언행
~형식
~제기
줄였
불우
궁중
c5
훔치
~gt
##wt
선상
무더기
김천
##대표
외과
~gp
사옥
예스
드롭
위기감
실존
ea
사토
~~다네
소득세
드려
~디지털
인터내셔널
~납
##리에
제8
클레
##덱
##ain
~무용
##스레
이규
~~랄까
플라스미드
##br
어우러져
##ab
~자석
비우
~필립스lcd
~질문
훈장
구체예
요가
~imgsrc
선글라스
##둬
포상
살폈
엔터프라이즈
창가
부를
애도
비상대책
~imgtbl
##리스트
##리즘
~~래요
##86
~진기
~칼슘
구타
~pu
조우
조그마
수해
##뿌
미끼
ka
우리집
~재질
정태
##수도
피라졸
naver
마저
~생각
無
부르짖
방탄
라우팅
쏙
아팠
겸하
##ess
무신
~한지
##쉽
부대변인
~~겠습니까
삼성전
일품
~56
일해
이상일
파이터
이뤄진다
퍼즐
애리조나
~plan
피격
시끄럽
기업가
평온
~브라
전매
북한산
박명
담그
~야당
##ib
근심
~확률
격화
~증대
카자흐스탄
##up
하이브리드
만능
보상금
씨발
끝장
~분쟁
아차
~카르보닐
##업무
맨체스터
쇠퇴
무식
~메타
사뭇
악당
마키
##틈
##ai
심층
제물
여진
마누라
##어보
체형
미비
ㅋㅋㅋㅋ
##벙
720
식이
~주소
##스러
진행자
~free
토너
간염
~국의
##gb
절규
##ell
전립선
비위
합격자
함성
감리
##ef
~vl
어쩌다
상청
~ㅠㅠㅠㅠ
소포
오스트레일리아
~~서가
~경과
라미
미팅
코발트
확연히
연행
남다른
~메틸렌
~아연
가중평균
주사기
대작
거물
~혐의
그레
이뤄져
폭설
늦춰
자초
본국
피처
다이아
손꼽히
레온
보이콧
방광
지원금
개발비
~금융상품
부디
골치
##똥
반출
~see
lc
개방형
히스
~~간
~청의
엘리자베스
구명
##눌
요크
비수
cd3
컨택
##gs
우수성
연달
신지
평타
엘라스토머
~head
~선진
요양
~언어
유튜브
구장
체리
##깐
~쇼핑몰
중등
검열
외계인
아마존
김우
실크
연하
낙동강
스크롤
뿌듯
~재청
에그
본연
대등
003
익혀
소닉
수레
정우
~~리라는
##su
lp
##ey
시라
~주문
양복
명실
~원리
~몬
해경
이호
키패드
리콜
백의
fo
시진핑
맴돌
##사고
이튿날
아우르
##cu
체격
아이팟
믹서
화백
각본
~아미
백만원
~구축
상보
##푸르
~br
닉
결투
후드
비효율
~~고야
전문점
육류
~~라곤
수줍
~~냐면
섭섭
~보강
##뻔
우여곡절
긴밀히
##어서
김남
강당
한국전
~묘지
블랭크
~700
서운
~~느니
##구역
후인
근속
접근성
##업계
택한
~속성
빛깔
~아아
식기
유린
~bri
밀려나
mvp
한쌍
갤
엇
승률
금감위
카카오
왠
지구당
~나갔
임팩트
트로이
급부상
루머
##神
감세
~헥
그나저나
어치
korea
방송통신
지치
수강
탄성력
도매
be
액자
~브리핑
호환성
전라도
~group
죄수
스냅
진급
~갤러리
~phrase
##섰
자랐
독립성
~지능
입점
##냅
~실시
~벌
##테이
##學
가락
사다리
##웁
이에
~전도
##깅
데모
조직원
끼친
뱃
꺼지
##복지
r7
~재로
~리안
ig
역류
흉터
토르
사이클로
돌릴
맛나
부르르
동심
~관념
##보다
~평론가
~산성
색감
낮출
디아민
에버
~복무
mr
라오스
크레인
##ei
단거리
버텨
굽히
출입구
무수한
맞대결
까다롭
비쳐
난항
##딕
어업
~ob
저속
~카이
##뿔
~~지며
발바닥
무기력
~크기
체납
##랫
토너먼트
나이프
~ja
성폭력
자본시장
~아세트산
이민자
##듯한
수작
후작
독일어
~훈장
토론토
~등과
레전드
원호
지구상
자동차용
어지간
도산
cd4
##칫
재심
모모
~몰이
##ii
허탈
업로드
간절히
au
우방
~차입
~~건지
##공항
삼성카드
마취
선율
##쭉
##ㅜ
나타
정오
##고등학교
~~십니다
팔렸
홋카이도
안구
귀하
폐해
~national
출격
겸임
ch3
욕조
~마그네슘
곤혹
~~댔
480
온전히
말린
서늘
~림
##lu
1961
##왔다
미수
통틀어
반증
원해
##곰
타개
잉크젯
유속
뛴
현탁
##ice
~bbc
지난해말
몸집
##번호
~바라
~시도
싱싱
~~어오
벙커
늘린
옮길
아쿠아
스틱
가솔린
임베디드
정전기
이로
~대리
시안
견뎌
승마
원할
기형
~고요
복지부
베토벤
뮤지션
나뭇가지
특성화
~음료
지하수
iii
호호호
샌드
초록색
멈췄
~nhn
유스
~categorization
340
하남
들어설
~상장
~~주기
온화
~were
한곳
##mhz
휴스턴
앨리스
~wcdma
##고리
기울였
결별
##퍼스
~iaea
문지르
~출판
미니홈피
~퍼센트
처했
이한
염색체
아영
고층
항일
~about
비친
서리
직진
손수
부가적인
다공질
p2
다져
성모
전환사채
깡
~47
허리케인
증산
잔사
듬뿍
남아공
난입
##tr
미학
기울기
콜금리
~창고
~자문
##ric
결손
~61
캐패시터
불륜
계십
특허청
질책
백분율
~포장
386
~sur
윽
~~지게
~51
본적
이나
불분명
주포
~sol
##프레
저명
네비게이션
단주
사탕
누렸
커팅
~tp
##탠
##ppm
탈환
~공헌
코카
루마니아
남아프리카
햇
토큰
~개의
박태
등가
보라색
게이츠
저러
~고무
설화
헬멧
꺽
질산
입소
~축의
포스포
저금리
유기농
포탈
~~졌을
장원
~번역
피아
인터파크
쿠로
출발점
피오
다가서
ㄷ
##자본
우리사주
못박
초상화
~north
심경
##day
변기
~~달라
튀어나온
우상호
밑돌
~네트
1964
강경파
~루수
##xi
인치
한개
~드릴
굳히
##기위해
~글
휙
~양성
##心
김석
의향
난관
관우
~댄스
베개
모세
급급
청룡
인과
개의
가린
##아들
흐를
작은
~메이커
의원직
밀렸
##전화
wi
지현
연례
##ig
방망이
##타임
관악
~top
~학술
~캐피탈
물씬
총리실
~활
~추세
~원자력
소양
화나
평면도
케톤
염기성
나선형
~진보당
~발사
##노프
재혼
빈소
~옹
하는
~문자
단언
380
카바
ke
줄리
##고싶
너프
174
내기
보습
목회자
키울
대남
~브라켓
##봐야
미술품
용감
sec
##ㅎ
유고
~완료
정의화
사업가
화약
##요소
##rr
벗어났
노르
~gs
스미
찬물
양분
주범
어부
안철수연구소
톨
경마
가온
~관광부
前
점하
달려오
거북이
##야하
대정부
여간
~다니
##고객
호프
승온
죄인
~~잔
집광
##tic
엑스포
~살상
sio2
박병
구청
소듐
1949
천문학
관련성
터질
상근
트랩
배역
경량
초상
팔라듐
중계기
대국
~분간
수선
##협의회
한결같이
탄수화물
이오
캠코더
~경화
가옥
##뱅
세간
뻥
넘길
~중학교
##맘
fr
새만금
방문자
콤비
현수막
##학과
##세스
심문
당직
디오
천체
엔지니어링
안무
##신용
차베스
혹독
착용자
종점
##반도
일절
명중
뛰어든
~질의
##ial
글라스
스쿨
~~해봤
~지도자
~줘
캡쳐
7a
잇단
gp
예기
상고
편법
보행자
불충분
거행
~cia
프랑스어
~포터
~일본
##튜
드래프트
충만
~해운
~나오
##바르
혼동
편의상
~lu
~임원
패키징
~사관
~장이
스테레오
~아들
일체화
퍼붓
목욕탕
초코
이데일리
##bb
포도주
~메뉴
##즐
케네디
##mg
~자간
~iii
3500
##컴퓨터
지반
플리
##운용
~장인
간이
정석
신분증
알아듣
선거인단
~독성
액화
~시다
본진
~bs
쪽지
서북
기분좋
~어떠한
버틸
##氣
해병
착하
173
박승
##덩이
~산업단지
복호화
~실록
황태자
##티오
배꼽
~측은
체세포
##日
~power
물방울
채권금융기관
gdp
~~까지를
~sea
~pcr
~훼손
~예상
팔린
탱커
고상
~소득세
002
~ui
아찔
~통신사업자
##tc
실업자
세르비아
부두
카르보
~first
전문화
평활
~무장
기권
일주
5mm
입회
~~아는
해태
중거리
~ju
악순환
~제휴
간결
##클럽
조폭
공급자
편평
신한
넥센
다이빙
~퇴직
오너
##자동차
폭등
~어도
앰
덮쳐
앞장
~bmw
제철
나아갈
~특이
기만
알케닐
~pr
~인터
하급
~신부
모던
mn
1966
미셸
팥
교내
스캐너
유배
##ong
공채
##휠
해남
건식
발각
밀어붙이
~연구회
마야
불합리
##도르
##cn
##生
정론
##able
크로아티아
공석
멋대로
~win
아그
소림
가자
박기
배부
##sl
##운영
산자부
해골
이창
공력
감산
~가입자
진의
으으
찰칵
장영
웃기
스펀
##끌
~오차
##ical
~im
~58
리틀
그루브
끊기
무협
수산물
##학자
~57
통용
크라운
처사
169
##db
만루
교란
기가
##정신
구금
잘나
~~테니까
~~거니와
##사무소
렌더링
~~지만은
비운
~주의보
하마
##ger
~팩
관직
민노당
##lc
재상
##dr
능률
~연습
열성
맞먹
휠체어
실지
일등
50m
스트라이크
수익금
##제이
인라인
낙태
열연
밀어넣
바텀
팩스
올리고
큐브
약사
악어
초유
고이
성품
~갈등
보어
d1
##dd
기력
~정보화
~화부
과대
떨치
~마이크로
독감
~코팅
아라비아
눈가
~선수권
통공
야망
몸값
~~하곤
~cho
깜빡
안마
자그마
~~냐며
ki
레퍼런스
1946
~~운지
~실사
이봉
##크라
~mar
~실란
~~다고도
##랴
커브
잘려
~너
~어리
~리더
北
##ide
살펴볼
~남자
충청남도
세속
부제
닌자
203
진기
강관
환입하지
쿼터
오마이
만연
포탄
마스
믹스
초강
연도
담백
테크닉
##커스
~포스트
깐
~틀
한민족
앞날
~che
진하
이효리
야만
데이타
같이하
순순히
담합
녹여
~49
이변
영월
신청자
~지형
비정
직관
중앙대
비워
뇌리
##민주
##모토
어우러진
~~드
답사
~아드
~그래
영예
##uc
~일전
아세톤
~mt
예비후보
수구
흉기
정시
디시
~1027
꾸민
감미
최상위
침상
모차르트
형국
고유가
총량
맹활약
준용
연골
~~우면
~평의
컴백
amd
~해수욕장
~건지
~위반
필라멘트
잠식
경영상
옥타
번복
~여년
~디올
교주
수탁
사범
~전입
팔자
##ther
다다
##쿠스
~54
~면허
~~리라고
챔피언십
~작인
변압기
##미디어
~영어
학회
~호스
##예산
열량
수제
위스키
명인
실재
아머
~배관
~when
호호
착안
중간층
일꾼
산간
~pat
~연구센터
때마침
격돌
~인프라
흐린
두배
폭발물
건설사
현대화
금새
절친
그리움
##뭉
타오르
배가
미성년자
테리
댔
덮여
~넷
공해
~international
대내외
이타
오스
세전
빙그레
봐주
~off
스며들
~dis
벌어져
~iv
시몬
숙청
~~으라
커버리지
~지도부
엿보
##시마
젊음
##통로
##월드
~mn
날아갔
##곶
빨강
~인승
~vol
저급
합체
프레임워크
분양권
~cy
애용
다기능
~투데이
서경
단차
투표소
엄격히
성의
절연성
윤석
밑바닥
만원
~rs
석출
벼락
~유전자
##틱스
압류
승낙
지퍼
제명
교제
속살
##쿼
~특구
한라산
비활성
소연
변속기
엄두
##노스
~퇴
꺼져
##플라
말문
김구
~work
성화
~모니터
~기대
~been
신호선
~만평
한문
항암
나나
~놀
연구비
공평
정희
폐허
~~은데다
주스
##400
김미
초빙
비오
~동산
##위원장
~동포
셀룰
껌
솔레노이드
자칭
430
템플
애교
도우미
~창업
송환
둘러싸여
다발
알아들
응징
~테크
~other
디페닐
~last
접어든
쏠
~해상
##밖에
~고수
##사태
우원식
돌발
들고
암세포
##ya
룬
태종
가평
피워
다저스
망막
김밥
~헌
요망
들판
합창
어지러
덩
그전
rb
곧이어
~추적
포인터
엣지
고강도
경시
간간히
~수수
pk
~토론회
##캅
인포
축선
부담금
로얄
하리
사천
~폭풍
~교육청
호모
챙겼
~손가락
~~워졌
미키
공성
~매틱스
로크
~government
대교
상습
달리하
군용
정형화
적기
꽁
~두께
엘레
이남
깬
독보
~투표제
##ite
아스팔트
내셔널
~잡기
~bl
페이퍼
가디언
##더기
비호
~피리딘
~회계연도
왕족
맞섰
공휴일
투석
희석제
~보트
뭣
~red
보성
권오
펄프
비둘기
꺄
틀렸
부산물
친화성
최하
철원
~수주
금치
##되고
지은이
~만개
하버드
원상
모건
칼로리
탐욕
쿤
~기초
도루
용암
포탑
절충
bu
ucc
6m
두루넷
청결
노랑
윤호
~~려는데
뭉치
컷오프
~군단
~201
##mer
이음
합성수지
유희
윤활유
단적
나직
좇
~가리
즉석
~한정
다단
주물
~카르복실
~계곡
~검출
生
##中
실점
분별
##gg
정준
~동성
유미
~투신
울트라
여포
문화예술
불가리아
교향곡
##dge
~연동
닫혀
영도
반쪽
대출금
##돌이
골드만삭스
경제력
단군
판소리
~계급
~분과
문희상
~act
~sl
혼선
~판단
한복판
~장갑
##토스
~워크
~디아
매몰
매미
선양
연회
차후
짜여
등받이
일본식
트윈
원더
~적립금
##츠키
##les
꾸짖
~미노
하워드
스탬프
버너
~접수
펴낸
분장
##sta
~문과
~~다지만
~~나갈
~kim
아세토니
수목
##ding
풍만
웨딩
판문점
숭배
디플
##가와
트롤
루스
뚱뚱
~~더군
장차
##들중
x2
성씨
~like
~천이
~법인인
~지난
usb
작별
원서
렉
창백
##우드
뒤편
인민군
급상승
변호
관련법
케빈
통신사업자
~oc
라우터
드라
##쿤
더빙
단검
~rep
콘도
최연소
~여야
~hs
펀
찐
ht
음양
~편성
태백
항소심
~왕조
~~경
헨
내려갈
걸작
살수
사르
~pucch
끼우
올려다보
수화
하면
선천
수수께끼
넘쳐나
등뒤
찍힌
올라서
~~로군
피라미드
전가
##카이
와우
~mos
에버랜드
노장
~픽
집사
전전
평지
과금
졸라
개교
~원성
~소식
펼
특허권
칸막이
##펄
~sun
합병증
실증
걷어
하순
##그래
질려
퍼레이드
엠파스
튜
~~다든가
빈약
덩달아
대타
~농장
~지지대
타사
태자
##툴
레스
매기
인플루엔자
~관내
박동
##다르
##ight
회고록
~나간
훅
##文
~소비자
~~으라는
고효율
거들
이뻐
백호
~목록
아흑
좌익
소행
실종자
한라
시나
~식장
바쳐
위안화
이슬람교
얄
몰리브덴
깔린
카테터
걸레
##웨어
~고문
운하
빼앗긴
역부족
마족
경륜
도미
~선관위
심신
키웠
~풀
파워콤
뒤통수
품위
프라임
올스타
골퍼
~after
~워치
내지
##최
중령
메트로
~gl
~장군
##ud
리타
~two
참치
승화
휘날리
허술
~장부
결장
~플라
~간부
캘
침전물
동천
~공동체
##川
~안과
젓가락
cd2
감겨
지압
제비
~도성
~va
아난
##이터
유니트
##ral
##cal
~마비
날라
선적
국정조사
감응
~폐지
~대책위
수진
스탠
~미스
함양
추월
~천만원
##플레이
특보
외롭
숨결
모텔
~ref
성추행
~service
흐흐
건지
놀이터
bt
옌
여주인공
빈민
##rm
~낙
스위
~~가면
늙은이
~마킹
취약점
~life
자화
~진과
연탄
마물
~수첩
저승
~현실
~cha
첫사랑
평년
낮췄
##앵
사회학
노숙
지환
라이딩
쫄
림프
외로움
재산세
궁합
~대왕
~cell
사관
~원어치
패했
느닷없이
건넨
도민
마쓰
기고
완충제
쓰러뜨리
산학
~테이
~사간
##쾌
블랙리스트
오인
물색
자백
net
그게
~가동
일탈
~~면은
##이란
항아리
수식
nt
요렇
올리브
up
~~읍니다
변비
비즈
창원시
a4
최고수
참신
~여고
학년
스타킹
김부겸
##보증
손해배상
h2o
고급화
천진
스탈린
엇갈린
~gu
얽혀
유실
~여론
직감
1x
메틸렌
선불
실마리
캬
##언스
진척
부축
부담감
환매
한마리
체조
익산
범프
냄비
이이
다목적
하루하루
거주지
한스
시민사회
형수
그만이
##렇
dp
이즈
##공학
오수
레이드
유망주
~리에
~들어
심기
스턴
~덮개
부탁드려
정인
세종시
관통홀
전방위
~정국
고국
거침없이
##들에
일병
시현
문맥
~bio
오랜만
승차
물어
~타르
저수
아득
북적
벨소리
수의
뛸
전도체
##절차
인신
세세
~바이오
~kaist
흔들렸
매점
발라드
##삿
##리티
연립
##ㅇ
~주사
~전대
유혈
~ki
~abs
연어
~꺼
겁나
태반
520
비무장
댐퍼
잇따른
##ep
스콧
살살
스카우트
~동화
김문수
~응답
실렸
암석
매너
##워크
페이징
~의혹
~밀도
##지사
##r1
핵실험
~ia
동족
인스턴스
무예
~규소
케인
~킬
철판
장본인
~형사
~구인
비아
스코
수상작
척도
기부금
전업
배구
카터
~채용
혼성
유골
맨날
한여름
골반
도통
호이안
생김새
윤활
~suv
수뇌부
눈초리
치하
접대
~디스플레이
코앞
취임식
스톱
본드
##hing
~59
~부착
교환기
~곡선
들릴
니코
유역
못된
좋아할
아직까지는
~에서의
~~간다
~~애
~라면
논하
경미
~병기
~~어줘
로브
부지런히
ev
작용기
임종
영사
커트
##퉁
대통령직
##댈
끊어지
~인기
##魔
~기상
##ary
금융계
성가
빠져나오
가짐
~심의
도하
평정
앞바다
트립
요트
370
##가리
~ve
~업과
Ⅰ
돌고래
서유럽
##뇽
##렙
~듯
등반
에세이
~휘
##위기
~some
태운
편곡
효자
~재무상태
들려준
~ran
##빼
이용가능
##han
백두
야스
넘어설
##ron
라니안
냥
~~따
카디
달력
음악가
강추
~마이신
~business
알레
성토
##쟈
스톰
수광
잃어버리
영국인
상각후
몸속
바오
건축가
출자전환
슬레
안식
##제약
##주의자
판결문
참담
검진
~64
대군
뽐내
확실시
워킹
~면역
옅
늘어
하수인
~클래스
##숍
기념관
어뢰
~추진위원회
재학생
심혈
##네트
테러리스트
청계
진흙
비화
날씬
강대국
간소화
420
~방어체계
인큐베이션
##gu
~부상
드러
곁들여
등록금
감수성
~특보
회원사
접착성
웨이트
##잭
ie
비스타
기관총
청문
사투리
환입하여
~크레
분과
~show
걍
벼랑
수당
~보증계약
장학
아앙
~기여
건네주
bb
##곱
연주회
~초간
##켰
##zo
동산
메츠
채웠
록킹
~동계
즈
잔해
상측에
~포의
매춘
형편없
좋아
~밀리
~cat
계열회사
수사관
뱃속
pdp
결전
##100
쉽사리
출입문
출세
Å
재외
무주
##풀이
on
로라
##처분
토사
~bm
2tv
헬리콥터
멘트
불리우
내민
순종
~버려
인스턴트
나루
연한
新
007
고밀도
~소개
##변화
##갈색
205
삼양
찬란
매혹
카이로
지방세
단발
~꼬
##깡
카츠
중전
~텔
목덜미
숨소리
~also
~mat
##싸움
전해주
삼성전자
물밑
고기압
흐뭇
~누계
피렌체
보호자
##끗
관내
~윤회
당수
버스트
iso
##팜
~토의
~소환
현지인
~바로
쳐들
난사
~정산
말소
팟
연질
##마이
##au
외무부
당진
##스코
국민당
~sch
##모스
본지
별거
나뭇잎
~수량
조현
~빙
~만장
~냄새
독재자
구토
~시효
싸이월드
~자키
연기력
##per
~coo
~콕
묵직
모여들
~천기
손끝
흔드
대명
##dm
승소
##버려
뻘
한걸음
이건희
머니
맡겼
금융회사
~인지도
##크스
##tm
##코프
~어치
간파
태스크
런칭
솔더
전학
~에이블
~투성이
~~주지
##ert
~분위기
~od
~nu
일개
~hplc
~art
~도중
가랑이
월평균
난처
enb
앞세운
조인
안정환
##지구
다행히도
시녀
목장
##대출
파티션
입건
칩셋
돋보인
버지니아
~지축
##꿈
누른
~부동
이스라엘군
댁
고전압
~공대
훔친
산모
감돌
##댕
김진표
하동
애틀랜타
반사율
~벨
일신
##브로
드나들
~커피
pv
##다보니
위인
생활비
아껴
표류
440
##바다
강재
##렉스
~알콕시
영양소
관련주
##모르
부부장
##ks
퉁
포유류
미혼
cdma
tr
##af
알킬렌
~nba
매니
보신
안됩
##행정
봄날
타진
##어리
대장금
휴양지
따돌리
~~졌던
담양
wt
패터닝
결사
포대
검색어
가리켰
웅진
##로우
질질
~pv
튀어나오
~올라이트
팬덤
파스
황실
경상도
##작용
ui
지급보증
무효화
김호
##ae
만물
떠올라
까먹
음색
복숭아
낙후
s3
자부
코칭
해일
연방준비
~south
##陽
자크
선의
##킨스
##이었다
헤어진
사용료
교외
~감액
않을
따온
학생회
평균값
cctv
힘없이
올바르
보다
포지티브
~파생
~~라구요
디저트
~연금법
~보호법
턱없이
~타이
호세
생화학
산호
~물산
해로
삼십
날마다
정확성
서귀포
~입찰
혈통
~들어가
##삽
김혜
~엘
자갈
의리
~~소이다
우선권
~유체
##극장
뷰티
~수산
~~놓았
창녀
중생
순결
부서지
##드로
여객선
홉
##샷
쓰일
겸용
약간은
~강판
sg
##뉴스
~친
물어보
##보니
홍대
닷새
##ob
갈증
~멘
칵테일
요코
놨
~화성
~company
계룡
차출
권영
보살
~피로
선우
김동철
1953
우즈베키스탄
~불능
테크놀로지
창업자
국제법
~etri
##마루
원활히
척결
서태지
~누나
개도국
~뷰
##보스
매스
회사정리
활용도
밀라노
~구제
무전
열세
여명
~dp
##생명
장정
판재
스태
응원단
골판지
~감각
~ru
서울지방
##king
##륭
##풋
##民
c8
숱한
카보네이트
벅스
##닐기
플롯
드래그
낙마
bmw
번역좀
두피
낮춘
~초등
엷
##어진
~90
~국방
1919
착신
~권한
##za
정열
긴축
##줍
##yc
##철도
폴리우레탄
원자가
팍
차동
사춘기
국제유가
부들부들
합의안
아릴기
~전하
##선생
##정보통신
부려
물줄기
더할
씌워
낙하산
지저분
##공연
~사슬
파운드
##우리
~탁
헤쳐
영작
~스왑
시리
~usa
발표회
~관세
##부틸
~now
##부대
##베르크
서안
생수
##벌레
안타까움
판넬
맥도날드
남양주
실무자
~능
휘둘렀
##쑥
접경
~frb
20m
잇몸
영재
~~왔지
용돈
굵직
합계액
자책
불발
~배기
축축
~배열
양평
비밀리
~오빠
김한
여고생
비축
꼴찌
##아트
훌
협력사
서거
~집중
소재지
인덕터
스트라
몰수
씬
6b
~유적
괴롭
저압
~~구만
h1
라이센스
~써
##王
석영
소나기
김진태
540
터무니없
비법
우이
의병
어시스트
##rpm
##학생
안정감
갈매기
전생
운임
서지
~dmf
테라스
데이비스
누수
노회찬
멜로
~bp
달인
##ew
려
##흉
철새
대마
통칭
차린
~회수
~부세
시찰
~~올
구태
~~아버리
왕따
동위
김정남
뿌린
자락
~기술원
##ak
서영
##대전
받아들
엄연히
민첩
##집단
샤를
금산
두차례
~opec
##것이
공무
프로게이머
어스
스탠더드
조도
~최
~~부턴
스테이터
비롯되
v2
어류
~프레
~셋
히로시
맞선
막아
안부
~회말
1956
~앰블
~리얼
~간접
~jp
내무
수첩
도도
기념일
비문
베컴
잊어버리
몬테
~주도
페널티
~회동
~모함
단결정
~밤
타이틀곡
함침
~president
못합
##봇
함장
다가올
빌어먹
유통망
모을
차남
~객
~기념물
##브레
편리성
~충격
다이어그램
##었어
루피
보임
등산로
~신학
car
사부님
미지급
~~는데다가
샤이
농작물
##海
디테일
##eg
본편
~af
앙코르
에반
구조조정
피지
제독
부끄러움
금성
~~친
불명
대명사
오름
머리칼
##行
~택시
##현장
~선거법
##오프
아조
미착
직행
씨름
~~상
중고차
선진화
~여객
~경화성
가성
추진력
장만
왓
심장병
툭툭
경정
~중개
무궁
~vod
흘러들
부인과
망라
~pac
동갑
가릴
~하르트
k2
시가지
결정성
##사이클
불거지
1954
매끄러
~자연
~~이나마
메틸기
tm
휨
히로시마
~~으로선
~ver
쌍방
011
카프
집약
~모집
~him
말미암
여주
약액
##기지
신명
~con
김근태
##젝
싫어한
마운트
천도
~호흡기
##마르
저부
훗
라틴
개업
##룻
준결승
영상물
섭씨
테란
경의
~테라
##이크
갈망
매끄럽
~장기
오십
플립
섬광
미로
##지오
기술인
~비서
1910
가부
~~어다
오세
근대화
잠든
벌렸
배출량
현대모비스
재무부
고증
체첸
끼쳤
국가주석
~돼
붉히
~확장
축출
국가대표팀
생성기
문책
인사동
꼼짝
음의
폴리스티렌
s4
~환은
올리고뉴클레오티드
오라
짖
해머
이따금
##공장
앵글
##義
끝없
식물성
코코
바비
상어
##위해
##거려
월등히
시그널
~~원
수감자
~party
진나라
들키
##녔
순정
##라이트
대일
##테이션
~epa
~여진
평민
~살인
편히
##뚝
~악화
~금형
hc
원산지
할애
상경
뿜어내
춘향
입혀
흡기
~파이트
~수요가
브라이언
국교
이인제
블러드
타파
~xp
지금이라도
용리
##부리
수전
~패션
~취소
~그림
제후
앤디
껴
~소년
~char
##재단
과소
강서
하층
대강
합해
오피
##가르
프레이
삼중
동선
친밀
석상
아키라
~고도
편집자
무너뜨리
~노스
~태평양
액츄에이터
랠리
화살표
경청
할말
걸어오
회의장
정가
스노우
저면에
삼겹살
~강사
남동생
카타
총상금
입김
고단
호통
~드림
##ox
옮겨가
~them
도배
~소보
~kd
~에르
압승
나일론
~여종
체구
라미네이트
##이면
뱀파이어
동국대
~사면
파노라마
디폴트
네모
방역
~캠퍼스
~hr
530
대관령
1958
주심
데일리
지나쳐
벌린
로열
~실리콘
상동
##ner
~gc
극찬
##툰
투과성
##들었
미관
알렉산더
식약청
내야
월스트리트
건전성
을지
g1
전쟁터
모스
나이키
~성당
후우
~뮤직
세관
군복
뒤쫓
리프
비꼬
무례
회원권
최단
도사
~문명
~래
편파
특이성
한기
삽입홈
~수위
##괄
##들의
이학
로맨스
초미
젤리
공전
~hsdpa
~harq
~tc
꾹
오타
적나라
동체
용산구
발작
##툼
한낮
~~라는데
플로팅
코코넛
태스크포스
케이지
마도
어닐링
쇄도
##로프
##bp
테르
##花
곰팡이
~공조
~아침
판권
시시
비겁
~ste
~ae
~심장
인플레
무영
못마땅
##소비
면세점
민수
법사
##어스
이륙
208
무슬림
mir
~특례
~~겐
수록곡
~공고
##재판
레어
피닉스
신기록
##뜰
오명
~900
퓨즈
호투
펠리
~um
cdr
~수비
~보인
~보육
~dcm
~함수
~bb
~리튬
##스런
가오
바바
개명
수양
차용
파탄
~쇼핑
##뷔
허점
그밖
일대일
오세훈
깊숙
한국말
청도
##규제
~~다기
신이
도가니
서강대
~여당
미국산
기동성
건재
~위험관리
양지
방사상
고스트
디하이드
필립스
~~왔고
신디
~~노라
dt
브라운관
눌려
괴리
##的
남양
##찼
작위
연약
mol
##퐁
은신
멈출
~fu
적임자
시초
창밖
직구
균질
~~았다
자서전
굽힘
~닐
자구
~와이
가명
~처벌
트래
햅틱
~클로로
~듯이
치욕
디올
##껄
~접근
~골프장
번들
후예
사체
철도청
##어요
##fr
~~어나
면하
마일
트래킹
꼬치
레인콤
운전석
심근
변형예
한상
~아가
~aa
인돌
~협회장
십상
정현
근무제
이반
조부
~pri
다각화
황보
굴착
~인민공화국
##드립
##교사
플렉시블
위아래
펜스
시라크
~any
조찬
엘지
보여줘
버금가
발톱
##자치
~살이
대용
수료
~정보보호
내경
뤼
~~느라고
##키아
구룡
프로젝터
~~로서도
~스쿨
##놔
사교
~삽입
드러날
금리인상
저출산
실효
~상한
퀵
자태
기약
배설
~냉
460
토미
~멤버
~러스
갑작스러
완벽히
효모
별세
국회의원
##하는
환한
해보
csi
끈적
~어린
~머신
충원
##봉사
굿모닝
~down
석권
##엣
고교생
갈아
~long
##윙
예열
##무기
1947
##느러미
피드
구주
건조기
~증진
igg
##맙
고를
fl
표피
이왕
~샤
반포
해프닝
황후
高
1700
편중
병실
크랙
~이동성
총동원
윤활제
동독
폭동
사망률
운동화
~under
##분석
백년
트레이스
화보
철군
제주시
샵
~흥
킴
저수지
망언
개별법
~유가
심히
이헌재
##아미드
백미
~콜라
출연자
##필드
~관리자
불의
루나
각막
~자성
1952
셀룰러
세미
댕
##운드
##劍
시우
~자극
화천
씩씩
김연
내몰
~may
보편화
~성차
관로
되돌아가
if
전광판
레그
발돋움
~변형
etoac
##로서
문어
~버스터
책임론
~아동
~pmp
조광
불쾌감
미쓰
~루오
~테이블
장관급
원사
노멀
~국수
호기
~수석실
하버드대
논설
##갯
##城
조급
브레이
링컨
전범
에톡시
~~겠지요
형벌
~공작
##tu
관저
~보증금
밤하늘
오스만
유심히
랭
##시킨
닫힌
특전
엑셀
##깍
반주
골절
교구
~선생님
##yl
끼칠
마다
왕세자
~crm
~컬
넉
막혔
gr
통전
남발
케냐
##보면
gl
ifrs
우기
특수관계인
신예
메밀
~각도
##치기
~~까지로
들이대
##nc
패한
##슘
육신
1955
튼
커플러
~코치
~나사
파괴력
우두머리
무장단체
##상승
상품화
여길
이선
640
3c
우표
비참
납작
저작물
연기금
션
들인
td
##반응
##연도
엔젤
~53
우르
터득
~도장
목조
메세지
일순
내준
성수
##아리
##머스
아악
##엑
세뇌
관전
예치
한영
~충전
~미만
바이트
운치
독일인
~체부
~마르
하연
강압
내신
##經
##다고
~~랍
테오
울진
외래
iv
방송인
궁궐
악물
~~지기
##공무원
노태우
~정한
~반사
~미국
cg
~~서부
되물
##알킬
종신
~캐리어
풀렸
국유
지영
유격수
객석
iptv
##龍
선대
여행기
망각
김희선
궁지
##로니
어린이집
고승
~주연
아치
~러닝
~친화
지바
유기체
##led
냉방
ㅁ
맨홀
##대학교
에디션
~대책위원회
~실력
소비량
~동부
~왕국
~마차
본의
간지
박희
##시오
탁구
이바지
뛰쳐나
~육성
난폭
서머
오르내리
퇴각
욕하
전원공급
글로
##a1
##事
프랑
허약
당량
410
취출
##벤조
빡빡
##민족
목표물
가라
##차이
피신
영수
##타자
뾰족한
##글로
자판기
박주선
##곡동
카사
지훈
남원
fm
##총회
통통
##ght
~동형
김규
~통치
서독
##마디
라틴어
~대륙
설날
법한
적시타
안락
~people
식생
상원의원
플랫
청량
방화벽
박인
##시길
~98
~71
결핵
~par
쉴드
회계감사
지켜볼
조임
흠집
최재
주정
엑스트라
조립식
유닉스
##클레
정보보호
속삭였
사무처
뻔뻔
우동
성곽
d2
소시
카미
~노력
파트너십
이스트
승산
bm
~가시
원색
##누리
~skt
평했
마십
마교
560
여러개
합리화
##껴
접촉면
##꿔
폭염
동공
~담당자
##원장
브로드웨이
부산항
채울
정신력
단상
차단기
위시
~민속
##졌다
내딛
갖출
일사
나리
베니스
~노래
몬트리올
##pr
두각
때론
이우
발제
##됐
처리방법
기본권
~~되는
현란
블리자드
못먹
몸담
##ang
양도자
나아지
~아카데미
폭격기
결정질
천리
무라
물러
마이크로미터
~생성
오메가
호퍼
~계통
요리사
부연
~ib
천자
인간화
자유자재
주문형
흐릿
일한
재배치
~웨
부티
~~십니까
충무
잠기
비수기
디지
##테인
##지기
선보
~검진
코스피
착색제
무비
당황해
릴리
~강국
~소계
~air
월마트
밧줄
마닐라
꿀꺽
~상공인
~규격
##und
~기조
1959
맡길
가운
지나갈
완구
한단계
~월간
보령
주무르
##we
##들로서
~방울
쏠쏠
항변
향토
도용
~이소시아네이트
~원소
환희
광저우
~컴
복소
스티
~into
##탓
##올리
목구멍
펌웨어
모를
찾아낸
육봉
하악
~소송법
~어스
운동권
거둬
333
~comp
잠복
첼로
##노조
##bu
태어날
시립
항로
자전
블랙홀
자이언츠
블렌드
~해달
~큰술
요도
바래
관성
경호원
##퀄
응축기
투하
##f2
노면
기단
~군수
단행본
억새
탄환
시로
동축
~세법
질감
실어
사용권
##블리
~모바일
지울
피에
마킹
~투입
~못
##회장
착물
va
울트
시호
손녀
~들인
제10
~초과
일식
토익
~주주인
~회선
원안
무표정
~바퀴
매뉴얼
땅볼
대강당
현대아산
##스티
무난히
호핑
예사
~프라
실용화
마일리
~주권
퇴원
이와
제9
이미다
~소기
~nh
하여간
방호
~코스트
~방사
자아내
으뜸
~글리
~지배력
##엿
뚫린
~lp
nmr
패스트푸드
오거
완제품
밀러
~cg
지사장
전등
밥상
레비
조동
처우
봇
방송법
##통일
##부족
##스탄
ns
울산시
~~으셨
Ⅲ
##더라
서신
~제어장치
~ann
촉진제
숨쉬
~다중
##수소
분홍색
스케이트
마중
외도
~real
##쁠
~~만큼의
콕
쳐들어
접착력
수족관
갇힌
개연성
식용
장터
정략
~가미
케어
에메랄드
~작동
청중
부딪혀
~계산
~~소서
영화사
일찍부터
선량
레이건
~asia
~병력
정수기
##者
스리랑카
플래쉬
광역시
최진
##지수
사우나
~open
##쁘
하한가
털어놨
~착오
테크노
~선교
206
~필기
오사마
~런
~연령
콘돔
고점
##이익
~제과
이용료
~지하철
투자비
~드라이브
들어올리
~받침
##쿄
가져간
시사회
고베
~sh
올라타
었다
암울
떨구
꺼려
~심인
~번은
꼼꼼하
낭독
~jr
치사
~전반
##島
간헐
##로이
패리티
제약사
북서쪽
현석
~thaad
~촉매
시편
f2
찍혀
핸
초인
~인쇄
~롤
전기장
하여튼
장모
없어
##rl
뵈
이안
험한
~부대비용
박준
~유세
##뤼
~기압
빠뜨
쉼터
웹툰
스포
저점
안간힘
##넛
기다
~주변
내시경
하나둘
사조
남대문
궐
카르복시
학급
~99
괴상
갈림길
용모
~빌
신자유주의
메이드
~data
노파
말레이
패자
석고
열원
하영
도망쳐
##꼬리
타설
종영
~~다간
~오피스
##rk
취항
스며
운전사
~66
##만큼
##리조트
개인정보
~한편
~불량
헌혈
직쇄
되돌리
토우
~trans
##윗
지낼
결합홈
정품
2n
사극
~코프
~구리
샴푸
##東
구내
~~어대
코리안
한치
~~다던가
굳건
e1
팔짱
##보드
제너럴
##ug
영화계
플레이스테이션
왕가
초저
서두
##핸
면회
~구단
제인
유사시
~home
~토크
~say
##슐
묘역
~res
분권
##이자
코멘트
##벼
~패시턴스
침지
~중소
종아리
소고기
~63
조계종
니코틴
수화물
매니지먼트
~중앙통신
끼얹
~빈
~경적
수혈
마포구
코우
달아
스트로크
~베르
~강좌
액적
포석
출원인
인계
명중률
거닐
~푸란
~떨
풍토
연필
둠
우레
약초
담론
거주자
~기업투자
~~들은
##바퀴
공여
580
야구장
조명등
재판장
~기부
##캉
트레일러
극본
숨진
~비자
메리트
도형
~근로자
질리
접해
~ins
수개
##2o
수신자
~펄스
~대대
아랫배
##캔
바구니
~베리
~set
cd8
##ling
~직인
최병렬
전율
~불가능
정치학
##화될
월세
난징
단선
트로피
세일즈
~축산
##ja
고착
스크리닝
퍼팅
천안함
엔터
##도록
때렸
##퓨
돌아선
~전산
~들일
~높이
풍미
말초
n1
팔루자
알파벳
혈전
퍼진
대서양
~고등
닫히
후대
미끄러
##ita
판세
트램
브랜
~조예
~rrc
보빈
연유
되어
고원
~묘
동아닷컴
잔소리
은빛
계조
~단속
##받이
디옥산
~과세
510
판매비
오클랜드
##동안
고령화
강박
윤기
몽땅
~오프
은메달
~어지
~봅
##괘
양도세
위암
납세
거머쥐
~take
면책
스위트
말아
~~아오
플럭스
주성
사비
망원경
도데
매달린
~인용
##발표
~맛
##슬리
치명타
##딴
밤늦
코피
방중
##페이
노고
##투쟁
서성
맏
##라는
실속
##야한
몰아내
무릅쓰
~ieee
천수
윌리엄스
어땠
##코드
촉수
~~라지
사대
~하드
cm2
~ye
##야한다
국조
~know
노벨상
원문
수원시
we
체스
hi
~경정
뷔페
방지제
감가상각비
~신화
~84
~tg
장자
명암
##솜
~nr
바이알
~지하
페로
성역
문정
##빌딩
오더
골재
반려
##ian
송파
빨갛
넘겨받
리베이트
어긋난
생가
##테일
아레
브롬
롯
1g
레이아웃
##gen
속여
안기
강가
##이도
농심
##씀
낭패
~접합
##랑이
민병
~get
##올라
##ws
주택가
법대
~녀
설악산
저게
여자애
꼼수
깃털
~찌개
##기기
마이크로프로세서
##퍽
원대
만행
검사장
머뭇거리
##멍
스풀
블라우스
##코트
펑크
~출시
갈대
~vo
레지
~성예
~도금
~~왔는
##ker
동학
흐음
수사권
코믹스
구직자
~위권
##리덴
##방울
어쨌거나
##으니
달아오르
~속보
~~와서
##브라
결산기
점토
시국
복선
배위
##뜬
학창
캐스터
쯔
##콰
불멸
테스
~bank
보라
인증서
ja
대졸
냉수
챕터
산문
##니즘
더했
~make
후려
일단락
무장세력
약칭
섣불리
공권력
##짤
소극장
결부
원외
불임
앞면
디트로이트
나프
우편물
회전수
혼혈
##手
숟가락
뒹굴
~자세
정숙
인스
산업계
관형
단말장치
교시
연임
~network
유승
낙타
먹히
남동
~tk
항산
토머스
무얼
꽁꽁
##ini
경계선
신생아
카인
재봉
물러섰
조심스레
요즈음
마니
고공
##니다
활주로
~단원
##전쟁
극명
천성
멸치
대관
rpm
##書
~맥주
레티
~바이트
도공
##치료
마피아
지크
~포가
오르가즘
~~만인
역삼동
~~아놓
##영화제
블라인드
변종
~shi
달아났
워커
회기
쎄
1957
~활용
코덱
~rh
쾅
~기식
##데실
소중히
강수량
~스판
음경
마르크스
막아주
~지시
보수층
무지막지
신곡
블라
닛
~청과
~복권
시어
ps2
울프
추계
놓친
##ax
~장판
ak
~bea
##회관
끓이
투척
~와이어
관공서
~해냈
기탁
참고인
~~고나서
武
날아간
솔라
창의력
생리학
생각났
~68
##eri
##횡
##que
~구입
학점
정력
~~해보이
귓가
~조합원
~분말
트림
갈비
미륵
미노
긋
실루엣
지중
영조
애니콜
호치민
제때
##500
~지리
##순이
카렌
~장교
괴한
##로이드
~fab
외친
예비군
대추
~킬로
울창
바울
나날
악보
산골
잼
빤히
리세스
프로토
착취
소련군
설전
~~왔습
녹이
자일
모란
~공예
헬리
헤헤
봉건
~이스
세라
희수
음미
전문직
소심
~호르몬
~~시겠
거룩
질린
닥쳐
글쎄요
211
390
##댓
##송이
##단부
~just
~~로까지
로빈
고창
##林
호우
테마파크
강정
오시
트렁크
놓칠
wo
~~스
~맥스
##레인
~유기
pg
~사찰
##수사
배석
들였
정돈
~화할
~재난
샐
~개년
로스쿨
혈중
피롤
뺐
##아파트
##디엔
못미치
호크
염증성
직계
무궁화
볼일
##ny
인영
윤정
반신
데이몬
곤두세우
판도
~hcl
플루토늄
신호등
닛산
자카르타
괴이
ib
석양
~스핀
접합부
상성
명장
까마귀
독신
##쿠라
⑥
황소
이따
노련
딱지
아플
절첩
테일러
클레이
염의
301
공범
요염
오른팔
학습자
방정식
하면에
~횟수
선주
~이탈
두손
마카
희곡
냅
~전단
##팁
##찜
##이미다졸
책임져
##들을
##ster
발랄
~only
부스터
##zi
~공약
~pan
1914
반공
전면전
자물쇠
~cctv
재정비
신현
바랄
니트로
~페스티벌
##카스
출가
~송이
~~어줬
밀수
장흥
~uefa
##규정
~평등
~상품권
로킹
2030
대시
허기
모유
고충
엄숙
아드
초가
플루오
남조선
글리세롤
박쥐
스트레칭
기내
~상정
~ee
##교수
스타디움
##代
제멋대로
~부리
축조
현대사
터트리
승복
##암동
사본
계몽
손수건
가주
학장
선수권
~결혼
~sci
지선
##텅
##왓
던질
##흡
마르코
주창
그닥
부러지
~잠
역외
낮잠
하반신
스파이크
가고
시어머니
##쉐
갈아타
np
이래저래
660
순례
미래에셋
~nat
~han
바라봤
~역인
~불교
교반하면서
율법
맹주
최병
398
세계인
##채권
부타디엔
~중국
##교육청
인식하
규율
즉흥
~형제
~면제
~fd
8a
톡톡
중이
마이크로폰
마이크로파
~났
시네마
하고
연면적
리모콘
~asp
##호스
달릴
~~부터가
저물
관대
~display
시들
rc
##토르
~표현
3gpp
아니할
mu
4c
불능
외력
##해지
최전방
헤치
쌈
구인
경쟁업체
##비용
호두
조처
희소
대형주
튜너
베란다
국력
석회
챠
~파병
대파
트로
잠잠
내줬
~사퇴
~장식
~~듯한
##lla
거스
~균일
##pd
포토존
~해드
구조화
협곡
에너지원
##뱅이
##ev
렉스
1944
스폿
고열
##미스
##正
##fo
소문난
##신호
~구들
이북
메르세데스
~too
힐튼
후원회
세이프
서울지검
망토
국고채
~스피
~이벤트
~독재
뒤흔들
백마
##욤
펭귄
스카이라이프
수석대표
한타
펠릿
병영
서예
노조원
춘추
겉보기
~nd
##타로
당명
나위
훤히
정윤
수백만
추종자
김세
wto
습지
클랜
~화형
ng
수니파
발사체
##eo
항공편
리모컨
기일
급제
##기사
최측근
변색
교차로
~마의
~76
배척
##되지
~설립
안대희
~eg
당첨금
결계
르노삼성
다음해
붕소
변장
~사냥
장갑차
병풍
권했
애착
~사형
울림
~~다라
~hand
임산부
선미
파묻
재적
괴로움
한국ibm
타원
~cons
나인
건져
다케
~eb
##구멍
##메이션
어드
수차
붐비
~리브
중대형
아이고
벨라
몸싸움
한경
~이프
크리스토퍼
별자리
~해낸
방언
~기소
해바라기
해물
둘러본
~한대
##걸이
야단
적정성
~강점기
~ch
~온도
업주
싱가폴
~부정
##있고
참된
관리비
~ks
힘써
~클레
~정류장
바크
af
분지형
~종양
등교
논산
~산화물
pu
~후보자
~페이
~답
휴양
데몬
앰프
챌린지
초소형
밝기
끝낼
뚜
##ons
트레이너
가르쳤
반역
##걸음
찾아다니
~디스
확성기
주군
~lpga
lte
식수
nf
~철봉
~가고
항공권
매니아
~문학상
~상대
##줄기
정박
소나타
장기투자
외계
~성화
성황
##내기
힘드
눈살
김성수
~하이드
##相
~눈
선영
##쿵
##bs
pcr
찌꺼기
안기부
~japan
그자
그랜트
틸
명료
필승
금주
물끄러미
~낚시
##관광
~세상
~논리
알려져
모독
~개발사업
##기금
##ition
반딧불
폴리아
최면
출두
##ving
컨셉트
우승팀
~재배
사용법
~어하
##신경
발신자
혹평
가습기
후보군
빽빽
여러차례
실용신안
유재
시바
~amp
전만
타지
~익
저력
연결관
~cnn
명하
~장성
의존성
기억력
~글리세
~~에서조차
##cha
성행
~그라
보내기
##슈타인
즐
에비
스케일링
신중히
##녁
호도
풍습
##많
하청
~67
인내심
음탕
하소연
~인분
##pm
아우디
누계
##두리
타고
불식
~계약서
##수익
보험계
반열
짝사랑
~이송
히트곡
일정량
수정안
##멈
장작
~연가
딜링
~bra
##직원
팔찌
벽지
##네이
중저
hplc
교황청
즉사
~개조
##군요
흐흐흐
외전
한컴
~star
찌푸렸
자기네
피팅
감원
~~만하
오늘밤
~커뮤니케이션
~news
470
교직원
~해안
~변호사
~결의안
식생활
제이슨
~~아야만
흥정
~예측
~포기
떨렸
v1
두목
노컷
~중계
우루과이
모빌
획일
뒤진
b2b
##에틸
청동
##오일
김제
에스터
변함없
험난
신시
아디
화자
탑승자
레이크
골렘
야유
바빴
독고
걸어나
~입시
~rom
펀더멘털
양측면
~최대
샬
~ei
좋을
설파
小
층들
##재산
럭셔리
근력
견학
정청래
고해상
~~다던
er
각색
212
~ram
##dn
알뜰
약수
~히트
재무구조
리버풀
~가보
##ser
태산
전자랜드
##길이
횡포
감춰
~~겠나
~how
227
유창
놓쳐
매료
배드
다졌
수아
~큐
차근차근
내분
특수성
정통성
##사진
안했
동그랗
가르친
~발전기
총칭
~코너
~센
vc
ack
8m
품격
~이사국
~mer
홍천
노렸
207
박찬
일궈
모나
카르보닐
오리온
협소
깜박
신경질
각별히
루터
##과제
조사위
미란
대소
##협상
유민
~쟁
저놈
실바
풍광
인어
종횡
묵인
템플릿
독사
마수
하루빨리
폐막
속력
강습
빌린
검정색
동래
004
sb
##hr
미국식
~상업
등용
~잔치
영덕
금빛
人
모로코
~~주겠
줄지
networks
즉석에서
오피스
문파
##전시
특별전
쟁
남해안
na2so4
~management
##버트
카시
촬영지
~에탄올
민주주의
~중대
~메틸에테르
~~야죠
~multi
r8
콘센트
~카리
일직선
##배우
꿈틀거리
후단
팬클럽
전자문서
##터스
베니
망간
엽서
에너
참혹
~들입
##이에
~이의
형광등
숏
와이프
~예탁
프로테아
명물
네크
~스팅
~fp
재위
브로커
못함
400m
##가이
ebs
성공률
몰비
뜬금없이
~철강
~연전
~방해
잠긴
석유화학
가압류
cas
~스톱
제약상
off
경량화
北京
##인들
충청도
~실천
con
묻히
~신이
점퍼
김유
제우스
사멸
경멸
~증명서
~와트
치루
社
~공구
##地
하도급
포옹
이너
국지
~너트
##얄
~출연
##리카
청소기
차렸
루크
~쉬
~~었어
진명
으아
기억나
방제
##光
평상
##bps
청사진
디바
섭외
##라면
남방
##헬
트러블
서커스
허영
찰리
미남
##功
~사이즈
對
야릇
격상
~초반
~슬롯
테러범
도와줄
사령탑
헤지
스모
~~공
풍수
클라이
~동네
cy
캡틴
점멸
대림
식염수
수돗물
부름
##콥
발생가능성
뭇
윗부분
자치구
이동국
몰살
해동
와이퍼
~스크
사이토
간만
~74
탄저
코폴리머
딜레이
발끝
망신
말미
북상
후한
침식
##ye
모녀
~충돌
~도청
칭송
책장
~티어
약진
~도상국
연우
##티나
금상
##보라
스레드
~kn
~느
##com
톰슨
##보고서
##xa
해충
기대치
~프로필렌
222
##펙
노부나
한총련
~자이
##r2
올레
알렉
도교
오호
~~놓은
친일파
제창
요런
부츠
연출가
아폴로
soc
##해수욕장
고귀
~예산처
~법사
~~거니
힘내
제갈량
메소
소속팀
밀착성
~hc
##주인
~은행장
비인
매끈
~상제
복식
선한
~좌석
단시간
펼쳐질
~손해
가느다란
생강
hr
인코딩된
~종업원
~dec
굴뚝
~~갈
수모
~지선
벤즈
갑판
재중
스트로
##훼
걔
제니
저면
~주주총회
알아차리
지름길
진가
예우
흐으
잘난
이더넷
완도
##오리
~연계
~src
학설
오미
풀릴
스트레
~block
~kb
표한
괘
cd1
##낀
알키닐
강대
측쇄
팔뚝
시게
부적합
관음
시식
ㅜㅜ
##조각
이재용
~문장
합의문
갈수
서초동
놓쳤
끌어올렸
~부면
일과
로터리
~접종
##페라
평준화
무학
원뿔
##ona
돌아다녔
뿌리치
264
##유리
~망의
rfid
아메
교두보
가맹
~수집
##mon
제정신
~~어질
편집장
소사
그네
직종
오마
~관절
255
비소
청렴
비가
애널
##텍스
미움
##性
~정보국
주몽
융점
애칭
~69
~103
관리인
그레이트
##통합
초입
괴인
상향조정
고농도
~종료
따라다니
그램
결승골
도와
##들도
~물품
~연수원
##年
##ence
대치동
##옌
줄리아
차관급
##윤리
~호환
~지상
귀성
국가안전보장
제19
~rd
콤플렉스
출연진
다름아닌
~위협
##퀘
~복스
부정확
달려온
##아스
맨해튼
##水
갸
다이렉트
강우
라이터
계략
스텔스
마오
리터
멘탈
노바
~프린트
~증가율
포유
페이즈
헤딩
유사성
무너뜨
코엘류
블로거
~택
봉기
~하루
##버섯
영정
~춘
실권
포터
##dp
##질서
수군
멎
##영역
폄하
셸
고추장
스팟
닷컴
해외시장
과하
~sat
만족감
내국인
~ie
##보도
215
##의장
몰아치
~~대요
~~이든지
##dy
돌봐
진희
제13
~참가
중용
담수
안먹
afp
~보병
opec
##투수
##世
~아저씨
abc
열렬
~max
잡초
##교통
신규사업
m3
날아다니
깨어난
白
~주시
공상
~라보
~관람
##o4
만리
##nn
수유
~조명
플렉서블
스와
~사업연도
배차
문체
가로수
디클로로메탄
##700
소영
시흥
매서
~부스
제3자
~바오
~미코
##피드
한승
~돼지
##주자
##뜨리
마라
조대
겨누
~china
7b
~집약
~멀티미디어
고부
~케어
~태그
췌장
##化
팬츠
충전기
cia
##후보
캔디
뽑힌
~뉴
gi
~로이
평원
절실히
다이얼
刊
깊숙히
탄창
유나
비늘
~best
주리
##뭇
절상
~플렉서
##뭐
정책실장
모식
토리
깃들
경색
~oem
속삭이
##패스
##아지
외산
마술사
컨설턴트
##링크
~82
재협상
충남도
방음
리사
열혈
~그린
공급량
글루코
대진
##안전
##nh
##line
부장관
##퍼드
지도력
~지주회사
##팠
플로리다주
오노
리딩
래트
광복절
##테르
통폐합
~정유
~훈
~pga
~78
나미
앞서가
~~더라고
##딧
궁리
~110
손오공
기저귀
돌려받
##투리
##기반
공과
~계획서
읊
##먹고
한수
친목
쏘나타
e3
메시징
##땀
##놨다
배양물
##통화
아뇨
##올린
국제화
mpeg
사색
명기
~pn
에어로
아랍에미리트
~호수
이권
동메달
법조계
창의성
bgm
~uf
배영
화신
레닌
양강
235
##ore
페트
개칭
~시행
##듣
##펜틸
~셔
~science
사들이
##란드
혼련
협주곡
비석
김도
cns
##이지
조각상
적분
정사각형
수압
불이행
~하지만
모하메드
##기록
귤
잠겼
겸한
~방전
##2c
인천국제공항
이주영
신보
공압
~복실레이트
~73
##러지
팬텀
~hy
양립
타점
명제
노브
frb
##主
반민
빠져나간
쳇
빈혈
아직까지도
인입
부가세
흩어지
뒤틀
바가지
도르
~균형발전
국제사회
##작가
맨발
할증
기복
티어
괴수
후후후
리우
불태우
박모
경작
다뤘
에디
블러
~용매
~~겠네
생성한
~~니라
mk
저곳
토막
시황
노비
유명인
흡수제
~~줘서
삼켰
##번째
회유
두드러졌
##쭈
##벗
상큼
~검법
광부
~포르
~엘리베이터
~관리법
1941
붕어
플레이스
~서열
조력
~ns
사이클로알킬
답해
장보
밀크
닳
아리아
금융비용
~브리
~굴
##빌리
~~더라구
##티노
공동선
~우드
아타
신빙성
7m
히말라야
홈부
믿기
알부민
슬그머니
##센트
캐치
~파업
~lea
에스파냐
피칭
주술
~백신
어택
선택권
가기
~~에서처럼
~way
바이에른
리보
~염기
uv
자율성
폴리에테르
소대
##wn
~소모
역전승
##고속
vh
수출액
방불
~xx
영남권
모터쇼
베네
온건
~여사
안한
빠짐없이
~사막
~img
알제리
~다음
빨랐
우리당
스즈
김효
##쵸
##그램
다면
널려
~체내
타국
##술폰산
하이트
~폴리머
미경
망설
봉황
먹어
짤막
내피
용해도
~인터내셔널
일문일답
비어
한국계
제각각
부력
절취
맞이
콜로
전교
생각난
배트맨
난해
땅값
건국대
강탈
디옥
쩌
양동
지양
방주
수필
미동
쏟아
oh
삼켜
간선
~scr
쿠르
##시드
빈부
나프탈렌
금물
설페이트
경비원
기정
~보통주
아데노
알차
수산화나트륨
~관왕
~seoul
~har
도전장
vp
주식형
~call
순응
대리석
기와
##av
유명세
히라
범람
이토
라텍스
덮어
결재
회식
맞이했
이재오
금기
##와서
~액션
복안
카운티
산술
도선
정취
사진전
사르코지
##섹
tra
중수부
이펙트
##오르
비스듬히
말년
~97
콩나물
제단
東
피츠버그
유리판
들르
##州
닐
~로그
~ny
메뉴판
##워드
~시립
~지게
승선
선선
##kb
퐁
파라다이스
책무
~우선
##일보
~니트릴
~차선
##nb
불가사의
##600
비틀거리
~쓰레기
##뎀
~논
##밸리
gd
##멧
허준
어울릴
프런트
찾아냈
자중
고프
~봉사자
낮기온
~연방
떡볶이
~전망대
겟
소탕
~kbo
나란
~세액
~our
헵
냉랭
익스프레스
강기
~인산
한미일
문질러
~mor
사바
레시피
살아
등불
험악
초밥
신데렐라
사무관
부추
급등세
##합니
충청북도
관리부
마계
어수선
서슴
앞당기
본거지
각급
병태
기념사
~박자
~기중
~ya
##bit
무스
마가
난립
##행동
나가사키
김순
수십년
~투과
서클
기획사
겨드랑이
데이터베이스
##기스
오보
대적
노년
~실무
정치개혁
##바닥
한국산
넥
성체
사병
주승용
실리카겔
~law
하비
~fra
친인척
~레이션
##프스
관세청
저변
##있어
백지화
~힐
해먹
서사
##부장
기마
성패
##등록
남길
슬래브
매니폴드
기치
꺾이
성희롱
gps
정치가
쉬프트
하측에
어루만지
흉악
제리
~역시
~product
홈플러스
~학계
민요
~회로
입힐
유카
군함
광활
~dt
##gr
~카보네이트
~의자
##den
소프라노
~~다고요
~line
##대원
##함으
##보장
밤낮
직시
젓
##관련
소버린
부숴
현무
보루
##ym
톡
재창
제수
여대생
탱
뒤따르
##투어
플러
닛케이
개전
~acc
세이버
~~야겠다
~징
지나칠
화창
짜증나
숙인
때린
자산재
직사
##ris
~폴
권위주의
##oti
~삼아
~사범
##ern
체액
전동기
피에르
암살자
허덕이
마주쳤
~제안
휩싸였
~꼴
초능력
~참조
195
왕래
~88
어원
친지
점원
김종필
~son
##으신
야한
선배님
~기술인
엔트로피
스토어
~~꺼
엔도
훼
##덱스
##주가
장충
순항
무위
##아가
~살기
손등
##푸스
쫓아가
~가장
~dep
신소재
기괴
~big
포병
~순손실
역행
슈퍼마켓
구자
~인인
불특정
늘어지
꽝
~super
##art
~큐브
~리조트
~골드
~군요
##南
절경
~과의
~도당
파우치
보영
##확대
홀로그램
긴박
~칼
~마디
과부하
대타협
rom
이끌려
하시
남서쪽
##더미
##ky
유니버설
##줬다
고졸
~아리
##마니
측정값
선풍
주실
780
~~으냐
헤즈볼라
임펠러
브이
~65
##less
~당도
카이사르
안됐
##구이
역풍
~뮤지컬
언데드
~빠
~교육과
하방
신봉
강경화
##ise
순전히
~syn
인광
변혁
공급관
삼림
~~으리라고
바흐
~서명
192
소화기
요홈
루리
~ips
~인정
양안
~rc
저성장
루미
##어지
재미없
~황제
950
목사님
~~아져
갠
갈라져
##900
장신구
고취
##ove
네스
하역
트랜잭션
고성장
어림
털썩
~테마
~원전
녹지
미즈메디
##cf
~~음을
쌩
빼어난
~네이
~합동
상피
~아르
vl
~유키
수호자
~inf
~dmz
~blue
볼리비아
발코니
참수
마주친
~아세틸
촬영장
카를로스
쫙
201
신호탄
단면적
보은
해전
리츠
배전
~공법
~well
도련님
~거점
~sim
비표
핵탄두
내림세
~패치
장승
275
~복시
면세
에티오피아
몸살
~이번
호리
의원님
로션
##답게
오리피스
스티어링
워너
현충
중급
석재
~향기
~국립
~기차
죄악
~마진
치워
창사
~arm
타액
재빠르
아름
~협의체
클리토리스
성교
##벳
발원
제과
결착
봉착
고음
통관
풍물
또렷
四
금수
콤팩트
영화인
답게
10000
스테이
~~한테서
최신호
명작
입맞춤
웨스턴
##本
송광
펫
정읍
##예프
~아트센터
~77
케미
셀레
소비재
~연극
가우디
이온화
이에대해
일수
~john
속담
##거에
워크래프트
미식
~uc
샛
진달래
용해성
멘토
랜드마크
##red
칭한
정부군
돌변
끓인
회전체
~웹
~우편
~소원
고흥
~title
어찌하
상각액
~ldpc
##oi
번호판
~~넣
소렌스탐
당기순이익
채집
당사국
209
##워하
완치
청자
~~한테는
청담동
묘소
##무대
##ㅡ
봉화
찔
집어
여장
소추
강원랜드
##툭
##타스
귀금속
~참사
~inst
대각선
외쳐
~영웅
히히
조금이나마
공중파
고고학
반향
##ction
장가
브루스
~회의소
자신있
오퍼레이터
~자가
보르
흑마
젤라틴
제2조
소장파
기우
행함
反
~하하하
음파
##의사
스템
~촉
사우
~~낸다
~유럽
~sub
##時
상소
덕택
키라
비참한
미스터리
먹을
김성태
바친
~중독
~cas
~블루
맹렬
가즈
중의원
윌슨
욕정
스테인레스
들려온
방류
이재민
권력자
~택지
적인
~경력
크래
데뷔전
맨손
블로킹
620
비현실
고수익
주미
스케치
~lee
##pl
~트라
기행
ㄴ
기울일
~ut
~83
1905
##다운
떳떳
~il
분체
교육비
민자
선방
살상
미끄러져
폴리뉴
1936
크리티컬
~선사
정부안
흘러나온
박자
도망친
정책조정
~한잔
혹시라도
끝마
##쑤
푸른색
중국시장
##매체
꾸리
suv
신상품
~선박
싱크탱크
발끈
##톡시
##로드
##h3
##협정
사업권
제1부
이혜훈
막막
1942
눌
바싹
도식
쩝
부의
흐느
첸
법리
~~었습
~추가
부조
g20
부적격
~주요뉴스
##수산
스즈키
채비
출항
대회의실
##티에
~adv
의전
에펠탑
##lp
옆집
색조
서장
##사리
클로즈
윈드
놓였
연령층
스피릿
일장
~ktx
조직력
껍데기
골랐
##시에
투자가
두른
한국문화
출근길
~~우면서도
생쥐
후세
~가치세
여실히
산화막
~전제
031
드로잉
~예고
~lpg
~gan
측정기
정강
은지
아스날
~~봅
##ire
연발
~부가
한의학
차수
~커뮤니케이션즈
~시스템즈
서스펜션
##멘트
쿡
삼천
680
당위성
다각형
~갔다
bp
해안가
눈매
교문
노천
송달
카페인
원산
독단
南
열어
대낮
후안
나무위
~~지나
전기영
브뤼셀
~장벽
입속
고어
~emp
~bro
모의고사
oled
~스팟
~수명
~명중
출몰
~해방
~츠
c10
묻힌
매그
냉장
##mu
타츠
~융
걸프전
귀띔
혼신
~del
peg
파라과이
새하얀
~만해
##ali
베드로
바우
넘나들
##ura
걸어왔
~uae
630
~장사
##이동
~일관
닉네임
미수금
##에테르
라파
##쌈
착체
~mode
접어
맨유
요구사항
##땡
나물
그런거
~뱅킹
멜론
장신
기린
##미나
클라크
직급
조소
~모리
##칵
마마
관방
팔레트
상임고문
~아키
1c
사하
백조
구마
~전국
##시민
신한지주
필요시
웨브
탈세
산발
~아빠
아랍어
템포
~만들기
~테스
~교대
1937
진부
##동물
당규
줄줄
~연구원장
백발
##gt
~look
##리안
슈뢰더
단열재
~center
~~방
발열체
한나
값싼
맘대로
미네소타
리뉴얼
~희망
1951
방글라데시
~호점
11a
##썰
박철
~~이고
##bl
~pg
토했
비산
##읏
##두었
자른
~92
4500
오물
항암제
~스페이스
팍팍
의과
정상급
~통로
~조회
프라이드
~상표
갯수
~기전
##대금
##는게
매사추세츠
~클라
##나스
쭈욱
행세
해달라
~아인
~버프
~fbi
압수수색
~컬러
##중학교
~com
232
~분포
인정받
~포름아미드
~211
##매장
산부인과
시아노
단전
~포스페이트
~구호
##붐
저질러
~사카
중수
상거래
##의학
~매트
범국민
메릴린치
##전지
~브릿지
의석수
왼발
슐
~폐기물
##렌즈
보간
##보았
1939
백종
nd
~이민
~구상
##트론
~구청
##하니
##ome
페라이트
위선
이라크군
실시예로
번져
~하라
266
~~모
수려
##투표
앤더슨
~피트
##들간
~성층
사내이사
032
고마움
~관리비
~89
월등
수놓
~아누
시모
~met
정상인
성상
유틸리티
~동굴
무마
##축구
에프
치장
쳐다봤
영유권
뚱
~오기
부유층
##아르
총각
직격탄
의기
##eb
##섬유
병신
되살리
~록
~카르보
~신뢰
인문학
웬일
매거진
##con
빠져나와
육수
대검찰청
##eu
##페스
##퀸
##건물
하후
해줄
##lia
~스테이지
적립금
우라
~ltd
폐렴
과기
~티켓
톱스타
콜로라도
760
대극장
~~주며
##인가
지하철역
일렬
~far
성적표
박형
~반장
~초기
특례
대뜸
기념비
폼페이
##fp
누그러
~자임
~톨
손대
메카니즘
##lf
미분양
마칠
들끓
두툼
##ler
~조정실
~대위
천이
오정
당장은
상호작용
이펙터
프로펠러
~탄도
소호
##거지
##ren
정종
가봤
의례
으윽
국제선
~돈
~rb
두세
~결산기
##궤
~live
북유럽
박현
굴려
~레이스
무주택
쉼
헛소리
~관제
마담
~펀트
##할인
섬진강
메디컬
~분자량
~하오
불러일으켰
레슬링
마티
진천
어제는
##을거
챔프
##s2
영미
발단
~천명
ktx
##rea
방공
##믈
카르바
~탄성
심부름
~np
힐끗
~캐릭터
배향막
총독
싸인
~멜
ks
##소스
한약
우성
동법
터전
~설폰
##ier
첫해
실릴
~park
##구나
범해
##정당
개회
장타
앞다퉈
시트콤
~근거
뽕
기교
##구리
베스
기전
고영
가본
기생충
~~냥
남친
~sen
~vis
##렌기
애견
식초
산속
리코
사보
~분사
~시켜
~유공자
애국심
무수히
마다하
~변속기
강석
정병국
삼성화재
~드럼
~수소
증명서
~~다구요
pbs
송영
프레드
정무수석
~기본
시달렸
vip
파스타
아무말
~~샤
기슭
강민
밍
비선
포지셔닝
~~우니
~스토
성진
##올림픽
~생금
##준비
백일
제하
오영
~col
수연
##는거
펜티엄
현상액
전국경제인연합회
이성계
구약
##칼리
압입
~공학과
불러오
나른
~에이션
~에틸렌글리콜
별칭
##다는
오른발
스콜
~파트너
~sam
hcl
223
적용범위
##의회
##gra
자청
~미아
후원자
여튼
~예약
~서원
~비시
##싹
장쩌민
숙지
버킷
메스
달려와
~출하
~알데히드
##ins
베이시스
##찔
콜로이드
저질
여호와
회오리
토모
장진
일임
백방
ipv6
유착
레나
난타
아운
부쳐
궁정
반말
~크리
친북
~ㅠㅠ
일순간
물꼬
콘퍼런스
간간이
사파이어
엥
~rpg
~논문
##라우
##꼈
뼈대
떨어뜨린
~엑스포
대웅전
~사업법
~rat
토착
달라져
##刀
윤리위
숲길
~자금법
~듣
빠져나갔
부평
국비
편해
냉각기
굳혔
##ult
측량
어쩜
수십억
속셈
지지부진
도화
##ste
특구
토의
신수
어찌할
법률상
곡성
레미콘
~great
##쾅
장단
봉하
박은
나우
s10
~아아아아
노치
하락폭
##반도체
##ten
자상
##배기
외통
트인
이그
##슬라
##明
전환점
당도
후일
캔슬
앞마당
프로그래머
중금속
엇갈렸
~윈
##서울
국론
~민주당
이력서
부릅
헤드셋
##교류
지배자
반듯
동강
친환경
망했
조아
나지막
반달
~수호
~시멘트
~~은걸
위세
봉급
순탄
~anti
주간지
곡식
경사각
서천
##are
빅토르
동차
더없이
다트
리아
~접착
말썽
룰라
~신공
##주길
투르크
걸어다니
##밴
신성장
분분
##여부
직영
기로
희롱
에스컬레이터
~활동비
올초
수강생
괴로워하
~stud
의안
기갑
~~움과
##타기
교착
##tan
수화기
환생
영변
~자격증
~86
배너
##ui
##chi
공예
~종교
~개발원
보선
독선
그러더니
세원
대대로
~부탄
항쟁
원리금
엄밀히
kn
공고히
~vc
~화상
~스파
인테
##all
봉제
김철
격퇴
~협력체
~~1
~목사
~ㅠ
진솔
~리오
##데르
호러
##ach
그림책
~주재
휘말려
볼보
디이소시아네이트
##아아
내려받
月
##본다
법률안
~정상회의
짬
##부진
##ese
##ung
여단
금화
ㅅ
##ah
제어장치
세공
국내선
커널
~쿨링
키나제
장검
요부
회합
##tp
따왔
~가나
그리스도교
##범죄
시그
서치
##혁신
~촉진법
##ring
쏟아부
설폰
물러가
~pass
##안정
역습
렉서스
~non
##會
우에
~city
군데군데
##나봐
달여
고삐
~~이든
~부터는
inc
쿼드
이채
목마
다녀와
그이
~지체
hu
~트럭
k1
##寺
시험관
~part
히드라
~~구려
스크루
~이자
~모건
아앗
낭자
##산염
하우
미소녀
~할거
~분산
730
아스트
공교육
바이크
~자신
##요법
윌리
##짚
퍼트
tn
현지화
차명
광채
설기현
##막이
##신탁
##nge
~ok
##ill
인간성
노릴
##ors
~신사
##제국
성범죄
~내각
챔
배고파
~예보
~spi
쓰레기통
216
매사
깡패
성장기
반한
1943
최고경영자
##조선
해드
찔렀
미궁
vd
모자이크
##거림
투시
~옥사이드
내란
~men
아론
아케
매트리스
담겼
유시
~라마
~bd
##리코
~히터
~나온
~could
##거라
인적사항
처신
~통지
~이리
214
감싼
헌법상
여직원
~ld
꼬이
선취
휩싸인
~히드록시
새기
~~게나마
신용평가기관
~비만
~궤도
군비
##gl
주영
바랬
245
터트
~원단
간암
의료비
~come
헤어졌
~플라이
~공성
횡단면
~국내
~~그
흔
쫓겨
~의대
~kcc
한다
라스베이거스
##모니
별반
~예치금
~걸이
~type
오닐
줄무늬
감량
써먹
분대
달려나
~~들에
지우펀
~제철
순이
준장
모공
##샹
##게이
~요령
속마음
요거
뚝뚝
밀레니엄
~개교
여하
~fre
오락실
~의류
~~라니까
~람
유격
없앨
~스트로
성행위
제도화
도와준
쭉쭉
월남
오비
국문
유례
명랑
망할
570
무기한
##챠
안내판
시의회
디지털화
귀추
~state
~파트
~96
~표지
음질
##엔터테인먼트
정민
셰익스피어
복싱
힌트
트릭
스튜어트
이태리
쉬워
~여과
~매스
졸음
~~만해
늘어진
~몽
컴퍼니
카불
~~조
칙
이덕
~교육원
~~는지를
스탠리
흔쾌히
장한
~반전
부딪쳐
최승
형부
밀려났
##ort
##oni
핸드백
마음가짐
##스테
~sg
투자금
묶인
군정
~냉장고
지프
동이
홀수
cha
우승컵
부조리
부산대
두드려
~분담
##지스
재산권
##力
##tch
정영
작자
동양인
유임
기틀
~ze
흑흑
복잡성
퇴계
벙
~부전
제곱
억누르
9a
헌병
##기에
에틸렌글리콜
반칙
vo
탄두
뿌렸
30m
시노
옆자리
박주
오대
매복
~cla
이영표
민지
테헤란
지르코늄
필적
공액
um
횃불
호불호
저작권법
~용제
연호
나츠
뛰어났
확장성
티에
몽고
면도
모면
~비밀
##햇
영업점
~bur
표식
겸직
판매업
~방송사
~~워도
발사대
전권
~금리부
기다림
~풍경
절세
김재원
정주
재결
암벽
하태경
지난날
검법
아포
하지않
~대해
~chem
피부염
분진
녹아
##보자
~긴
##cle
황화
준거
요일
산수
김중
망한
칭다오
원반
미상
패거리
이야
idc
에드워즈
거미줄
전입
##지못
##작전
식단
~화력
감전
~layer
프랑스인
밀려오
도색
구가
~계획안
승하
아유
수개월
부렸
강서구
~진료
##이니
협연
주루
한명
~유발
~이외
노아
속박
갯
##참모
희망자
##썩
~bg
~gro
##아니
힘찬
주사위
냉혹
개점
~전문지
~사부
~봉투
육로
다릅
쓸어
##쉰
##가락
주변부
도너
ㅋㅋㅋㅋㅋ
~pf
콘트라스트
치약
~레인
~lan
~주차장
덱스
~조정실장
~should
s5
##페리
##저항
##디에
미덕
~노동부
~지방선거
~00
512
##lle
퍼플루오로
약혼
##風
군소
~부여
미백
채색
~바르
형체
~대국
찬바람
내로
~정청
~~에게까지
통나무
궤
~dd
성호
~내리
통할
오아시스
~특수
##박사
전래
아인슈타인
배신자
조사단
늘어뜨
이스탄불
현실성
개당
잃어버렸
아랑곳하
변동내역
~절연
~lng
##해온
팽배
전자책
실형
농락
최상급
##캣
참가국
위급
숙종
~~화
업자
부친상
무용수
독해
미려
최고치
분리막
걸어온
~해했
제15
##타르
이직
~단어
~mvp
부관
~low
##앤씨
따가
장지
상무부
대제
##타민
발등
예지
역사학
~서식
훑어보
##손실
엑소
~cont
##여성
파벌
유휴
~출장
1938
출하량
##max
~스산
##데기
나락
피페리딘
~클론
취득시
~대교
한마음
점잖
애절
실기
비등
이혜
서글
현판
교인
울린
테이크
산화제
몰려오
~경구
~~아를
토기
양재
~이토
합의서
고블린
##x2
끼여
~제출
~무효
304
광속
##캄
~염의
초반부
급박
999
~자중
철제
법제화
외연
이복
옥천
모비스
남포
분리기
명쾌
##등급
세계사
~도하
요직
따라붙
카스트로
약보합
~입하
~슛
피검
우지
부지런
~roh
경산
현정
프라이버시
판단력
~화장품
##히트
~샤프트
집합체
15m
춘추관
단체장
다단계
군자
~ff
##껍
봐야
##ject
지명자
~첨가
패스트트랙
광신
차별성
~~은듯
##lis
##hc
누굴
##gan
승부수
알칸
산뜻
기왕
굿모닝신한증권
##테닐
##진출
골다공증
~히로
~ito
지류
유라시아
~샵
용맹
면밀
늘어져
~출판사
초석
붙잡혀
~오토
냉철
낙천
커피숍
일깨워
피서
페미니즘
수식어
국방위
테일
압둘라
레퍼토리
근소
~대부
밀링
혼합기
224
학비
연승
의견서
비경
극치
~텐
~hm
##타리
팔로
연타
기설정된
h3
연석회의
이동전화
미역
~한은
~주파수
~티스
지른
키드
승기
스테로이드
분절
게리
종묘
북동쪽
##yn
하얀색
윤희
앙리
편승
~왕후
~mv
항시
정색
알츠하이머
손권
반정부
~청탁
##피리
##인하
펴냈
##링턴
휘말리
~락
블루레이
만하
##으으
팔다리
##버렸다
얻어
불일치
맴
##女
피플
정기주주총회
##벨트
~자동화
##분해
~보였
시리얼
물통
경제계
~icbm
공신력
~탐지
~관인
g2
~~겠군
지멘스
~체화
허전
에이드
스크랩
추수
붙일
달랑
가리켜
g7
한민구
부천시
방카슈랑스
~~에서야
5km
325
들른
풀어놓
끈질기
~79
합법화
~아주
##시킬
예결위
림프종
포장재
##랭이
~global
솥
종파
안쓰
서약
~자루
~이한
연속성
##쌓
265
##나갈
진중
다가섰
기믹
~약물
##냄새
~81
불통
006
스크립트
타도
다원
잘생긴
고정자
흥겨
유모
##宮
알프스
브래
도정
진군
주요국
노령
##았다
미영
막대기
##rb
재량
맞받
라멘
균일성
심재
엔론
징병
오행
감방
##min
예비역
에인
나중
##론자
쓴웃음
뉴타운
~푸드
##zz
피셔
~득
데니스
대머리
임해
오우
불연속
~주간지
~갈비
처박
입고
##테리
##르바
황혼
포집
~선정
꾸몄
##雲
##wer
##아버지
랜스
~면접
시프
수요처
백화
나약
정용
은사
실미도
~~슈
오도
뛰어다니
부린
공병
격하
올림푸스
니즈
##및
##떨
일어
강함
##먹었
정승
우우
사로잡혀
프로젝션
팰
자가용
유니크
~~을때
~85
폐업
어민
이때문
~fin
##쩌
얼라
멍한
~net
##ica
올림
##플렉스
~튀김
비콘
~엔지니어링
정호
##나비
~여단
통솔
보좌진
~도지사
~진자
회차
투항
쪼그
부치
~사제
~~쇼
임종석
40m
하르
회장님
우선순위
~information
녀
~zn
~껍질
~black
부랴부랴
##for
세종로
당황했
~물일
~바리
~능성
~오카
##시브
제노
능하
전력선
떨림
슬퍼하
서러
lng
린스
업무상
코스모스
지평
약재
m4
~집권
정치국
리어
로키
lb
##메트
~gb
여념
슈퍼맨
생후
의중
설포
~서기
~nation
長
~부담금
##bt
요셉
폐색
오므
푸쉬
끈끈
까치
문호
##hp
양팔
사이코
파나
개편안
시민권
~만두
철기
펼쳐졌
사무라이
교육인적자원부
~관장
시효
반인
ytn
##연설
~ol
포스데이타
모체
파국
사은품
강의실
~건전성
~~까지다
처장
~~더라는
##nch
댈
기사님
세종대
종용
~흡입
~중앙회
##플러스
##베스
장염
오염물
에밀리
다나
원론
~자전거
10a
마흔
참의원
실망감
숙부
불러내
당일치기
비상시
~랭크
상병
사서
디에틸
##파리
소피
경기도
~75
한컷
크리스천
##ect
준희
~모자
##소설
착오
~94
##회계
세컨드
살아난
무디스
모성
가볼만한곳
클로로포름
레이블
##연수
첫눈
장어
성실히
비키니
~번주
##ture
한국노총
심할
들어올려
김문
~티아
ost
##홀에
자영업
둘레길
~어버리
ru
아세트
##전력
역무
##펫
##바시
~라이드
##net
도맡
##쁜
시클로헥실
~did
##소이
안정세
낙서
~인재
~캡슐
##웬
치달
정미
윤상현
보시
벨로
귀결
~올리
뒤엎
대망
식료품
유용성
로리
~드레
##三
~87
##한도
피니
중후반
신축성
준위
오리온스
~재판관
~~에와
ob
파주시
스탭
미온
ys
##인식
##연료
증여세
여중생
##광고
아모
슬로바키아
넘어오
~툴
숀
그리워하
~스프
암종
피어오
출산율
중랑
기어가
엡
감청
버드
~양자
어쨌
사이판
가득찬
토털
주거지
경제부
러셀
히든
출입국
##문화재
~direct
공공성
##프로필
젊은층
##ute
일파
열사
모세관
~기재
최윤
섞이
미대
내구
쫒
총판
성탄
~101
화순
빠뜨리
메워
uc
유타
둘러볼
~무형
##포지
쫄깃
내다
##을까
후생
mv
이근
열띤
솔로몬
박세
들여놓
##sd
김일
~성자
불러올
~모직
##말로
불끈
향료
열팽창
썰렁
단호히
친문
열전달
al2o3
~mis
허다
~칭
~91
귓
##와이
~볶음
##꺽
재도약
양승
사교육
민병대
##진흥원
피니언
대장암
~ass
틴
의료용
서동
226
센티
~위한
##ami
월경
명당
~습관
~~서요
베트남전
뚫리
공사비
~무식
##政
김소
약효
꽂혀
광자
~coa
스리
~가든
헬렌
지점장
잡아당기
韓
##넥스
대전차
달구
t3
몇달
~순간
무고한
구축물
피쳐
~루트
~댔
바론
박선
달아난
전보
야전
~복귀
mp3p
##무스
사선
인터넷전화
연연
양팀
깁
리포터
계약자
~~주어
머리속
해냈
은닉
서핑
띄운
빅뱅
~도발
~sec
주가지수
꿈속
880
~~드렸
##묻
란테르트
~챔피언십
십자군
~통장
~아노
980
잘만
대주교
기겁
가고싶
일갈
~혈관
~할로
~레저
~온천
피어나
수난
~~읍
~pic
달려왔
귀순
~~써
##해진
가산점
~발명
~권법
##조절
쫓겨나
~뒤
##ju
정벌
파츠
저류
~무림
스릴
소방관
가동률
우의
유의적
~감면
~fr
엉터리
~cns
미행
~~시니
유모차
반일
pf
##버지
전시실
##보고
~rem
신통
사그라
개운
효도
빵빵
코스프레
아스카
~의사당
~idc
중문
##hy
바트
메아리
시오
뗄
예고편
~믹스
~가인
방관
태양열
~단면도
##키스
과민
~로즈
~서적
##정리
설계도
##윅
금정
패소
잔디밭
효율화
넷마블
~~시나요
~93
##和
번번이
덤벼
~볼넷
채굴
맞벌이
~낭
쿠르드족
##fic
홍익
디렉터
8b
살아간
주례
~방지제
~pos
현자
~배수
코리
##춰
삿
만만찮
##lli
피카소
e2
구릉
배임
무더
~무쌍
썸
백사장
거울상
허름
~타격
점선
괜
~성부
교신
sap
청풍
작업장
실수요자
미도리
리셉터클
##ful
erp
코돈
명과
##철학
##분들
부직
가야금
묘미
나폴리
뺄
정대
자영
관망
가파르
본청
~~어온
집진
소저
~로우
몽둥이
~chi
기차역
캣
##ek
종교인
들이닥
~물자
손아귀
~이성
2400
젖히
기척
무전기
떨어뜨려
단맛
~버파
갑상선
~클로날
~재개
큽
훼릭스
자속
뽑히
##어트
쑤시
복강
~관계인
잡힐
무녀
~연성
##고속도로
현혹
유럽인
근성
패브릭
트랜
외교안보
릴리스
판형
~관찰
~가중
~일선
##ina
아로마
로보
~주행
빠져나갈
분이
마찰력
끊겼
~control
mou
오라버니
사이좋
깰
시의원
모피
거래비용
한국전자통신
피봇
~권역
##비어
흩
묶음
코타
유시민
##시절
문무
공터
강령
~~으셔
촉감
항성
감염자
##맥주
사오
~투스
~전시관
터뜨린
도광
노자
##참여
490
와해
계엄
~게시판
##플라이
주사선
저항력
고든
~맹
산자
꽈
권상우
재처리
##요인
등산객
번성
##ch2
##메스
##原
갑작스레
~los
장하
~wea
그르
~pdcch
씌우
~분배
목회
한국팀
징크스
실직
vs
호스팅
~~아야지
볶음밥
대통령제
~징후
~대한
알수
~tb
시간표
기관장
권혁
~출석
취사
박한
##月
제12
해낼
작화
스루
~~로라
~프레스
회자
##회담
폴라
안달
박지성
소림사
평균치
이조
세분
~~람
외부인
수종
~생태
밀어붙
무림맹
~먼
시달려
들여다
~민이
~~었으
~~식
~biol
##슬러
~컨소시엄
외무상
맹목
##와르
쵸
~최초
온난화
~sca
냉면
~sb
풀려나
붕대
~추계
~amd
사활
끌어올린
五
현악
계보
거역
##지에
절편
사모님
~need
lpg
카일
~아이스
하라
~수련
~hf
통행료
~자일
~사업단
##썬
시승
끌리
살인자
##추진
##시타
江
##tro
게을리
척수
민의
끌어올려
~아시안게임
~인생
213
##tes
홍삼
##800
이보
부기
##cture
강동구
찻잔
마쳐
~스테인
~논의
스포츠카
치료용
임대차
공신
자켓
##맞이
틸팅
칠성
##높
당좌
~사료
합판
~함유
로저
##史
~베타
##기획
숨통
보라카이
~플래시
천왕
허물어
보건소
이트
밀고
다공
투자회사
모신
~후원
~글루
1mm
어촌
마이애미
~ben
ubs
쏘아
뚫려
두개골
꿈틀
고기능
~병세
어린이날
보따리
뜯어
떠도
뉴런
경락
~부하
~sal
##사카
한국판
~technology
체념
민관
마블
두말
참가비
박히
대천
~여론조사
병변
그랑프리
~public
r10
지인
재충전
~테르
193
머문
~부사
안정제
~딜
제격
재야
키즈
이물
국민통합
거르
228
1907
현우
##이치
스크래치
베어러
~대조
타계
~투사
퍼스널
세명
듀티
체계화
~총국
##쇼핑
벅
##그레
뉘앙스
##300
모라
야산
~선두
오다
앙드레
##클라
##ere
신의주
~경계
##질러
##vc
속눈썹
~~아준
전도사
떠오를
##시위
위용
구겨
대패
~~으리라는
실력자
##서리
틀어막
##lm
##ated
##h1
안종범
선녀
##華
잠그
이과
받치
##ven
텐션
코난
rpg
만화책
대선자금
~캐피털
굵기
##잼
hf
033
하판
~~전
610
유황
송풍기
생육
이무
선풍기
박민
마오쩌둥
고하
경차
평야
지하실
연민
배재
로렌
세정액
~삼보
~미어
제청
s6
총선거
임요환
브룩
뛰어가
##안보
~에프
잠시후
수재
샤오
~마감
도쿠가와
~양수
é
~교정
신기남
~~후
용두
호시
오션
서귀
깼
~~위
1931
~~는지는
사계절
꼬박
잔재
기립
계집애
~bon
황태
애호가
~측벽
##모습
##개정
##숨
c12
집권당
##ua
혼전
콩쿠르
무르익
##유지
스트랩
마코토
송곳
요컨대
##사키
찜질
제안서
난제
etri
연삭
락토
포개
##팝
##중국
성민
드리워
##뤄
~올라
~어린이
~해소
~떼
~ku
##로그
~american
여하튼
범퍼
케이티
자음
다윗
아이티
~한번
hm
조절제
핏줄
잘할
갈륨
~mimo
포도당
~수영
초중반
강병
246
제설
~보급
~~이는
##c1
혈액형
경원
사파
~신위
알킬렌기
분전
~총연합회
과부
##표준
영업력
도시인
이제껏
~린스
최명
~부담액
315
기염
전문대
위도
불운
중심가
엘스
김만
초심
끼니
공식화
뉴저지
##수용
##ish
밀실
~브리지
##ub
혼잣말
덫
절곡부
심성
몰아쉬
##ple
##아웃
##서스
~digital
성난
상존
##수스
어찌보
선구자
~쇄신
앙상블
마사오
종동
장엄
신공항
~vpn
~에탄
mar
하루카
##나간
저작자
해협
~경매
전성
처리액
글귀
~nll
dh
수자원
##뽀
출사표
~fat
말씀드린
##아나
버림받
일보
라이플
율리
~군주
가져갈
작업성
신유
~노소
~~겁니다
인심
우르르
관계없
##위에
~버릴
아늑
유구
모태
~fl
날려버
영양분
##맷
병무청
미제
시구
~~어두
콘돌리자
~~께서도
~rel
수치심
발암
고파
##덩어리
##터리
창시자
실측
퍼시픽
튀어나와
개탄
상장사
남근
전갈
병자
한족
모용
##쿰
##왜
접혀
일원화
책임지
山
299
아제
백승
무너질
실용성
맘껏
##ov
내연
자장
김상곤
맞이해
~ioc
이홍
##成
챙
~uni
내쫓
발화
~program
stx
퇴색
~chan
##장비
발행자
독백
~~었지만
소액주주
계실
##모델
~정체
위피
##德
콘트롤러
씨익
##둠
~춤
~벌레
원제
미개
재해석
끌어들여
가래
~전공
##나르
눈부시
옥외
활성탄
옷자락
~크로스
제라
정회
가실
속상
~법칙
##싯
##느냐
변함없이
##공화국
~내내
~체류
234
##옆
하물며
디스펜서
셋업
경수로
~확
str
##면적
알아채
밸리
철로
기선
강선
820
내보
교반하여
~농성
수복
##불교
~의료원
~저하
출금
제14
저편
프로피
짝수
~깨
주종
에바
~정기
쟁취
인도주의
프리미어
펜실베이니아
안병
모리스
~수기
후훗
~여신
스킵
~폴리스
벗어남
희열
서양인
똥구멍
덮인
~시공
타이탄
오갔
아꼈
배기량
~로켓
몸소
부전
버럭
남이섬
기본료
##테이너
희생양
제방
제국군
반투명
조병
담가
~세미나
생장
탄광
소용없
치료비
~환금
해이
인도분
아태
현대캐피탈
~분만
컴팩트
어워드
라크
~next
~압축
혜진
들어맞
253
양조
~~회
~cra
##환자
~움
수기
모든것
~~으로나
구체예에
알록달록
마그네트
감귤
~진화
##가능
~차지
하스
~module
이층
어퍼
아련
~선고
~dia
##int
인적자원
모교
가면라이더
행했
추인
지원하
재결합
##port
쿼
셔
~히드
회로도
반란군
##ile
떠들썩
내던
재순환
스퀘어
경내
~저가
상수도
붙잡혔
~피부
주니
##깊
놀림
본가
곧잘
~project
소회
대식
~시온
~건의안
~io
전병헌
p3
##ions
~버드
~납부
하니
남작
~체크
지급액
떠올린
퍼블리싱
령
난생
##sb
##라도
##값에
애완견
여지없이
##ast
힘있
주황색
도수
~most
~~을까요
1933
트랙터
~qos
재래식
~가로
지켜봤
##bm
hb
원성
~황후
~안정성
~헬기
~스토어
협력업체
아브
고순도
~켰
~산맥
~데스크
##이었던
구배
병과
결연
~일리
영산
좌중
선례
국무총리
오래되
~주부
##티어
##shi
~비교
신년사
기울인
~원정
##겠다
~~져야
~~다란
포구
윤성
지속시간
뒤쳐
김시
~port
소시지
~mit
부채질
밸류
~beta
없앤
알데히드
규제개혁
~경부
~~에라도
221
1935
~생인
스타워즈
생소한
짜리
야마토
##江
합천
합창단
홀리
전자기기
~증거
아틀
벤딩
동년
~천운
~아악
연고지
~상공
~bus
##~m
부팅
~커넥터
표면상
고환
~장터
풀어내
사이다
mrna
~선상
내키
남동쪽
~스카
내보냈
~금고
~fs
트렌
졸리
dlc
초순
~온산
노크
게르마늄
트랜시버
지미
육식
신드롬
패널티
여분
서진
과산화수소
텔레콤
저분
이곳저곳
win
##허가
자욱
~해고
~공영
코이
~유전
다방
nhk
##측에
탓하
코로나
하찮
싶어한
고배
~증상
r9
광케이블
중사
경건
설거지
캐릭
거둬들
증권거래
##치오
인터넷뱅킹
만개
~라이너
q1
식은땀
~press
##꿍
##yer
딜레마
~~금
서보
부득이
바랐
060
##에프
행인
쳐다본
신법
##갔다
시장이자율
떠안
그다음에
혼용
투숙
잠적
유유히
날아들
격전
##수지
헤테로아릴
특정인
상반신
199
창틀
~메트
iaea
##총리
##가면
청해
렌트
달려드
~급수
##렐라
자형
살충제
니콜
문항
히드
~주님
~play
~사들의
계명
휘어
무소
~~어린
##星
파단
~~는다며
~수립
##체육관
##니카
비페닐
##야했
고칠
~둘
~abc
소강
항우
럼
극락
휩싸여
최민
움켜잡
아리스
대경
흔치
##부처
##가기
~보다는
춘천시
tb
305
향방
관동
퇴역
개인화
법조인
통곡
충격파
~부과
~대란
업황
그땐
찍히
전초
벤트
~die
핸들링
음산
수계
##복음
~보살
발칸
상업용
래퍼
겨를
엘라
~수치
젬
문하
~제공자
xx
팀이
생소
##land
##시리
막부
유기산
安
文
##기전
파고
이레
식도
~총선
~문화가
##jo
베팅
애썼
찡
~판넬
~덕트
메이플
##거나
구례
~정밀
최동
시럽
dd
~입체
한밤중
##탤
마그네틱
리크
여론조사
~곤
배트
~페르
카복실산
~프탈산
콜드
문체부
아랍권
신승
복역
~그리
kbs2
땅속
잠자코
~전철
~버섯
캐비닛
겹친
1932
벌거벗
~당사자
쿠르드
전주시
몇명
~이전등기
취업자
신용거래
비인간
~ht
~에선
알려드
~고교
수공
올가
사탄
~위생
쿼리
300m
클로닝
견조
와카
소풍
빛내
맞아떨어
~회화
여군
먹방
##트레
힙
##젖
쾌거
도토리
~김치
##주기
##ves
환호성
베이지
경희
##생물
##데레
찻
전광
기여도
kis
고철
~바스
북동부
부차
티비
앞세우
소운
반바지
뚜벅
팬택앤큐리텔
불꽃놀이
~맥
~chu
서울아산병원
내사
~작성
벌금형
~허브
맛없
취득자
총탄
특소세
~염화
##nu
~마가
태클
불명예
구천
충남지사
총자산
~~겠지만
사야
구직
비기
~유학
##믹스
능히
롤플레잉
기껏
강신
v3
장모님
타단부
만사
어린시절
##단위
먹을거리
~브로
이한구
기뻤
당청
pla
##가시
밴쿠버
~~해짐
~국제공항
##use
발버둥
##yp
티슈
魔
~spe
부록
~mpa
활로
사업화
##벌리
원나라
옷장
218
금할
않았
~use
~마치
차분히
국립대
~인칭
##운동장
평점
전우
~game
302
어구
~얼
##마켓
혈소판
당구
~트레이
~네스
프로토스
자영업자
김양
쏘아보
여소야대
쓸데없이
농어
가와
~자위대
대책위
변방
~셀룰로오스
~방향족
~못하
##way
울컥
~기동
~~주셨
재조명
승승장구
tt
~유성
~악장
브러쉬
~windows
설상가상
##미리
트라우마
860
~드가
##코비
증류수
조명장치
##야구
눈꽃
~nfc
##회원
##요금
밋밋
##발생
##타니
임마
담뱃
~행시
~dh
##ㅋㅋ
자라나
양해각서
라스트
동성애자
~절하
~무스
매겨
난동
²
이년
찜
황궁
현관문
~이용권
항모
블록버스터
평탄화
총합
##국민
방편
불기
비웃음
~~시던
~fla
25m
짐짓
넘나드
##충원
~준칙
~양도
개선안
##성이
티아졸
물탱크
배웅
~풀이
프리큐어
~유물
##쉘
크라이슬러
변천
문서화
~gen
##경기장
한입
역경
들뜬
~office
1918
탐정
차단제
좌지우지
영천
백도
~~시며
##지지
##ㅏ
스파이더맨
김정숙
##악산
##tl
~~가가
~~시죠
집시
골프공
내집
익혔
소말리아
~지위
~베드
타케
~농가
##가드
어도
가져다
~항쟁
~이치로
##스토
~세일
이방인
습성
레트
##카운트
상표권
깜깜
흡혈귀
등단
흐트러
백과
돌이킬
귀빈
젖혀
로스트
~alt
지정학
소견
내보낸
上
~유한공사
~강연
달마
##캐피탈
예절
공주님
##게하
엄밀
단턱
굉음
~취급
~eur
##실험
##hu
태수
브라이
밀레
터프
전각
연천
법인세법
슬며시
민경
##토토
api
##촌동
맞히
##of
~주로
##sf
뮤추얼
~sil
사공
다나카
찢어
외국인투자
##거릴
~발진
무방비
경영난
가물
##str
의왕
~무사
감흥
운영위
쌍방향
틈틈이
구문
~환기
~gn
~과학원
히타치
물려주
흥미진진
~파리
##武
알베르
중도금
문안
~light
프로덕션
바쳤
상징성
보훈
~골목
우릴
쓰러뜨
착지
희한
연습생
중립성
조원진
러브콜
면역력
~탐사
##부담
온세
##lin
실화
몰아가
부총재
~식품부
래리
~픽셀
~95
피부과
경의선
마지못
교포
~젠
군포
아츠
~레인지
쬐
840
데이빗
~마시
테너
애당초
~dci
rh
삼각대
~임무
파이프라인
명부
~1101
백설
~로모
시트르산
레슬
r11
김병준
~시간대
~sho
헤일
장막
김태희
~~심
##hol
지존
난소
~hol
날아온
~파악
전할
~add
벤더
몰디브
누명
~지명
~가방
챙길
르노
입주자
군웅
~foreign
##꼭
시늉
##출판
##지리
전편
팩터
##부재
발렌타인
말끔히
~로미
객원
인대
미용실
~페이트
~united
금융업
~세제
~enter
##샌
노기
이동통신
의성
극소
##unt
미오
카오
스트라이프
규산
지그재그
살렸
670
~케미칼
~스턴
~~옥
dcm
##거든
항온
시그마
구수
~무진
히어로즈
피로감
징벌
王
진대제
증축
삼일
개질된
융기
아슬아슬하
덕수궁
굽혀
5cm
뒤돌
~술사
회개
해줬
본디
##res
열선
254
~사양
상대편
~삼성
운세
293
트러스
수액
nb
##리어
~base
깜찍
경북대
결손금
소형차
~대중
총애
권은희
~jun
잠금장치
##fc
자유화
현미
시린
피켓
머스
대기압
걸프
~자상
2200
까맣
혈류
에픽
시군
~모의
##rit
~ur
~pen
~green
##ph
졸속
~제지
막사
마더
~hdd
~hb
##라드
존엄
올스타전
연두
아랫도리
~렙
~~맞
~igg
2p
##유산
##宗
잡아가
박빙
~환원
~thr
~lcms
이용률
~도인
##end
~륜
##하시
##qui
##뱀
##ular
편도
김덕
960
헵탄
최인
어드벤처
대장균
박원
##렉션
사령
클래
자연계
##로부터
##rie
다분히
~절인
##메타
윤종
역사관
와이즈
##기계
~indi
위증
덮치
내화
곱하
~벤질
100g
경영정보
헷갈
퍼펙트
사업체
브리티시
터트렸
속편
~나타
##이용
망가지
개질
##sch
프랑크
ㅎㅎㅎ
##뻘
사생
무이
마스킹
##가족
둔갑
~정서
##공에
빈자리
##비서
당적
창안
섹
권태
~논란
##라니
##敎
##ou
다쳐
pac
##공격
미희
##넹
대미지
글리세린
점치
점액
도당
켠
왕권
1929
협찬
숨긴
~병과
외투
유자
불거졌
동원증권
구기
~페어
왼팔
비상한
~tn
밀란
##릴기
오즈
눈금
김택
리퍼트
아이오와
pmp
상아
사절
대련
##tf
대표직
플랩
##벨리
수천만
머지않아
청순
무뚝뚝
도망쳤
##준호
~편지
##理
카펫
불어오
~요금제
철권
종군
부딪
##벤젠
아이덴티티
##연금
메트릭
~진입
##코치
오버랩
산토
북돋
~~도다
부검
~목이
퇴사
실생활
연평도
리버스
횡성
밀려들
똑똑히
~비상
피임
멱살
5c
정녕
비천
폴로
아이오
데려온
석가
물러날
io
어떡하
늘어선
##요원
##수요
쟁쟁
민경욱
되살아
타마
악한
청구권
상대팀
##셴
선지
##르크
헬레
##사원
##보지
##ogy
업무용
도마뱀
당겼
303
##렸다
서우
~포드
쫓아내
전자식
레인저
~jtbc
낙점
~실세
짝퉁
다큐
꿋꿋
모험가
기뻐했
##범위
##ust
헉헉
토시
얼짱
돌려보내
1d
이회
쿠마
미디
세린
대장정
靑
1588
회심
악세사리
사교육비
용적률
내인성
~제2항
~분기중
알래스카
아이리스
~부화
1n
둑
##인력
##yo
투병
마사키
어설픈
장구
~팀이
최종전
슬럼프
##上
안위
떠밀
##회수
~창조
유태인
유천
어마
선제골
빛났
매개체
~pbs
##ida
내무부
~이득
~~서이
~fps
나체
~신청서
~vip
~report
p500
주어
~커스
좌판
모사
농경
비집
바이킹
~qui
##뚤
행여
걸터앉
출루
정거장
~mal
##리브
키타
하위권
부국장
~nb
##잣
~기후
~sign
취합
읽어
~루스
정은
학벌
건배
~기다
보내왔
정신병
다우존스
낙인
강연회
통화료
발악
##예금
시제품
순액
~카트
적막
노폐물
식중독
끌어올릴
~xi
옐로
나신
갈고리
영영
동수
##탯
브레인
##촬영
231
~~알
가곡
~다섯
밀림
다케시
천안시
##종목
섀도우
살벌
뒷부분
카니발
흘러내렸
~노인
##유로
집행위원
창호
찾아올
왕관
스텐
끼쳐
~타가
니스
##었기
예언자
~웅
삽화
~클래식
~read
꼭지
귀걸이
~조사단
챈
272
~탕
가치평가
ntt
특단
선후배
##조약
##상사
본고
들썩
번쯤
~획정
~자동
~섹
날렵
조직화
풍겨
이케
로테이션
연령대
광축
~발현
~연제
들어갑
높낮이
바실
차도
서식지
급행
~여권
~나와
~1018
마스코트
~mba
패기
탄탈
청했
~교시
~sir
소질
명예교수
기암
그리스어
~월경
~eo
~drm
히죽
엔씨
패딩
옹벽
깨뜨
~정보센터
~~만이라도
~tow
~모스
~덩어리
##pti
화내
c20
주세
256mb
할리
다람쥐
##쎄
##마스
지단
~cal
혼재
~어선
임관
~~겠고요
##펴
~뇌
##룹
터뜨려
일구
사와
~각하
쿠퍼
~담화
rp
돛
지겨
~짜
~제조업체
컵라면
西
오죽하
세습
~사용자
신주쿠
경협
잣
으쓱
수속
성안
물감
~~편
흡연자
핼
커스텀
상충
비선형
멋져
전용기
루키
추악
##훙
제각기
수십명
멈칫
~stre
~연주
성인병
비노
그을
~따위
##쿠르
서바이벌
경제활성화
~온성
꽃피
포유동물
쫌
암나사
부단
보호기
골문
##sis
숄더
##트로닉스
김옥
플라톤
기합
ps3
플라스마
조달청
리테이너
~~고서야
~kh
없을
몸뚱이
~~누
~nf
##산물
##바나
~항의
잘린
쟤
확연
틈타
수문
상승폭
~reg
사회당
~남북
나날이
강림
타쿠
스파르타
물살
리빙
떠넘기
##잖아
미량
개울
~~던데요
친족
손꼽
~장관회의
285
##결합
~용수
적혈구
작렬
계약조건
은평
앞길
스몰
대당
최고가
돈독
##답니
컵스
o2
##렐리
해부
1925
이상훈
라고
##트린
##ato
판화
재인
모재
구시가지
~~오면
kh
다잡
##빠진
고위직
rx
적들
##산소
내비치
~간내
단체전
3h
##자는
사구
대양
구걸
워낙에
~web
~보리
상여금
~차기
~장로
##사상
##物
악행
~경제가
~emc
향유
최규
알칼리성
유념
기술개발
어묵
소비에트
극악
흡족
하얏트
뽀뽀
피브
축구팬
이부
금융사
세나
동두천
~pop
~economic
~clo
개요
안토니오
~대간
##중공업
동탄
이범
전치
##힙
기강
~폭발
타기
크레이
낙양
##자이
최대값
~pra
산업체
사온
하이닉스반도체
편집국
집주인
~스틱
잇따랐
수산화물
과량
스피치
수사팀
납땜
##미술관
~자드
~인걸
임동
~매출액
유니버셜
수라
금속성
~night
유급
스테아
처가
은영
~제이
~왔다
~노동위원회
##ppe
사회복지
곤두
~도민
제네
토토
클리블랜드
증권업
외양
~msn
~eng
입항
구아
##지아
##닫
녹취
판상
파인애플
##까봐
행군
한통
##bac
흡음
배출관
낙원
~ngo
환각
종북
네이처
~고개
따라갔
슬러
스펠
~터치
~창구
~cur
~돌파
##셔널
##카와
새긴
농후
거리낌
##경색
~통행
~절벽
233
##립스
히메
미트
무등
문전
~체중
~마커
~~겠구나
존의
##엥
오드
375
과로
~전통
##관절
김관영
##身
진찰
보합
gb
~염색
신인왕
스시
깔리
쓸모없
도급
고흐
~through
리비
~외선
##르스
~커플
부서진
넘친
10g
예멘
심심찮
##신보
사들였
변화량
217
후다닥
적합성
스트레이트
애쉬
순장
구덩이
~다발
헬륨
해안선
전립
눈꺼풀
금색
검역
~비한
훨
저항값
~산출
콘테스트
##360
##가공
주동
동훈
유재석
번역기
du
대영
##ik
홍석
리니어
~오페라
폐경
이수영
~철회
##면에
화단
토탈
##이더
일색
은색
~텔레
팔레
힌두교
연석
~봉지
핸디
레인지
내통
~~라지만
이베이
~법령
컴파일
##cd
암스테르담
lm
##f3
펩
쾌속
수풀
많이들
동동
포퓰리즘
슬기
~종속
##청사
공작물
협의회
~사이클릭
~혼합
~cor
##선물
##dl
환원제
서인
브래드
~가면
~every
검문
장윤
깜
~승리
탁신
~camp
외향
지상군
##시즌
##넴
후천
##tain
##욘
##미사
생포
##아닌
##실릴
충북도
~양상
~대형
송전
방진
힐끔
존경받
~month
##쉴
##붙이
주립
구단주
~행정부
##으실
##돼왔
초전도
제시카
질식
실비아
~싱
시무
모퉁이
품속
리지
##2동
후두
반겨
~원측
모진
내려져
~합금
스튜
차일
악랄
~bel
라그나로크
~컴퍼니
오르막
마유
기어이
봉해
~design
##커드
충혈
사저
##랭크
뻣뻣
반감기
##원지
황우여
공생
~tti
자운
사업성
##나왔
##근로
스릴러
사업주
내열
##어나
로망
~바트
진통제
삼성경제연구소
크크
전미
잡기
북해
##베이스
~스카이
~~두고
격분
##wc
향연
블루스
박창
시커먼
참기름
오로
분석기
501
##ens
하이테크
~버그
집행부
스펀지
분수령
잠옷
od
##박이
스파크
~남부
조지아
ok
전당대회
상향식
굳힌
~kp
##슝
차돌
절호
rd
첨가물
##저축은행
후각
농수산물
per
bd
김경수
~나서
열분해
매연
##간다
한파
쇠사슬
##토모
뒤처
내홍
~음악회
~서비스업
중심선
개진
홀드
한림
~배분
국장급
~house
수프
법조
770
##렉트
소공동
상암
사문
라일
~하리
##gf
~리면
출렁
양일
간디
405
술탄
수용자
목판
자산관리
안드레
##下
무샤라프
덕목
고운
ch2cl2
##록스
헤럴드
이백
~ot
화이
~칼텍스
사용처
~yo
~creat
##ame
전남대
식스
면면
영아
~증세
##챔
프로이센
성현
굳건히
깨져
몇십
되살아나
황해도
기계식
~리언
신사업
최태원
연설문
~프라이
~차트
배움
흡입구
스프레드
~~2
##仁
평의
전남도
~수도
보유세
사이토카인
~경사
온기
~동원
710
연장전
##전문
가부장
클리닉
좆물
휩싸이
피운
명지대
대통합
옴니
폐단
252
196
생동감
리마
최원
~탄산
~god
219
##이상
틀림
~~다가는
청량리
유탄
제니퍼
~농민
~영양
옷감
~운동본부
최강자
유통업
다그
~micro
~key
전력량
오색
가시광선
~운동장
사가
레인보우
##수염
##보르
제복
먹구름
~발기
345
##체인지
##hd
파라핀
~dra
~while
~손익계산
로베르
~~으로서도
~tro
##헥
민감성
말뚝
걷잡
산사
고정핀
~투기
원목
~제물
~ipo
초토화
볼수
뚜렷이
~공방
강건
##ram
정몽헌
떨려
영성
양궁
十
내마모성
광량
에서
~담당관
지로
빗방울
망가
초계
제1항
싸구려
신창
~행렬
부원장
장화
송지
##플레
펠렛
로지
~med
용이성
셀러
끊긴
페드
~~니만큼
##페어
루카
##信
루드
교육용
빨개
마초
##피해
##權
분기점
중개인
##린다
감회
공정위
~타석
예술인
~스튜디오
##氏
맡아
가요계
cm3
1917
외야수
구치소
과오
동북아시아
애타
견인차
적십자
~버터
바로크
고등어
~wti
시간외
~등록증
~직전
숯불
##nte
내려올
조운
~~였다
최룡해
요구르트
~파이어
~~워진
##그로
화들짝
베인
강점기
바니
~약관
~실패
애틋
약리
서희
~평가법
시클로헥
본작
기른
국가정보
~온난화
~캐스팅
오랫만
라이짐
설비투자
~프로세스
ing
빗나
피보험자
크레딧
콘셉트
근거지
~이로
인권위
여친
성탄절
##췄
~선전
말씀드렸
九
##믄
었
깨졌
십분
중년인
영암
사정거리
세조
응수
##제로
티타
우선시
~산제
수트
나팔
ia
패시베이션
~기획단
~val
불순
거더
~조업
##몬드
펑펑
프루
##여자
##野
전언
워프
선종
~~따라
영어해석
속보
~일대
~병사
~그루
민물
두산중공업
~소총
총대
관청
~로이드
~에톡시실
~중지
~poly
변조기
김하
컬럼비아
~자국
~고법
##게이트
홍익대
이효
~열풍
홍명보
딸려
건달
~까지의
~bla
렌터카
1924
##광장
놀려
남도
광해군
##중심
대학원생
~발의
괄목
~wwe
원두
가격변동
흡착제
메인보드
~cdr
아이슬란드
~하부
~mobile
투톱
속임수
도안
so2
성과급
~휴대
~웰
##시다
유다
갈기
~어용
미코
nu
휩쓸려
훤
~성공
##중개
최대치
예선전
~연구실
~의무자
~감자
##rna
믹싱
립스틱
주원
좌회전
물길
학습지
~주제
뗀
침구
이어주
사들인
~색광
통신업체
은밀히
~출입
##라시
스페
납세자
고관
mh
##사정
융통성
세탁물
밉
조커
압록강
난색
교관
~느낌
##지도자
피웠
~진흥회
말레산
~form
##val
직조
빌보드
높아
길들여
~~은커녕
오성
~탭
##hn
아래층
구양
골밑
못되
송나라
귀화
~대여금
전문업체
스쿠터
~inv
기준선
y2
편심
수가
버스터
샬롯
거렸
애처
샘물
부릴
수잔
~맞춤
드러낼
~운반
##wh
리차드
##장애
##스님
할거
비탈
血
심사위원
306
썰매
무시한
~~뒤
~~놓는
병마
열전도
##다보
김도훈
~허용
~선암
##바스
~편집
~지성
테레
펨토
원희룡
송영길
말살
참회
일광
~평이
포커
적금
노가다
관현악
##ori
##ssi
이카
프롬
##심리
##떨어
응급실
땜
##타입
보금자리
##네이션
보험업
~캐슬
~kf
로드리게스
누에
재송
루브르
~~연
권세
fbi
휴맥스
스카프
ye
휴무
~버들
~나왔
m2m
분담금
##감정
유부녀
~wan
프라이머리
세인트루이스
들이받
~communi
##해버린
투지
~밸리
##넌트
휘말
~전담
~research
~1034
##끼리
~원수
~문예
##량체
~원조
우다
광풍
행진곡
~corp
##인구
해시
국민연금
~~오는
##知
힘주
일거
소급적용
##게된다
태양계
저격수
온게임넷
꼬맹이
~잔고
198
##웃음
장풍
공양
~제조업
조깅
오로라
비롯됐
810
몰아붙
가야할
~vr
##ban
플로어
무결
~하이드록시
더디
~호우
##진이
대기실
##캇
##낌
호국
스탠다드
~교기
~ah
키르
큼직
술병
~고발
##뱃
자결
볼펜
꼼짝도
##pu
c7
정대철
다음커뮤니케이션
겁먹
##회복
##tin
이어간
팅
고노
감모손실
236
총학생회
니시
lv
슬로프
구매력
~lb
예식
에워싸
드레싱
~공략
피시
수평방향
깔깔
~전적
피험자
뻔했
싸여
~용도
~수성
~대표단
##타워
##됐다
왕건
토스
고려인
하모니
폭죽
천부
불어나
~such
비점
~페스
~주머니
하녀
다다르
~지나
일률
포일
처남
거국
~법규
장단점
많은
~쳐
콩고
출중
~호가
~ict
244
##師
뻔히
기명
~사거리
하지
시급히
현금결제
~콩
~스윙
##met
영희
307
gn
정월
객관성
올해말
##北
원곡
부녀
나시
~prop
비염
미첼
그치만
~오르
샤르
##l2
학생부
~human
288
237
##디닐
값비싼
##란도
올라선
##kk
최성국
##ics
리벳
~atm
잡화
면상
~터닝
##az
유분
식히
대종
곤경
~용해
##세트
소지자
진퇴
비상장
가공성
##달리
어렴풋이
~프로피
글리코
~랜
~~시킵
빼앗겼
동점골
향미
성종
~신설
~afc
nahco3
##ㄷ
반반
~절단
땄
##정권
##다라
우중
산케이
그린벨트
~일세
##뜯
~main
심리전
~이시
ltd
중간부
##발전소
일침
조리개
답장
김미현
게르
030
~기념일
##추세
##ness
리자
1928
쳐내
마케도니아
담요
~파생금융
~계상
제습
재무장관
애비
슬로
~om
##글러
##720
두드러
아낙
속수무책
~무선
##사장
부풀리
鄭
~우기
##ari
문창극
개인기
~편의
~유저
~악기
~기적
상각하여
~~시라
##1동
복리
못난
~슬림
~수처
~꼬리
~~우므로
치를
vr
1908
소피아
백합
문성
~텍스트
~wil
##섯
번화가
고참
월스트리트저널
데카
~광원
~~라고요
##2o3
속했
아랑곳
디카르복실
~music
충성심
그말
##밀리
얹혀
ae
봇물
~years
##술포
자평
이부영
짜내
~카스
590
살아날
밝혀냈
~want
직립
몽롱
비평가
l3
애시
##원가
낯익
~좋아
시화
다빈치
강영
~탐구
성악
κ
~통신업체
옥스퍼드
메이저리그
드레이크
니혼
~sit
hdd
~media
~wmd
휘청
연장선
##ran
~ls
~inde
~황산
##xe
~~어줄
군락
기껏해야
헤엄
최고조
~좌표
~유한
##효율
##축제
프랜
맹비난
거만
~labor
범벅
~이형
##by
~동지
##러리
부트
##덥
~플러그인
ini
서로간
~후기
##넌스
##금지
천적
주화
강희
~거래처
중징계
엠보싱
mf
~구속
~dram
오두막
리카
~가속
보탬
~든
~scm
경공
~연금제도
와셔
파헤치
242
1934
비타
감독님
끌어당기
김정훈
고3
gc
오믹
엄연
~취재단
~여형
~eps
016
이만큼
##f1
부원
사먹
~져
내부공간
~지가
##슥
어정쩡
~왜곡
~before
~fil
##파르
##쨩
푸마
콘텐트
빙의
셋팅
안데
괜한
하버
포섭
트랜스포머
~급부
우윤근
선입견
포르투
미네
~탄화
~커멘트
~미즈
~leg
함부르크
한국화
케이트
똘똘
~탐
~전문점
##情
현기증
돌담
충무로
입혔
의원총회
##켐
음핵
양치
제길
고아원
빵집
무하
통신원
재팬
비빔밥
~테리
##소르
고정홈
자자
~배경
eb
거래선
##실적
통쾌
무도
~ost
##ici
유니온
유경
생필품
248
카와
먹인
김남일
##크리
승천
~감상
##春
구부
191
##레트
출범식
운영비
발육
경포
갈린
d6
##중앙
좋았
~165
캐서린
에듀
섬유질
단아
~~때도
##졸릴
##루시
##드러
##같이
이황
~pur
##욜
덤벼들
~장세
2mm
장년
임야
들어보
주치의
##와라
~comm
~lt
진실로
절전
870
프리킥
##ode
딸린
~made
##아서
응할
둥그
~스커트
~잠식
gsm
##sn
찾아낼
조직위
기동력
주점
~세탁
~rgb
히팅
토오
~bre
흔들릴
줄임
~간인
~rp
수력
머릿
지역민
싱긋
말렸
~기강
흥건
향신료
~df
호로
태영
344
##로직
##단체장
##ume
꽃다발
거제도
쩍
판로
실탄
~치아
~xml
괴산
##tn
##n2
에톡
다이나믹
꾼
##뽕
백남준
~lm
테트
캘리
벼르
물거품
~likeit
~~햇
~모어
pet
치뤄
~~었기
부다페스트
모티프
나스
##고르
서번트
~fro
궁녀
6c
~손금
잽싸
##겨울
숭고
~att
##케어
##세상
간도
740
퀀
한마당
내수시장
2300
##뎌
미신
귀향
~산전
~psi
화교
한남
~매니
~~에로
##푸라
##ism
음용
배설물
자릿수
낙관론
인도양
범정부
~회의실
~tnf
~betaicon
원적
경제인
결합공
누워있
헤드폰
조혈
##tia
ran
숨길
압구정동
민주평화
윈터
오싹
반원
~right
하늘색
되살
클리닝
카파
조윤선
오쿠
~tx
##닙
후궁
조선소
정일
떠올려
공황
석좌
~~담
은정
부스트
다독
중국군
전대통령
하마터면
위자료
끈질긴
~페리
ef
바닐라
~취재
~경험률
포장지
존재하에
이속
~천사
~열기
##임대
민가
mbn
인피니티
싹쓸이
임정
~복사
투성이
탈기
어찌된
사명감
1923
직설
~예산안
중앙선거
~hon
청송
청국장
멧돼지
초급
흩어진
청동기
박영수
##실리
배고프
1927
##이즈
홍차
캔버스
입법부
알자
앉히
ㅠㅠㅠㅠ
~단백질
김성근
~mid
~tea
일리노이
~어버린
티올
~식량
##추적
##par
스왑
바운
허비
처단
돈키호테
낙지
재등장
전북도
##포르
셀렉
##눕
기민
황해
캐스
빗대
봄철
시작점
뭉클
~테레프탈레이트
고화
감명
~billion
##nic
상한선
도펀트
ll
멕
힐러
~진동
휘저
김원기
~fund
~189
휘두른
성생활
~정할
~일한
~예배
~ji
중과
김해시
~공관
헤집
~exc
~def
~노이드
코웃음
염분
공방전
~계발
~~어들
cx
~워너
~isp
복고
~~다만
심혈관
본프레레
~nas
##뜸
화원
왼편
다이버
철도역
안겼
중성자
##cl2
~~려나
함축
아시아나항공
~시민연대
이사진
쏠린
자금난
응해
사회자
~hard
레드삭스
~sap
990
축전지
이간
아데
~공자
야당인
~조산
마리나
고은
ld
1922
조순형
영화화
개항
채식
불성실
~아세
1926
모친상
~pvc
##조차
##뱅크
##vel
패닉
측판
~asse
x3
선거제
폴리실록산
전곡
분개
맞설
~sky
깨뜨리
~하트
~절상
얽히
##망이
##르츠
건장
xi
중종
wcdma
##yt
난치병
헤라
뉴미디어
한것
##봉산
~doc
찬찬히
##해보
~매일
선셋
##사자
카톡
가발
크레디
할라이드
하지마
렌탈
공공연
~복음
~도가
차두리
이준석
##x3
숭례문
석탑
道
~피아
~콘크리트
히토
헤아릴
~발굴
~itu
이봐요
##필름
~els
어획
##hen
닷
~수학
~나비
혈도
통신수단
##dt
피그
주둥이
##얏
하림
수저
~우지
##디언
영진
상파울루
~병증
비동기
포식
레거시
캐롤
신산업
##캐스트
합숙
쌍용차
대림산업
~폐기
##한후
덜하
~천문
~bal
##로브
펀칭
타이페이
사이사이
##ade
이랬
오작동
메트
~coll
##산동
확장팩
군기
지게
~주스
800m
249
##보리
##디지털
이도
##ead
밥먹
~슬러
~부시
~ars
양옆
세액공제
땜납
~경제학
보이드
들떠
~체조
자유도
080
##sia
중요도
~expe
~카바
밤샘
~앙
김선우
~사키
원초
분만
마지
~패키지
영접
통학
철갑
제쳐
유지보수
삼성생명
뜬금
##ord
피롤리딘
어려워
양성자
mw
켄칭
수갑
발아
~문화원
~cmos
포름알데히드
코아
은행장
~포지션
rn
~sin
##set
##dom
신안
##궂
트리아졸
지나쳤
자긍심
~남녀
수온
내색
~합리화
헐리우드
따졌
~gene
채권시장
될것
##영장
디지몬
~축소
추도식
지그시
가렸
~ub
빨아들
카멜
~마마
~장착
~일시
~신장
##중앙회
스파게티
박범
따먹
~재인
##pg
~bcn
토성
마그넷
~rai
##바라
찡그리
부비
##폭시
##라기
짬뽕
삼거리
~정제
##픽스
회전식
선급
보러
데뷔작
웨어러블
듬
매도세
##현동
요르단강
선재
가창력
##나니
국무원
~반경
췌장암
보짓물
다모
거름
tio2
##元
각축
얼리
앞머리
오자
과속
~합창단
##ize
~prom
정감
비보이
##나오
##方
##在
~appl
헷갈리
튀기
이구
~음성
~당기
되새기
~합계
##the
전조
불응
~치킨
##ress
장제스
산동
노약자
네트웍
얽매이
~비평
신용카드
##로지
msn
229
어찌되
승전
중국사
이동체
발짝
~차부
주적
자성체
##은게
계양
성신
근친
절곡된
바하
맷
~승부
굴지
무가
망설임
깨어났
正
##oe
해변가
타이트
~mrna
전모
석조
~정세
멘붕
~교역
~cou
ram
##분양
##년도
좌장
1921
##달러
친미
야영
숙취
패해
댄서
~마왕
##mn
혐
풀려난
뒷편
~과열
다음번
~ber
북서부
~test
##을수
##눔
허겁지겁
왕립
노원
~일반
##베어
라운지
##유통
탬
총력전
불경
9b
찌른
저버리
을지로
블레이
~총재
##축에
대란
##주맙
파이팅
권능
##던거
안상수
묻혔
슬리퍼
켰
한국학
타이거즈
샨
비강
뒤집어
깡통
~~아와
##겅
루틴
~pal
저전력
~교부
##lic
이계
계책
~피리
~총무
~그래픽
##로로
예단
~second
##p1
정운
마우
린코
금속판
##어져
보안성
비바람
035
반대파
기준점
구면
가든
짊어지
##솥
정도전
빨아들이
~진상규명
~three
트리오
사다
빙글빙글
대들
##een
내림
~저스
정찬
있다
양력
~겔
중기청
~보일러
종마
분유
부주의
~남용
~~다오
순발력
명맥
그러했
~시카
~run
##봤다
촉박
가셔
역세권
~취하
로제
공시가격
폭음
##니언
기요
문화계
~정액
~pla
흡광도
~연재
순천만
~~까지가
쐬
전기통신
유품
라이온
##는점
수권
水
~many
##페르
고춧가루
~think
~spo
##건데
동떨어진
##지인
자오
~aw
##rch
수익원
빗나가
~졸릴
~관통
##교환
##볼까
활동가
종축
옥틸
自
~조종
분취
스터
##夫
전국민
개소식
~개폐
있게
열등감
동태
~퍼스
~클링
폭스바겐
##oa
화공
소모품
설악
~욕
~rock
fd
꺼낼
~가사
##도우
fu
미야자키
##걸로
장판
끊어진
~여간
~~칠
##k2
뉴욕주
와의
샌디에이고
##뎅
직간접
파종
~근육
산수유
광고판
세인
고사하고
##永
시발점
일부인
나옴
##lg
체인점
솔리드
~지배구조
노보
새정치
나고야
~아무개
원심력
재작년
신랄
별정
만무
톈진
드넓
듀크
##모임
훔쳐보
참작
매달렸
맞닥뜨
뒤졌
해부학
신용등급
~스태프
##lv
~장학
##협의
스폰지
농경지
고풍
~asianet
허망
~잘
##帝
멤버십
~~는건
##wl
푸켓
동시대
고진
##善
열림
~api
배신감
~만족도
리허설
다결정
은신처
라라
뻐
한국철도
벌컥
다국적군
생산력
원샷
~전서
직항
바램
xp
295
##수있
~ak
배짱
종합지수
김봉
~첨
박광
~인성
##체결
유즈
셔틀버스
곽정
g8
이바
~관행
~물로
철분
분향
글래
##것도
황량
포워드
~텍
258
##피온
##채무
~반송
낱말
##무소
언론계
아토
존립
830
한동
순대
연패
~북한
경피
망해
가가
~고하
줄리엣
전술핵
세입
브로마이드
~트로
일용
갸우뚱
럭키
~역학
제3항
이용권
블리
웨인
~아이템
야자
사회과
졸업식
김영우
~기공
방랑
과산화
아우성
보급률
핵폭탄
유마
~청소기
저글링
##잡지
막힐
~헥사
~fire
대할
~개동
##컹
후쿠시마
토치
타코
못내
mos
건설경기
##ole
슈리
밤중
모함
경숙
친서
안중근
~step
숙원
~바이크
##570
라스베가스
옐로우
마쓰시타
국회의장
##득점
투옥
최우수상
유지비
매스컴
~photo
##등기
룡
날아갈
~dan
청취자
녹취록
오퍼
~~느니라
끈기
개천
후송
리세
~sem
융착
유유
되돌아보
누각
망령
~astm
인솔
우수상
세비
~image
##브스
함체
절기
급합
~신분
act
파나마
하의
전지현
명문대
솟구쳐
극비
~덱
이신
안산시
~회사채
영향권
담지
네임드
홈시어터
정홍원
~컷
~eye
김관진
~university
~gal
##ward
휘발
에센스
미래형
피규어
별표
~리치
~~버리
혼합액
~디아민
##토프
임성
안중
~invest
적신
이병헌
문화권
겨자
하숙
312
노원구
~~어선
##보건
~투과성
~쿠스
~학번
##판결
황정
헤아리
급습
~라임
진피
수백억
작년말
~gui
낱낱이
시문
순손실
유효기간
송정
~공직자
5500
중론
용천
브라우
~근처
피나
두분
920
아수라
무쌍
다승
털리
~tl
4d
##xx
이서
상임위원회
서주
곤욕
bn
##샨
넥스
~acad
조금전
소송사건
~나이
##고지
오하이오
~관로
~process
##美
비너스
~gr
238
묻어
광동
~ll
운석
~황색
코드북
단념
~전당
##기온
번거롭
레코딩
~강재
##dat
이태원
그뒤
~~분
##지근
맛난
~보정
지쳤
현암
제패
낙산
##비율
##리그
카네
장서
개발업체
~보유금
##의료
##되면
화엄
홍문종
정몽구
유공자
##pon
ee
서린
내디
라파엘
##ose
페어링
음영
한정판
어우
스러
쉐이
서현
~틱
~적십자사
승합차
기표
##fet
노정
일루
압둘
불러일으킨
방증
피싱
알케닐기
~tru
311
에우
동박
y1
262
변변
##팥
~신문사
##b1
졸지에
라피
c18
인사권
##基
조각가
승희
들통
내려보
예일
동일시
능력자
노점상
##kl
투박
잔차
밀리미터
국제금융
싱크대
쇼파
~마라톤
브레스
바삭
명곡
~school
묵살
무연
##컥
##보상
##orm
내리막길
~~지거
##베이션
탈리
울상
반월
리퍼
나중엔
가라앉히
멈춤
~챔피언
##fs
통진당
카트라이더
자금력
~플래
~주한
목적물
글로브
~참여자
##음에
은주
시큐리티
포커싱
얌전히
~로도
~~습니다마는
~직업
세안
구심점
교활
순매도했
~~삼
건성
##분열
##갭
어딨
##전에
제막
이정미
상각하지
tl
원효
~플로
~공산당
##히드
~since
~imp
기압
군무
갈구
~통보
mgso4
~의사결정
작품성
~내려
~even
##101
외압
~축전
~full
프리젠테이션
##조리
황성
토크쇼
이롭
~집합
##솟
##erg
~번홀
폴리에스터
양천구
도인
~loc
감내
~proc
##ase
~플랜트
##무진
선인
도시계획
튕기
찹쌀
~결부
치어
빠듯
##이들
호일
연무
압권
분수대
~제작자
한겨울
중재안
##스름
완승
~학대
~~내는
중앙선거관리
연수원
살핀
사진기
뉴스위크
같은해
~도리
만들어
염화나트륨
날릴
휘어지
페스
외국환
부심
레이저광
감탄사
카자
재가동
도살
남하
하염없이
이끼
~매니저
##틸기
눈치챈
갇히
~모르
오재
부여잡
취득세
영해
손쉬
할로윈
지랄
수혜자
돈벌이
~어드
~country
정혜
뒷전
자잘
익힐
설립자
동진
~누적
##전선
빙긋
디아블로
한국기
판가름
~kl
##페놀
##公
역효과
도스
##시로
중앙선
일그러
실명제
반목
우스꽝
접선
과당
263
변덕
##동생
얼마간
기획전
영자
방도
남인
##지가
##뛰기
순교
검기
##비전
음란물
##틀리
##르타
##듈
##don
~공신
유괴
상록
고위관
~맵
티나
장녀
~프렌
10mm
##우회
아드리
~구조체
차안
~자문위원회
번갈
##쓰기
##不
다분
~오일
쇳
벵
##밧
파수
~cv
~부르
type
~복원
tk
Ω
인디애나
김두
점착성
라디에이터
독설
대통령님
늑
혼탁
딩
~싸
273
유라
##아트홀
보스니아
배드민턴
박사팀
~항공기
의사록
~조위
~오류
갔다
~죄
희극
외인
~연구위원
vt
##차기
상행
떠다니
경기지사
~지붕
~local
희대
슬라브
~증착
파고드
##나리
전문지
장해
약식
격한
~실화
314
통찰력
접힘
자폐
알고
경제학과
~방면
망사
##트르
체결공
pre
팝송
순번
뉴올리언스
~~세여
매콤
산중
준호
식후
부러진
무균
~tra
##네르
주효
종리
다짜고짜
광도
黃
이인영
다자간
차이나타운
연작
동무
~post
테레프탈
창녕
~재와
프랭클린
민선
~bor
복병
~표준화
251
igg1
사오리
##cus
내세울
~ther
π
팩트
어떡해
독한
##거같
돋보
##다가
줄다리기
동절기
끝자락
~gar
##즈카
~손잡이
부대원
날아
##yr
오백
~레이저
정명
텍스처
오열
노심
경동
~~거늘
##lb
인부
슈타
말레
낸드
##세자
황진이
정육
킹스
내미
가르시아
##wd
식재료
안양시
~풀리
~컨벤션센터
~유사
운동가
해봤
~연결부
##폭포
민화
가야한
308
원용
미끈
~~로나
nh2
트위
삽질
기발
특산물
남짓한
~메리
內
~상의
##렌드
환담
명지
~도마
##mbl
전법
~etoac
hsdpa
~사적
~마스
분통
~직후
##君
신경써
밑거름
온도계
싶어했
##고스
##거스
은행나무
~상위
자만
한조
판매가격
슬래그
대마도
안드
심미
~기아
d3
남서부
산천
비시
~싱크
~~더냐
애경
바우처
구조개
하나포스
ul
335
콘서트홀
죽임
복직
내놔
##c2
리트
~거들
~rest
언저리
드리블
~해주시
~클리
얼라이언스
~붕괴
##京
겨레
##無
##kt
243
써니
민호
~개설
총명
마귀
걸림홈
dci
##자재
##서기
일지
드워프
그렇듯이
피파
~~명
우화
뽑혀
밀쳐
들이밀
~찌
~가득
~~옵소서
흔들린
필라
반짝반짝
김덕룡
외세
막힘
주원료
~처리장
##티카
##體
모회사
완강
산유국
컨텐트
동그란
달팽이
##디스크
여성가족부
소모량
~기체
~겨
##바인
##마토
조승
정민태
바쿠
뭍
~here
lu
탈진
야생화
다인
아세
~상공회의소
헤어져
촌장
~자비
##식물
##랄라
~선출
축산물
뒷쪽
댓
교반시
321
##레나
아이리버
목청
~클로저
한국투자
요로
온도차
239
저장장치
족히
운영실태
생산업체
장동건
~아앙
자판
별관
메르켈
리플렉터
~히메
##상가
되어있
난쟁이
배속
~보위
~대상물
~kin
##스템
비행장
방범
~~장
판매점
았
산후
매실
교육자
가습
~델
통수
~water
##ku
황금빛
틸트
코스튬
쑥스러
보현
~den
콜리
~탱
~스트레
에리카
~폭격
~페이스
~ing
##국제
경계심
추진위
~의뢰
##만t
도태
~되도록
김춘
반야
~케톤
~주거
##ria
미하일
##타틴
##브산
##pho
크나큰
~수계
~라이프
##enti
급선무
글러브
개시일
~땅
~~둥
~zi
##十
패트릭
찜질방
~million
산사태
마이니치
~para
##타인
성녀
억눌
~민원
~credit
##rma
비철
~군인
~wr
##安
이어나
오장
~외국어
~~에를
~일부
~소각
~세스
흐느끼
명승
~폴리실록산
~히코
##시네
정량화
스폰
격동
포자
남북정상회담
~게이
276
유선전화
섬뜩한
복합기
간수
유병
김동진
예치금
李
~수축
##리노
테스터
마구잡이
~대군
불상사
안절부절
때우
##하우
빙빙
찢겨
뾰족
241
197
##리사
우열
야근
규슈
~~하지
##찾
콘트롤
초산
~마이크
##木
지력
이기주의
심지
##배당
##fer
잘된
까페
강산
~무리
오묘
의문사
구구
##인터넷
적수
안성맞춤
홈즈
~peg
~help
발기인
##lk
조재
일산화탄소
승강기
뉴욕시
~카츠
##나이트
샴페인
~ban
눈시울
~명칭
##모프
coo
1904
허리띠
이사국
~kc
미나미
~보내
~노부
##턴트
열강
깨워
~1110
불면증
번뇌
국무위원
하지원
카트리
데려와
##사실
조모
접했
~여력
부풀려
~정보통신
~니코
~~지자
~mil
~네이션
~eas
한보
스카웃
반점
김태균
~우레
~새끼
##都
교각
##rac
숙신
~우치
부교
國
##정지
##비츠
짓눌
~대여
~~고서는
##p2
쓰러질
~연휴
~봉사단
유통업체
갈치
댈러스
rr
벌칙
고딕
~플루
타보
sch
학술지
~spa
1906
##era
~신주
##도리
##종이
~추출
~스티렌
ny
##380
홍영표
외부감사
~app
~2004
##지출
진입로
1912
부품업체
##비닐
~기원
카우
오간
정평
~의도
##ili
예빈
사이비
##llo
섬뜩
뺏기
무화
덮친
은행주
##고개
곡들
~의약
~dvb
밸
기자재
##gc
열심
발권
##응답
##澤
별빛
317
몰려든
고령자
원딜
발한
감가
~응용
~로비
~let
노숙자
긍지
관련업
008
##새끼
석실
독과점
고역
~~어간
총공
멜버른
감압하에
##어터
~전설
홍문
술렁
##에있
##삽입
진탕
문수
~talk
pdsch
15k
015
목표치
라한
다마
참모진
~tcp
~old
플라워
방청
~인적
피부색
감춘
~의존
##버릇
##tive
뻗쳐
구의
~~시요
효용
소다
다가갈
개종
~현과
~지질
어긋남
걸어보
잉어
영창
bea
부위원장
모셨
공경
max
일어선
이비
주주명부
불러일으킬
~신인
마부
가르칠
카탈로그
꼬박꼬박
토요
일이
방파제
~young
피혁
파랗
능욕
프롤
오스카
예하
분데스리가
~키노
##고나
##데칸
이율
걷어차
~무시
~sto
하치
시퍼
이적료
사과문
후추
코지
지겹
~상용
atm
세비야
~cour
##전환
일동
완연
에스케이
노블
선하
~빅
무용지물
##정이
##대비
쿠사
구파
벳
삼국사기
떨어트
##공제
제조공정
디펜
~소지
~도움
##어야
실리케이트
다당류
난데없이
동작구
~파스
~스퀘어
5d
##가입
아르메니아
섬멸
##重
~세척
##通
깨알
##교도
미결제
마미
도망칠
내지르
둔부
꽃게
~준비위원회
~대표부
잔금
작업실
비통
두리번
내저
ve
##인해
백상
~~직
##sse
않은
갈아치
안재
~안전부
암묵
배양액
기혼
관찰자
~사관학교
##쿠리
~대성
##지방법원
##막염
초지
선데이
상투
바젤
그런대로
##센스
~~아줘
민폐
~존스
~제화
후루
##oli
호들갑
편익
소기
레슨
~지론
호구
빠져나온
##석유
펜틸
세가
두시간
덕담
내과
col
##스틴
##hip
예결
쌓였
한켠
추사
야쿠
망가진
##퀘스트
##bro
연소실
썬더
로미오
플래카드
##글루
시크
띄웠
~배아
휴우
##찐
헌화
~전해
~스타디움
속인
미가
~저작권
##롤리
최수
잡스
경실련
~백과
~meoh
폐인
완패
스케쥴
##가르드
핵심기술
~주장
60m
##유치
웨이크
웅크리
에콰도르
무턱대고
~듀서
4409
한목
~뚜껑
낱
~탄력
~fx
응시자
비금속
마타
~~으려다
##士
진호
~워터
##인줄
~뿌리
성북구
원로원
따듯
꼭꼭
kf
~주공
~kotra
불로
돌아본
한분
~~랬
정치력
고약
평론
입영
고여
추징
팀내
추앙
네일
##깎
비데
루즈
대학가
##원자력
8g
변칙
베른
긁적
##탈리
##사르
유산균
심포니
노루
~진흥법
골머리
~대차대조표
사십
~약사
~물건
~고추
오죽
맹자
~방송국
설명서
독출
##나물
상황실
어울림
로렌스
##렝
페레
클락
송병
밑창
張
하이엔드
저스
미스즈
~~이며
힘없
~hiv
서양화
모닥불
김명수
##보유
프리프레그
알약
abs
고스톱
~물림
~서부
~백서
해약
율동
~접시
9m
풀려났
공업용
아쉬워하
##郞
수경
##목적
##色
맹수
늘씬
~멀티
##니크
수임
##nr
활자
지어
아세토
~force
끄덕
##오름
##물가
~쉽
~rm
##각형
창작물
불붙
앞장섰
##cke
유종
원룸
밥그릇
마이크로웨이브
득점왕
자객
기자실
철길
급작
~받침대
서울지
곁들인
##phi
참새
유후인
회원수
에틸기
금일
~점슛
~석유화학
##tel
휘파람
프린스
유대교
넣어
~접점
친히
서프라이즈
몰아붙이
대보
##대행
~바우
프린
정교회
~흡
~사과
930
##밸
피카
차입자
왼
호드
부가가치
별미
##dro
파마
생존율
~사위
~권익
~~테
족보
~~노라면
~nature
##킵
노승
격전지
강직
##sec
자유당
덜컥
~이념
아성
1km
##ack
수십만
혹사
눈짓
나그네
속칭
##부동
수수료율
氣
##ara
연착륙
충남대
라임
임창용
~~집니
공론
~학점
##했고
##줘야
응답률
부싱
메카닉
##mat
충치
이체
~수석비서관
풍산
악령
근현대
자주포
방비
~상실
~very
베라
막중
~운수
~mari
호스텔
위젯
##ution
수험
김태호
##에리
##국수
~~아들
~~아다
현주소
~조리
~spec
##푸른
##옥산
##들인
브란
~지회
~pha
~~졌기
군민
~1017
##지른
기나긴
튀어나왔
뿜어
덤핑
제조용
실추
~where
##올랐
돋우
진입장벽
~풍이
##ji
데스크탑
全
comp
##라서
~로한
울분
부행장
~ㆍ1
인간형
~~침
ddr
탄성률
심술
과도기
~밭
장용
방조
납기
~발레
##nes
~~건대
##키오
b7
도로변
버젓이
다문
논현동
송종국
~징수
~nhk
##해석
해버
286
##처벌
강모
##일정
감소액
~심은
##안에
##官
~week
~states
앤드류
과학계
##됩
~평면
~~우나
~~아버
조던
연장선상
가브리엘
상환기간
~reso
직불
스쿠
우문
수송기
~lib
~then
282
태고
문민
나들목
~매물
fs
펜탄
전기이월이익잉여금
기품
화성시
~재팬
텍
천신
요입
에일
##챙
##분리
##平
치환기
~srs
##꿈치
에레
덤비
~외환
제2호
독살
치켜들
~해낼
엮이
환장
사재
보수당
~th
~contr
##한것
지극
~점포
~나기
헬로
벨리
들어올렸
~hel
meoh
나빴
##산맥
현상금
오렌지색
~스크류
~간과
핑크색
~타를
##바니
인산염
아크릴로니트릴
집어던
몰릴
몇시간
덜덜
교반했다
009
수일
~van
재생산
오르가슴
비틀림
범한
~입금
~reco
곱한
오송
배수관
달라이
##큐어
푸념
잠재우
사상가
~테일
성심
놀래
##tri
할인액
8c
침울
프로판올
미유
공덕
신경계
호르
조목조목
극작가
~ali
허상
중임
황룡
정발
미스트
채산성
말소리
~tt
한몸
셀룰로스
서기관
드로우
프랑스군
적가하였
사왔
쁘
계약기간
##나기
##xt
지스
본계약
센트
바닥재
둘러봤
금광
fp
~사이로
영남대
애프터
문과
수비력
~재원
##ene
미성
##백화점
탱탱
청년층
~체포
~송신
~political
2km
이병기
도둑질
다방면
고출력
걸림부
가역
~tour
호흡기
부르주아
네온
~부의장
초소
인수인
박수현
~수조
##네즈
두근두근
~취업
1gb
종주
두눈
##이전
줄기차
송유관
~파동
한글화
척하
여보세요
##핍
##분자
##nne
청수
##하자
재배열
일회성
못가
마천
~security
##용품
우천
림프구
공공연히
살균제
카마
와류
글렌
~캡
향할
무브
롯데마트
지명도
쑨
지속성
어우러지
움푹
달아오른
~expo
찾아갈
샌들
par
##空
마테
~사별
~도사
실거래가
pusch
mme
전의
무속
동해상
~정내
~기류
~give
토비
에릭슨
살리기
뒷문
냉담
학파
청혼
유원지
##문서
##노스케
조원
막차
경기전
블라디보스토크
병아리
목화
떨어뜨렸
~변제
~der
후끈
비로
국무장관
곤두박질
~쥬
##시기
##리거
대자
~서스
~관광객
~의상
##수술
경북도
7c
##었음
~kia
##pla
택해
정례화
~간만
짭짤
술폰산
레고
네임
~승1
7500
스나이퍼
성채
부반송파
반값
##그라드
부산지
돌산
~병서
~개구
940
##했으
##e1
출소
상품명
~심리학
~선배
~sco
장성택
외숙모
구조대
팔라
헛되
따끔
피노
백혈구
돌아볼
도처
크립
멀미
psp
##신저
은유
에이미
불러온
~크라
총리직
업무보고
kia
철사
뛰어올랐
강창
미크론
~쿨
방위비
포니
실연
콜레
##石
##寶
본받
모자란
올라올
먹어치
ㅋㅋㅋㅋㅋㅋㅋ
~ser
##찾기
엠블
레귤레이터
~다이오드
독식
껄껄
일본판
~사리
착석
~ㅋㅋ
~이더
등장인물
우량주
~~왔기
페닐렌
~정공
~예비
인쇄물
구설수
표층
스캐폴드
~esp
통신시장
임명장
비이
자이언트
상속세
병든
레이첼
~레인저
엄습
눈감
~타일
~어시스트
##재정
##ind
청양
잔당
##에르
최경
유제
아디다스
화난
헥실
~영입
한가위
유니콘
메리츠증권
~장수
~웨이브
탄력성
~건과
~~드릴
효용성
은둔
김황식
코터
최용
맥박
바레인
##두부
웬지
연가
~pin
~chai
n3
취침
##204
후식
캐스트
~방과
##form
중질유
족장
코끝
신칸센
부안군
~어업
502
##vil
피벗
동화상
발생률
~~야되
한글과컴퓨터
##김치
##공동
골인
위화감
리얼리티
##소재
여고
##무늬
##는곳
이로인해
산산조각
##ied
부서져
첫째
~냉각
df
##신장
요사
2100
칸트
웃돈
답안
##주세
유소년
홈피
첫걸음
민박
단도
관중석
~증기
##하려
##보조
불용성
##ail
자칫하면
손혜원
대량살상무기
꼬여
~급등
##gin
은총
##문화회관
예탁
384
잘리
귀경
~시가
한게임
루돌프
##헥실
##우우
##성장
~mot
oecd
1911
빠를
가로채
호오
~종사
투신사
온라인상
323
폴딩
싫증
끼어
~전계
##토이
핍박
넥스트
~harry
소희
~관리위원회
##bor
적셔
북아메리카
현격
만수
라비
동월
카보
어플
압구정
비엔나
~퓨
~집계
~은행인
##겄
하쿠
안내문
~book
어쩐
백범
보내온
##얘
일인
상당액
빨갱이
268
좌초
조공
천차만별
연도별
금하
##언니
수나사
멜라닌
247
중부지방
##야시
호사
트윈스
타올
웨이터
실리콘밸리
구속력
~하단
~에리
~1116
조인성
~~이도
~wb
치켜세
끊겨
갸웃
~명소
##이오
##오브
##뻑
투표권
미카엘
~cli
모네
~엠
##mar
나직이
444
현행법
에티
##있기
~사구
청의
처마
좌완
영장류
야후코리아
##omi
범위인
문란
~우수
~사이버
##長
화강암
석달
~포니
눕히
긁어
##볕
##하락
##rg
~~으랴
~sdram
폐사
송년
~~거다
쏠려
뒤적
~부자
투입구
장마철
복통
만반
퓨처
이영애
070
입후보
옮
##던스
친화력
최고봉
아시아권
~안건
~ww
##법상
추잡
조나단
271
##였던
부라
보위
~between
통찰
~현미경
~실리
##라이프
뭉친
~~아대
gui
1909
한ㆍ
밀치
메기
양준혁
북남
그는
~소방
침입자
제초제
자국민
물동량
그라나
##인터
~조직법
##세대
##사랑
스낵
##대국
중유
에밀
지네
세계경제
~method
영결식
커다랗
비구름
~summ
##챙이
나쁠
911
##폿
##전도
손놀림
사용가능
굉
~가자
~~개
착잡
익스플로러
알찬
헌재는
무인도
~오렌
위약금
사키
리베
레이턴시
316
피라
##어택
콜로니
쥬스
안무가
~fig
취약성
주요사
~사절
##팔이
##촉진
분율
~코와
##제지
##제공
##마련
체지방
아티
궤양
##ket
이즈미
테러리즘
무패
~investment
~호조
송고
백기
김주성
~leader
주면
육사
수평선
말다툼
~보험사
플레어
동자
##뮈
유행어
외야
비룡
소매치기
사브
~bw
지배권
자아냈
모름
값진
##바구니
##ned
##med
까이
징조
브라더스
~티타늄
~연락
150m
자급
심호흡
바베큐
~캔
~밥
##하하
##기념
싱어
광진구
사납
##가도
인구수
~stor
바그너
~~니다마는
떠맡
조끼
269
051
맺힌
단초
최은
유년
선택성
멕시코시티
##스틱
윤동
~during
한구석
캐비
윤진
에탄
다수당
##sen
예슬
압박감
살아있
버즈
##티스트
정상회담
~해설
~드라이
~seri
타로
~존의
~came
401
허니
연합회
메릴
~sic
조양
~악단
~부령
~fda
해인
산은
##앰
데스크
어슬렁
로마인
##부인
안긴
비보
창덕궁
298
주입구
##독성
샤넬
~킬로미터
급락세
이름난
전륜
무기물
나프틸
~후반
~학급
산세
북위
~년물
쇼팽
력
~통신위원회
전자석
말끝
지윤
오디
박제
열대야
분리형
##어머니
요긴
아카이
usa
kp
전관
인허가
운동량
상보성
게르만
할수
중엽
토출되
석유수출국
경부선
병상
두근거리
아편
별지
목성
머플러
~place
수렁
사들여
백령도
경각심
~페논
~금전
sy
##카쿠
유목민
~목과
생존권
~단일
##201
##히로
##메드
합세
전령
~추이
##진단
출당
원적외선
~소속
연명
산티아고
무보증
~플랜지
~지한
~넣
잔고
에라
내식성
~추위
~안테나
~tel
판이
수용홈
노이
통근
~manu
##드라마
무기질
등록세
샅샅이
복원력
밑면
단과
다녀올
~번가
⑦
냉동실
결의문
##성명
수익증권
거느린
경영성
~회계법인
cf3
##카르보닐
익사
겉옷
건강상
착실
단량체로
으레
여액
태동
색출
걸그룹
콘스탄티노
~map
흐릴
이상민
남다르
김영철
~large
##다스
인색
삭발
방과후
##df
블래
미지근
안영
부자연
결합력
~티드
~리서치
20mm
20k
0g
통감
이천수
두고두고
~클리닉
~afp
##은이
##아미노
첫발
감출
앤드루
비아그라
발렌시아
~시클로알킬
##ㅎㅎ
마장
##雄
우왕좌왕
쓰나미
가트너
~근로
274
##산리
히카루
쌍용자동차
랴오닝
322
##몰이
##추어
통신위원회
선유
~mhz
포워딩
지원책
성동구
노상
프리드리히
불러들
규약
~오세
사귄
싫어했
~증명
##크림
건전지
~kdi
##메리
합리성
어떻든
리투아니아
~ㆍ4분기
##었을
##소자
투자전략
맹공
고쳤
탱고
활기찬
스토커
순화
코마
남서
행각
지난주말
신해
백서
조작자
베푸
~동맥
met
만화가
~로만
##니트
##레브
자본가
보름달
~수사국
~~한테도
~~겠는데요
강팀
~압박
~부두
희토류
~이어서
포션
십대
헌팅
선혈
반구
라이온즈
##nf
홍역
측은
##마트
##갈로
신조어
~시범
후단부
이춘
정중히
상류층
다임러
~물살
슬리
소꿉
성리학
라자
##마이드
다이너
jr
경기도지사
알게되
돌멩이
총서기
그윽
가이아
~목장
오목한
경제사
~가하
여백
~지와
신계
닉슨
냉간
잔량
삼성테크윈
노후화
##일기
##이이
휘트
일말
cv
제조물
~현지
호송
~~아봤
수형
거슬리
~mark
내막
한의사
난로
sv
##셔너
코스닥증권시장
~공백
조선업
일약
위험도
손익계산
연단
~폭시
주눅
~배양
##회로
누전
극장판
천호
~미수
##메톡시실
저장탱크
교화
~주세
재장전
~~다던데
영유아
리바운드
##sit
요절
순이자
000m
한결같
~남매
##멩
코나
~수렴
횟집
##ao
정액제
~~아진
수협
윤아
광개토
~콤
혈세
##따라
발진기
##제강
##路
~맞이
굴레
구부리
으으으
##르륵
파이버
10b
마법진
~rpm
~nan
콧물
~development
군축
~주니어
~electronic
알아차렸
고소득
~호도
cgv
했을
타산
~still
삼청동
맛본
간병
아리스토텔레스
아이젠
##stic
~바지
##균형
정광
아뢰
교통량
##동포
그만둔
~날인
도넛
당내
갈음
ccr
브렌트유
~진보
~배구
~~먼
##엽수
##석이
진원
시시각각
##tar
##ech
악인
미등
##바오
~price
이상형
윤락
나아갔
~정수
~dream
패인
중턱
그랜저
규합
~등본
어벤
아태지역
두드렸
##령관
박봉
도표
~부금
오딘
새내
병원체
가자지구
~모두
쇠약
속도감
색깔론
매드
드러누
~상각비
aav
캐리지
니콘
~혈증
성자
리포
떠나가
랄
~비료
~도료
~wom
~opti
##시켰
입도
백룡
리시버
김이수
괴력
소릴
내셔널리그
~천주
제이미
박아
따라갈
cor
267
은자
엣
마기
~성급
##ware
저평가
유채
그라비티
윤회
끌어당
앳
송영무
동의안
~오브
원기둥
~로마
~감찰관
##레라
##베이트
##는걸
조절기
암수
~nec
257
호신
천박
가식
~우선주
알아봤
시추
듯합
~jis
~fac
##타이어
##기소
이용호
자조
빈곤층
남동부
194
흐윽
해볼
페니
~gh
~change
이븐
공정거래
붙어있
##곡리
좌표계
~야스
흑룡
저밀도
오리엔
~사령
폭언
틱
~전파
행선지
지석
스프린트
~우승
fifa
##버스터미널
팔각
이라크전쟁
수포
대비책
김현미
기압골
~제제
천인
요충지
프로이트
마흐
崔
협공
비상근
공갈
261
##x10
캘린더
외환위기
야쿠자
끄떡
##이신
팽팽히
팝콘
파스텔
쟁반
324
화목
원동
~이주
떨어
~부내
~기술개발
포항시
종범
정훈
영업소
베로
~익스
##바이오
##꽂이
콘택홀
어빌리티
아노
드론
뒷골목
노모
~plu
##테크놀로지
##맞추
실학
시험기
김종민
후임자
타이타
오공
현종
해칠
자인
제이크
전지용
~인플
~이라크
~옆
##트릭
~white
gg
뒷산
사쿠
동식물
달라지
날아올
~master
역사교과서
악단
~성체
~밸
292
택할
웨지
애벌레
~민심
지칠
보여준
당주
~순양함
355
혈연
총사령관
온돌
어드밴스
식재
등기부
놀아
돌아설
콘스탄
저소득
~사졸
~남과
~rou
##충돌
토라
의인
~수재
~soa
캐슬
잔여물
금융감독
우롱
성격상
~tre
##命
면사
볼만한
~잡이
~연구기관
~라니
~구미
저울질
328
012
후반전
정규화
장방형
성북
성년
체위
은거
선서
휴전선
바꿔치
근시
##또한
판독기
솟구치
미일
~card
##이야
유충
소수자
루니
313
질끈
벌벌
~mag
헤이즈
kc
공포감
강단
ff
##명령
막스
~술포닐
~전위
이언주
원작자
가토
~경북
cdma2000
우루
담판
울먹이
~~워져
유채꽃
아랍인
고군
반원형
고려사
~~교
##스러운
프레젠테이션
좌천
음흉
太
~ear
쿄코
임재
스퍼터
다각도
##lar
의연
선결
이론상
##sing
사회주의
고우
##hl
메인프레임
##듭
타악
도자
금속막
~imt
눈보라
~일체
요나
감천
##ded
전희
아으
애덤
관계사
~아까부터
정설
~조례
~니트
##플러
##제작
절하
섀도
그릇된
~반지
일성
붙잡힌
##스카
휴면
배고픔
중후
동탁
보약
공중전
거사
박홍
~name
vg
핀잔
씨앤
분홍
김영환
거침없
##보였
##r3
~엑스
281
##던트
~tan
프레데
어투
얼버무
발췌
고자
~법등
##루아
몰골
직거래
~~졌어
재규어
박석
경쟁요소
처할
발했
태화
김상조
관악구
海
fn
읍내
사파리
버팀목
디비전
동감
~~워야
실신
가지런히
~본드
~tho
타우
듀엣
~음반
~상영
~되게
전도도
수비진
렘
~상각
~~시려
~current
##合
중공업
##무장
고을
~cis
과표
~이해
이해관계
~npt
##해결
영애
본전
베어스
아무데
롭
~도메인
##형성
##수행
증권업계
둥둥
##다드
##는분
라오
클라인
산삼
미룰
먹기
고조선
바야흐로
~관련주
~fea
~auto
##부르
투덜
외제
왕정
돋아
토스카
울퉁불퉁
꽃밭
~파라
~special
뗐
##연맹
아테나
불교계
글썽
bar
위트
단신
파밍
서상
멸시
제1기
잠시나마
~~어드
텔레포트
살결
1895
~ccd
때려잡
##하르
조지프
떨쳤
게으름
조셉
동승
내려서
##돼지
##나카
##分
익살
마누
~friend
신간
~물리학
~turn
day
황폐
문짝
모멘트
니콜라스
~하중
~~거냐
~가열
~nic
##sti
이가
쉴새없이
~mmorpg
11b
인문계
위나라
영상화
미완성
~둘레
역적
~~다주
~ten
배부르
성악가
캐쉬
사천왕
로빈슨
도움말
헹
타측에
불고기
물린
대류
~방출
296
##가능성
흐렸
~found
##합의
허세
솟아오르
피서객
체르
그랑
넵
귓전
현철
코소보
괴롭혔
우로
나아질
길쭉
공격형
브론
분란
~만년
~기념회
690
##형태
흐응
호나우두
일터
번뜩이
~천왕
~bit
na2
asp
##십자
~기독교
하품
풍차
중앙위
신민
##이였
##s1
승상
벼룩
록맨
~clea
쥘
사이먼
빼먹
달아올랐
개인투자자
~동아리
##홍보
황인
호미
편대
~게임즈
최창
수그러들
sms
##반기
금단
그지
327
전산망
상미
무안타
~video
~hot
13c
##소문
##pen
포효
클레어
서슴없이
~시사
~late
3r
로이드
검도
히나
멜리
답례
r12
ot
반정
고속철
~주총
쳐다
##nta
사족
강금실
~rl
~nov
##治
북대서양
##꽁
##즈키
##바리
멜라민
ut
한푼
용문
비틀즈
건드려
~대용
~~줍니
옷깃
무질서
~단식
~기장
##카제
콜로세움
넥서스
~ele
리프팅
대표성
꿀맛
러쉬
地
~시킨
~궁전
~log
~전문대학원
##ㅋㅋㅋㅋ
##iva
씽크
밸런타인
뉴델리
철쭉
이분법
63빌딩
혀끝
헐값
진균
오르내
예천
물어뜯
~아프
저기압
##어로
시달린
서툴
~ris
336
다발성
건축용
##ology
헐떡이
젓갈
이등
밝힘
희비
이글루
명복
마이크론
res
~졸업
아웅
넬슨
수선ㆍ유지
비견
해외사업
위즈
상대국
배심원
곤돌라
~face
##lly
소마
생분해성
껄
~탈삼진
~돕기
적립식
259
공급업체
~완성
~wor
~rights
~gold
군국
피겨
에덴
드높
##dow
화법
헌납
한명숙
옥탄
공천권
~분업
##차량
초속
도의원
##칼로
##二
~청정기
오사
시만텍
무고
작업시
~전술
사투
~획득
~~께는
정겨
z1
##에스테르
##동네
장강
신림
##rom
형형
멜라
돗자리
관계인
추스
소리내
~클립
##rge
한국산업
코레일
잡담
우진
무혐의
모기업
##eat
찰싹
~자랑
~gla
~전부
##mt
도성
블레
부침
2800
##럭스
불안정성
되묻
도지
劍
##의무
왜구
선입
스테이트
미쓰비시
카탈
##무제
예장
구정
상념
불용
~지층
~박테리
열병
물적
디에
담기
~~차
~하심
~청자
##톡시실
##소니
화끈한
비엔날레
걷기
해인사
6500
쪄
위계
베이컨
ppm
nec
~~아두
유노
~임질
~어로
##記
~승지
~슬라이
##디오
한풀
~url
릴리프
공차
부종
못쓰
~연봉
~교포
~swi
카메
~레이크
##용성
~무위
디메톡시
~~주려
~~내고
##ros
##ich
쌀국수
고위층
어항
~선이
날조
하코
안토니
타월
~착용
##ani
미도
달리기
~conc
데이브
니콜라
호안
종국
고물
2600
##윌
파브
저음
바닷속
##접촉
##공정
시험발사
##들린
불가침
김동현
~mir
##케이션
##쫄
결정전
~랩
~나눔
~rol
공복
대기권
708
추징금
332
칙칙
세트장
~요청서
##체육
필수품
마운틴
##의정
##메니
~dsp
##하면서
##바트
w1
##강도
~동차
~발달
hy
##rts
육중
앞다
~하늘
~수표
~~었다고
##지로
플레너스
아파트값
아지트
기자회견
##시스템즈
##wf
매카
~플랫폼
프리랜서
음침
~러시아
##헵
퉁명
277
형량
처자
우러나
거스르
##지간
~커머스
##뎠
시책
~경관
##솔루
인도인
~나들이
278
##디아민
잉태
산업부
캉
맞물린
~절약
~aid
##이미드
##cg
바스켓
디디
~형부
##선언
암반
한화갑
무빙
녕
개인사
인기척
##토닌
동사무소
간략히
~테이트
~총계
盧
진형
엄호
속사
비메모리
##x1
~폴트
커넥
제11
~~을게
##皇
도와줘
김광림
감초
~major
##요시
화물선
들어줄
mac
##0m
절곡되어
도소
대니얼
끄덕여
~issue
폐교
체외
중견수
~~줬으
##실록산
##샤오
비구
##자유
아델
시공간
보체
~1103
##맨드
원양
언어학
되짚
~경연
철조망
아레나
류지
공연히
거슬
##마비
글리시딜
헤파
조난
무제
홍의
죽전
미애
~선임
토이
신난
기지개
tti
숨겼
~나인
~과학자
회신
집념
구세
문고리
기댄
##사유
물러설
~시행령
방벽
무기명
엠피
공사장
lin
정찰기
~share
명수
뻗어
##은건
크리스틴
고위공직자
##2000
해안도
안할
폭소
본보
간청
##국장
~바이어
예정지
~because
팹
맞장구
341
##마크
리필
~발표회
찌그러
까르푸
근육질
권투
~number
##릴라
##루미
트로트
광폭
~esc
체이
선경
사회보장
2700
##타노
##wo
합의점
납골
~europe
파시즘
누린
~공천제
쥐어
신용한
사발
병들
백련
독차지
##의자
중요사항
간사장
##tal
차려입
전집
엘리스
라이닝
달달
~연예
컨택트
양재동
다용도
~버거
~rec
wc
파급효과
~move
편광판
##농도
흘러간
왜소
도읍
강보합
##계좌
칠곡
유벤투스
다락
갤럽
~정보부
역상
도입부
고동
아오이
##탔
시름
선출직
~티탄
~원만
017
여성부
사민당
길들이
가제
##웍스
##뿌리
~기준법
##口
대정부질문
비도
~과학연구소
~kis
~bis
331
랫
간사이
~개시일
캔자스
돌아다닌
~이양
~아세트아미드
##튬
아마디
아로
도사리
##루트
실비
구본
##수입
스컬
못미
~대책본부
##하시길
##노래
득실
뭡
~부틸렌
~pharmac
팔레스타인인
주물러
조서
에스프레소
순증
성큼
빔들
발트
레포츠
##학습
우회전
독촉
강훈
~team
~데이콤
지휘봉
루디
묵시
주식회사
##마나
정모
전황
~~는지도
##헉
박격포
끼운
~할당
올리버
##측정
보합권
박주영
다형
~생의
you
이영호
하카타
이승철
운영위원회
도전자
격침
~몸
트롬
루카스
~침대
##香
이두
억대
묘기
광전자
결탁
~ly
~kos
환경친화
부도덕
~~렴
~~꼬
방점
맏형
~호흡
~신앙
양정
김용태
~~줍
빠져나왔
~ven
##根
전군
미토콘드리아
궤멸
페닐기
오케이
~pay
~earl
##시고
425
타타
갈랐
~대식
합장
프렌
채광
숍
프록시
월터
##톰
쓰촨
미쿠
혼례
아사히신문
광둥성
직할
윗면
~운비
jo
##고생
집성
세네갈
##주머니
##요리
##傳
주모
재시
~동반
~east
0001
##미드
~상어
##퀼
##리서치
이철우
~ana
인하대
시음
불경기
격정
~산업발전
후계
차주
zr
~~다더니
제빙
~~내며
~vii
adc
압바스
생산물
~필수
~우로
##해양
파티클
일그러진
~실릴
노텔
##테라
##몹
##결제
직함
숙면
서울보증보험
바스라
먹고
~순익
엑손
두텁
##우라
프리뷰
주안점
조강
드루
검찰청
~gd
##nti
운기
법치
되버
~sus
온열
~~에서든
amp
##파스
##앤비
##pha
파타
메운
파상
대운
했던
조수석
오그
옐
신공
바이올리니스트
~고래
##오닌
하얼빈
뉴턴
대지진
~부산
얘길
가야하
최고령
방명록
##pre
퓨리
~선대위
~서점
##hs
신혜
~조사위원회
~보자
~~어와
~무상
~must
##물량
양형
297
측면도
양기
타박
산청
##목표
토플
식습관
대쉬
기관차
020
허혈
~상하
시험장
면직
꼿꼿
##우먼
##hed
어지간히
승급
동티모르
눈알
##레인지
신인상
기막힌
~강세
##d1
학내
렌트카
자장면
맞잡
~댐
아구
당좌차월
~유니버
##십리
##iz
열립
발색
050
지향성
##tex
실랑이
~도착
수정란
새롬
##훌
함안
이중섭
반사광
~fri
284
~접근법
~tai
벌렁
민혁
기록물
특약
세르게이
한국민
폴리아크릴
도의회
그란
히스토리
케익
자유로이
비좁
~카타
크크크
종교계
상추
궂
워커힐
##ship
진료비
시큐어
공동연구
##바드
##는다
혜영
패왕
생존력
피코
수신료
눕혀
~곰
~개정안
전후방
심연
~우라늄
##하임
함유율
가입비
가시광
잉카
뭐해
돌려주
녹십자
~영수증
응한
~general
of
뒤돌아보
gw
중소기업청
걸음걸이
~추구
이상수
가도
##에버
피구
송아지
궁수
石
산만
벌집
뒷걸음질
~~결
함박
~아닌
##깽
한국기독교
손상차손환입
방부제
~~부터다
~emi
지고
개최지
t4
중장비
소지섭
~공판
~~놓으
짰
##타고
율곡
칼럼니스트
연변
발빠르
##몬트
##딤
##work
차륜
순매
선구
들썩이
~극성
##양성
##아비
향응
어찌됐
~정립
~own
##太
그때그때
##세르
##론산
웬디
~전문회사
~세금
부시장
댐핑
~pwm
##안내
저당권
~회의장
~trade
##셰비
탈옥
비히클
~마드
투고
식견
계산기
고려대학교
##했는데
##부타
##댕이
흑의인
정아
~스트리
내질렀
~광막
kotra
의술
속죄
므
~배당금
~금지법
##羅
천주
불시
아로요
셧
##던것
허수아비
~부근
빈티지
경례
발맞춰
원정대
##올려
다른쪽
니카
~west
강유
인덕턴스
배수로
동교
~spp
혈안
오른편
빽
미술계
핌
로페
두번째
~시그마
##비안
미국계
골조
~타제
황무지
유토피아
선화
~이어
##多
태광
지참
~행보
~1028
##더링
역삼
밑도
u30001
포문
카밀
조재진
팽윤
서라
낸시
~동생
##피페리딘
차릴
조밀
소작
모르폴
##렌스
잡아당
고품격
있었
승차권
벡
##部
사포
~닌
##a2
통념
아치형
숙련도
맞이할
~탈출
##져버
##브란
편안히
##쿡
현기
엎드린
##글리시딜
태백산
~지불
##둘레
##궤도
404
##블로
쿠스
쟁의
구술
##산업개발
##lan
컬렉터
영주권
볼링
~수화
~dip
##제르
중퇴
~tom
차양
상업화
~인양
신재
상임위원장
##대왕
터브
전사자
~agen
페라리
올립
음반사
아카네
메사
~통합당
##ced
초중고
미각
디스커버리
애국가
중위권
아카시아
봉사단
~제자
쓰라
견적
~관객
##트리메톡시실
허우적
심재철
방아쇠
모조
~명단
~internet
##홉
주경
정성껏
샤리
골대
~릭스
발대식
도요
~논쟁
~arf
##봐도
##ix
지병
신천
보합세
有
흡혈
당나귀
기름기
##만에
흉내내
길잡이
책봉
시금치
비열한
현성
파운데이션
표상
배변
권성동
광통신
~청소
##라미
튀겨
진사
블렌딩
만해
~함께
~캠
##열차
##村
중략
시네
066
도톤보리
~처리장치
~디자이너
하으
무진
~교섭단체
차창
수밀
린다
열간
연막
방석
~중앙위원
##포인트
쉬워지
~sce
익스트림
섀시
조석
개스킷
~~질지
##씨는
준공식
군청
경주시
~잉
항공우주
포토샵
이글스
선암
간척
황자
~fis
##재에
인크
연거푸
安倍晋三
##마사
오스틴
내려질
김민수
항고
할때
어머나
보르도
~연구개발
액티
살펴봐
청명
집안일
세정제
##여건
##엔지니어링
##hm
파시
봉안
##셔야
##방문
신령
로트
인당
다윈
풍조
조윤
~톨루엔
임자
실적호전
~푼
399
287
총격전
철썩
양배추
돋보였
비뚤어
대웅
~신고서
~국어
중의
개판
##어드
채점
스트리
믿음직
~~선지
##곧
한낱
이삭
보리스
맥아더
따라하
##bri
공산품
ws
~개척
~~계
##dic
옷가지
김계
##자국
조은
기계화
~ton
코퍼
조계
이리하
경진
~이슬
##에요
##字
진화론
닌
향년
~컨텐츠
##패시
폭사
퍽퍽
배기가스
##노리
갑질
~순서
추호
지껄이
말라리아
~boy
w2
##湖
자포
~여왕
프리챌
브레이브
마감재
해서
정치부
쟁탈전
명목상
다섯번
임상시험
안쓰러
누진
~york
~yesterday
~mw
~첩
##our
장난기
비타민c
발포제
권위자
보존제
발정
~vic
치우쳐
징역형
오니
수렵
##재료
초롱
대자연
~휴직
~aff
어설프
휘장
발행인
마돈나
~빔
~붙
트윗
최남
정순
양구
굴러가
##뒤에
~cvd
경종
자강
변호인단
냇
역전패
가쁜
~소매
김희정
##자락
셰이
두려워
##戰
담뱃값
~시네마
##대기
유권
아다
내화물
##위반
아남
구로구
형이상
미세먼지
만곡
개헌안
~cro
한점
유코스
유상철
드래
그리스인
州
~체질
나무라
기자단
유약
아이린
되돌릴
~학파
카톨릭
버마
만졌
루아
~습한
u3000lg
~대선
~bpm
005930
면할
따라와
피지컬
이충
~song
삽시간
마호
뒤돌아
건우
~휴양림
om
##ien
육소봉
우거진
~stra
不
통조림
쫓겨난
떠드
걷히
파출소
~~문
##부러
후라
나오코
교만
희정
함경북도
토마
정수리
저버
~엘프
한끼
요통
어긴
##mal
##cia
새싹
딤
드로
~though
who
퍼뜨
다이내믹
##했지만
##엔씨
##라제
물들이
단목
##주연
##car
월정
##오른
##래스
과음
저임금
~기억
빅리그
입사각
어플라이
선심
교번
소장품
~직접
퇴화
전송기
신났
대원군
##봤자
~king
증점제
재력
와아
오상
##프로그램
질투심
양생
소구
질풍
소제
앨리
산장
상암동
명가
등에
~conve
심복
반덤핑
김재현
sir
##타나
전인대
성냥
버클리
락트산
관훈
~형기
~전화기
~soft
퇴행
금동
##스턴
오타쿠
~슈트
전문기
소분
##손상차손
휴학
넬
국민대
예당
무서움
맙
나노와이어
처제
직업군
무자비
~급성
~~겸
~board
##사례
글라이
036
##카인
초나라
##텐더
시동생
法
imt
히브리
하등
~오는
~gis
2k
통치자
외삼촌
##비르
충주시
비아냥
역치
방바닥
진품
~side
준법
런닝
##브러
송강
풍류
에스트로겐
나부
~킨
지렛대
몸짱
델리
늦출
~nasa
~웃
~750
지르코니아
닥친
사칭
짊어
##싼
헤라클레스
한거
차고
아역
구조식
빅터
~지옥
##낫
##松
살아났
리리
냐
279
껄끄러
~~체
옆면
보아하니
방어선
나한
~구름
cap
피망
젖소
~감축
지탄
~처리방법
~journal
s20
##kw
위문
구글맵
~디오
~kist
309
쓰러뜨린
묘화
로커
##터미널
시전하
문답
나루토
##책임
##은것
##멕
##두기
코타키나발루
중하
웅덩이
신물
부국
무능력
암캐
교육계
~hor
##전문가
저촉
萬
~경제연구소
장시
~통신시
후광
재탄생
샤크
삼정
사찰단
3mm
엠마
본건
만지작거리
히사
빈센트
벌겋
번쩍이
반부패
##씽
##ration
코바
법제처
##어음
##谷
민들레
~사무실
~미니
12a
현진
중국식
외관상
다임러크라이슬러
구위
##가방
피폐
간곡히
~mod
system
세스
~인화
~구분
~mf
톈
이드
에피택셜
살인마
방장
~발레단
3200
월트
내리막
~위크
~교인
여태껏
안착홈
구라
##타미
쓴맛
다년
~기호
##장난
아반떼
스프링캠프
송부
유색
그런게
~생식
~데스
~늘
~cgv
흔든
ㅡㅡ
set
치명상
외워
냉난방
나자
~오디
~cost
폭증
김범수
~아마이드
~고분
##베스트
##디움
총출동
입사광
멤
ㅋㅋㅋㅋㅋㅋ
으악
여차
세입자
최현
음대
까르
금융당국
~인명
##속에
설경
가격경쟁
~금융기관
~위탁
허억
안톤
##오니
##엔드
전환기
~제한법
석연
벙어리
단국대
깨어
조정기
여닫
수출국
포교
318
헤이그
적진
~~데서
~fomc
체벌
신구
대우차
##뿐이
##티리
심적
~pai
불알
~수거
~과는
##論
##tle
임했
로케이션
##게된
프린세스
섀튼
배스
##act
현민
~판매가
저주파
보수파
마라도
노랗
고지혈증
525
##왔던
노말
나홀로
32mx8
##히메
직수
윤미
빈발
단부들
~헤테로
289
##이브
지은
안락사
떤
경제지표
~플러
~~비
tx
##있지
##언트
금통위
~팔라듐
890
~~수는
~ent
##문트
##모양
##릴렌
##rii
~파이낸
~posco
~heart
##ima
안배
##해도
오갈
예류
##dma
창세기
어시
~인장
~과거
##먼드
코란
써야
댓가
~trai
##리드
몸놀림
~앞서
##音
손가락질
黑
~sig
~py
##큘
토론자
베이커
970
##해주
칼집
시달
볼티모어
~시정
한광
펄쩍
맞불
~빈도
~~ㅠ
##큭
##위치
십년
~통일위원회
양아치
~prim
유랑
##로에
드레스덴
gan
##모사
푸조
면죄부
김영춘
~카본
~실내
~경고
~edi
몰려와
~중립
해맑
같이했
각양
여성용
~국악
펠로
적용대상
난조
##펜타
느티나무
프로포즈
~반도
~agree
억양
귓속
283
은인
설움
발렌
매수인
##kd
퇴행성
엘렌
자치단체
당혹감
국내산
네비
##이든
제2항
살육
물가상승률
문학상
그레이스
20g
##훗
납치범
헌금
눈부
~~아버렸
~반영
쓱
벌어들인
골몰
~균형
##을것
잰
상담원
열받
~와는
~부실
##알킬렌
휘젓
어쨋든
살라
##사지
정병
한국후지
필로
전유물
배회
되돌아오
~부회장
~fall
##워했
성균관
부메랑
고릴라
겜
~립
~과학부
##려했
##변경
이용시
비스듬
~하이드로푸
왠만한
영락없
능통
놀랬
관람료
겸허
~극단
보구
ε
분부
~상호
~데일
##아하
데빌
fps
##레드
집사람
스크라이
광석
~동자
~eco
조민
조미료
부시대통령
미래창조
~적응
지렁이
임차인
비릿
~stri
뱃살
미켈란젤로
u30002
일렉트로
~~겠으나
##mor
~조화
~대차
제르
일정액
옛말
~사이클로알킬
테크니
채보
제네시스
디지탈
박판
~~겠으며
살생
동서양
공탁
##실로
##ndi
매케
~try
스스
##아세
##ations
##stan
조예
~스티
~상수
~결연
##지않고
##겜
##意
빗줄기
##았던
돌이켜
흘러나
중독성
모술
옆쪽
스르르
~상조
##투자증권
##올렸
##자기
##府
있어
암자
~시켰
8500
탁상
모나코
휴렛
풀무원
넘어온
괴롭힘
~그라운드
##ior
##ents
카르마
고깃
~체력
~원형
직쇄상
기준값
##약품
임할
사간
과업
##렷
통했
괴성
~자위
~개최
피착
수호신
저항기
않은채
~듯하
저우
바빌
매리
칼국수
지역경제
까마득
80m
0mm
허스
잠룡
~기정
nbc
번창
cat
790
~small
~lin
334
스텔라
생업
매섭
##대장
최지우
뒤흔
~예의
텔레비젼
움츠
따끈
편인
카복
질구
불행히
##타주
##벤트
##定
##vis
##ana
~얼굴
그다음
~나갈
존엄성
승압
니혼게이자이신문
~스캔
##nci
스커드
~support
~gri
허정
~분기점
칠리
원빈
눈덩이
~총독부
~작시
참을
선곡
~중재
##경찰청
힘썼
~상권
har
##호수
조인식
시토
스톡홀름
괴뢰
~장려
~350
##씌
##신고
##놀러지
##노카
##iss
생맥주
~수납
##l1
찻집
시범경기
~체스
##오카
##ㅅ
##객들
##cess
자르카
농기계
급파
s7
##택시
##kn
차오
너나
~스케일
수입품
dv
한가득
불똥
부토
##플로
활약상
원추
##里
저걸
일손
완비
샤인
드리프트
강태
~드래곤
종지부
안창
침강
유해성
~달성
##츠크
##거니
직통
영공
~hold
~라이브
~watch
올리고뉴클레오타이드
아웃도어
로널드
~다양
탄산수
영빈관
家
~전시장
~~어를
불국사
김의
크라이
지방도
소하
~~사옵
##하이드
최외
전공자
비례대표제
매입액
징집
난장판
꼬옥
도예
古
~~라던가
##mas
##민주주의
의문점
과점
파충류
정운찬
달려간
~엽
아크로
미적
가우
777
475
퇴직연금
러프
독립운동
##뛰
컬러링
은어
~한계선
~fan
##用
특선
두둔
꾸벅
~조약기구
##푸드
##틀러
크로마
김화
~조끼
~land
여체
세컨더리
~행복
~어가
~디페닐
~그릇
~flo
##作
다품종
~빨
##역사
정주영
사해
파커
벅찬
~dtv
최신형
##제철
##세닐
교직
다시마
##쥔
해결사
케네스
없는
##든지
##종합기
##문에
재취업
따진
~sti
##니에
페널티킥
층상
업데이트된
백여
##자에
##軍
코요
넓혔
구연
경제난
~로부터의
~라이터
자축
우간다
볼턴
~랑
##세웠
누려
~cqi
~cop
~america
~타카
~우유
025
아아앙
대설
~석기
실소
소크라테스
##페닐기
##오라
지휘부
읽힌
나영
~유착
~care
폴리스
열의
귀퉁이
알루미
메릴랜드
킬라
진원지
당김
##바에
##acti
홍조
빌트
미공개
~상봉
the
##촬
할것
연해주
삽입공
방어막
농단
##실장
##動
철없
구동장치
~hw
주택시장
주5일
장나라
물리쳤
대성공
프란시스
~ide
클렌징
거금
aol
알로
403
초과액
조해
##판사
##쳤다
아티팩트
부텐
~목재
~닥
##기로
탐하
이승호
원기
명훈
따라온
내진
##建
컴팩
불덩
답습
~디아졸
##get
전처
식감
스텟
삐죽
꼭두각시
~모일
~~께부터
338
초여름
움켜
性
~girl
정면도
시아버지
~~서든
필하모닉
수억
내비
균질화
~수역
전상
그라인
인명진
코스타리카
잃어버
윤상
마주한
들이키
남우
~exe
g3
##차트
약했
시험대
성배
선거인
김영일
pn
##시코
##뒀다
중식
시크릿
대뇌
경영인
~뮤
2022
##zy
닷넷
##레닐
회비
폭풍우
장재
앙증맞
~nor
##카리
##립자
342
해리스
두꺼비
~slbm
어느쪽
붕산
국민연금관리공단
fx
##피오
##볼루션
깔때기
거북선
~ori
xxx
흑의
티저
##조항
##이아
똘
남아메리카
##省
##mis
입방
마르크스주의
~플레
치우치
책략
휘둘리
준비금
두마리
~특집
##np
정철
순양함
경솔
도미노
작심
강화도
전자기파
열두
소녀상
~응원
##길래
재설정
은아
시온
경비병
##저스
조련
장공
설치류
릴리즈
도우
##메탈
성시
바글바글
주변인
흘러갔
찔려
자마
이웃집
사야카
발차기
~마찰
~~들을
##사용
##봉에
두루마리
공국
읽히
뒤섞여
~mean
노년층
~아홉
~대공원
~~던지라
##인정
##menta
흘러내린
찬성표
세시
냅다
##반구
##갤러
하이힐
재매입
##소유
한약재
도플
거란
~잠재력
##je
코니
사계
녹인
~경상이익
~ao
한줄기
~포성
##네프
포뮬
본심
##뉘
오신환
발행주
쌍꺼풀
불룩
러너
결정체
~타마
~imm
트리니
투혼
사려
꼼꼼
~자문회의
~능선
폴리싱
라르
~플랜
해오
쇼케이스
따라다
재점
~mtc
##브이
##들러
소천
넓적
고정식
영민
##쌔
망원
리미
구식
결항
각서
url
##fu
육종
얼떨결
경첩
~관료
빈정
~~는한
~ys
리쿠
##알킬기
지하드
상명
빤
벌룬
리무진
~effect
##치아
##絶
제기랄
비범
군침
~~라야
##텟
역도
소방서
##샬
클레멘
총구
~~으실
##구성
팔아먹
옥토
사복
발성
내치
꾀할
~카운
민원인
##수출
인형극
양민
황진
펄펄
진땀
~보의
~~외다
명창
402
##콜린
옆방
~view
송승헌
볼록한
다이애나
~road
~전문업체
##썼
기고문
~파인
##에탄
보여드리
깨진
골동품
~제어기
~도로가
~~라고만
픽스
취업난
뛰어드
디코딩된
~보시
따라간
~명당
포이
퉁퉁
날아와
~발광다이오드
혹자
샤워기
~파전
티맥스
윤지
영업부
순창
잿빛
##동맹
##sto
튀니지
출연금
~적화
##증가
황용
새까
당대회
발소리
~표명
~disc
엎드리
특허출원
벌판
경장
~적외선
~일렉트
투자액
넘어뜨
꺼진
발키리
파헤
쿠알라룸푸르
오대산
매튜
~좌우
평택시
청진
쥐어짜
스포트라이트
쨍
무법
~심판원
~usi
흡수율
쫑
s11
행정학
의료기
구세주
##어질
첫선
의사결정
은수
아미타불
별안간
~판재
여린
봉중근
모여든
~노무현
rl
##피라
##틸레
촬
문틀
담근
10cm
기실
괄
~치하
~쏘
~carr
##나트륨
주간사
이집
오래가
kbs1
~기술자
연합국
삼투
~세탁기
~대면
~against
1tv
~인조
top
식물원
~소대
투르
웃긴
~이모
~arr
~주류
외인성
몽환
촘촘
##라트
단문
느릿느릿
가둬
~믹
투데이
미호
독창성
~아크릴아미드
##얗
##레아
오고
문희
~dslr
411
##濟
회관
정각
어금니
버틴
근무자
간통
~여행사
충칭
직격
수학자
~른
二
~시술
##에에
##눅스
총매출
그러기에
슝
사무총장
비쌌
##osi
태후
극단주의
친형
말려들
드레인
~방한
~대제
~~우니까
~wh
조희
모바일게임
놀러가
##포도
조직위원
작업대
편제
인큐베이
옵티
승호
명문화
중풍
##시시
타블
제헌
고달
가뿐
향긋
주문자
웅진코웨이
백자
꾸밀
~cond
~내외
##놀리
##gar
활물질층
침체기
데코
쿠페
~단기
dis
소산
모선
~전함
~사업소
##한테
알아차린
전략가
금호생명
##티야
두건
겨우겨우
##북부
##ges
총자본
철심
고인돌
~사학
flag
사행
누런
~헬
~기종
재공품
의심받
샤워실
~흑자
~게이지
영철
끔살
vii
징징
사할린
바벨
~벤즈
cvd
왕좌
붉어
~천하
시공사
승수
관류
공비
~시설물
화투
피처리
동력전달
나자프
삼백
머리통
~러브
##페이스
##리니
최형
조니
열등
~당위
326
##ace
홍보물
지운
주파
死
~표기
송혜교
~하강
들여오
~companies
요요
산업기술
千
~lau
야인
경제개
csf
심취
반영구
몰이
거듭날
광안리
~산책
역동성
독기
~포고
ue05b
시르온
건진
~클레이브
정치판
문지
~갈래
밑그림
동맹군
날아왔
그물망
##바토
숙녀
sk텔레텍
두발
nat
##ative
열병식
~grand
~feel
행거
~실행
~rx
축열
박살나
~상무
쓰레
북송
~~을걸
장식용
보나
가정부
결정권
##홋
##럴드
서울특별시
맥도널드
라이트닝
~달리
지녀
강남역
소위원회
~펀치
~인터뷰
~용사
알켄
공금
~인건
~의적
16mx
친근감
미술사
##프레스
헤어나
원예
설산
##웍
야세르
피더
스탠딩
문주
교배
~트레
~~댔다
##ati
속히
모든게
선발대
읽혀
알바니아
소이
보도자료
~좌파
~~움에
##그러
~~나니
현지법인
투정
중개업
유엔군
와닿
드래곤볼
~marc
카를
요우
sig
영농
다다른
단둘이
非
파렴치
원불교
밧
의장국
야합
빈번히
발자취
~석상
##모터
##귄
배당률
김선종
~합작
~여의
~튠
##關
##주에
황의
선애
##des
지아
이니셜
거하
북서
~베어링
칠흑
돌아다녀
~메스
##명의
피해액
~진공
~산물
##부채
커먼
도그
~체전
~증식
~숲
##ola
고무줄
스쳤
##vic
5t
##꾸러기
포틀랜드
임진
시연회
맞바
레오나르도
다도
방송위원
견주
~인중
##가물
지만
불러왔
인터페론
~가압
##魂
시에라
금속염
모가
들먹이
탐침
척척
증빙
없앴
##면체
종료시
몰아세
끌어들인
이형택
나아졌
##옥사이드
##만하
##군인
쏠렸
빠져있
과세대상
강현
##실라
은희
쓰러트
석학
북아프리카
본즈
504
휴양림
까딱
격식
~맛집
~~댄
원흉
역사가
비할
도라
ㅂ
~토막
~meta
407
주소지
우전
무해
##사우
기모노
##외교
투덜거리
아에
~~와야
프레시안
캄캄
떠내
~~지의
덮쳤
~~는지에
~unit
505
##꼼
흐트러진
시누
숨어
교동
~사시
##고로
풍긴
은채
소오스
곰곰이
고미
~홈페이지
~박막
~~고를
##티콘
혁련
개가
ngo
바자
분비물
발가벗
유리병
안정기
사로잡힌
~당선
~ims
##네요
주름살
굴하
건너간
~신약
~상속
##헷
##邪
고서
~~이자
~tor
1896
수현
벅차
기관사
~협동조합
~~겠네요
##돕
흉부
퍼플
손보
한채
수완
~오름
기획자
##러티
휴게실
군내
~열사
~발생기
~ef
지열
유전율
~오늘
##실산
##덴서
##昌
학예
어찌어찌
~만이
타키
지층
버스바
##글라스
##가타
아만
~sps
힘줄
지레
~이이
~교원
~put
얌전
순직
네가지
결백
##니어
##리학
박사님
기명식
~농산물
##내리
스마일
서투
미우
디즈니랜드
튤립
강할
voip
지국
씻겨
권영길
##慶
초딩
구조상
##줏
누계액
고해
~~쥬
~position
##발리
##ote
##플리
한길
##院
햄릿
백본
등가물
역회전
스타일링
드라마틱
대투
~cre
홍채
중창
스매
비스트
~학연
~성시
~굴절률
##있어서
대우조선해양
~도지
~deci
##천리
##굼
~terr
~gre
cod
상감
뮤지엄
~비엔날레
핸들러
~시클로
프렌즈
##분쟁
##術
~투명
~xr
뎁
~효율성
pvp
징검다리
입체감
일기장
양적
~immunol
팻
제조자
미켈
메모지
기함
##원리
~검찰
##연장
##어버
본보기
##암모늄
화풍
잡아당겨
보지구멍
도킹
농협중앙회
~지원금
놀랄
코메
만발
~욕구
~돌기와
1913
허리춤
괴담
솟아나
~담배
~again
747
황영
##수수
항거
~부원
icbm
##발라
홍사덕
원격지
대대장
~호전
~~안
~미정
휴업
쫓아오
수목원
~바겐
~과자
음악인
우치
사드르
구전
~메틸기
윤도현
시저
송진우
변주
필시
웨일스
외딴
사이클론
##호르몬
이희호
압송
신대
~qua
##七
##gue
사진가
랄프
~pol
~much
파킨슨병
~인계
통신기
~핑
카툰
번트
반년
리노
##구도
표고
유심
사사건건
입담
롤드컵
독실
가련
~stop
4h
헤테로시클릴
페미니스트
신시내티
~에톡시
페더
총사
소공
~분계선
~광물
~four
~boo
말론
~실리케이트
근린
~클러스터
out
쏟아붓
번뜩
福
표백
무감
황보영
처리장
뷔
~나절
~과잉
전세기
가인
~color
line
##홍철
##역학
환관
조그
사일
배플
~펙
~가마
##報
~엔터
출판물
이니시
신석기
~도체
vm
##848
착실히
작성자
mab
##仙
출자금
도시화
7k
자그
시뮬레이터
디스코
오나라
수두룩
도의
께
先
1894
호이
실익
백무
대했
~고한
##ces
총성
천문대
붉혔
부이
~특강
~rate
##꾸미
판자
레이코
출수
소아과
세실리아
사돈
민족문
난국
콸
##벼락
##ping
##gp
하츠
정개
자계
~총리실
~comple
커넥션
앉혀
~결핍
##sy
치합
철골
마스카라
~ret
3600
오랑캐
라울
괴사
##ium
##mit
진경
선천성
상납
낮아지
가중치
##화시
킥킥
몰려드
공사중
##log
진핵
부어
방통위
朝
~access
486
##노에
동숭
~정시
##해주길
##포리
특수부
불안해하
##토록
침팬지
신한금융
대방
~seve
##클린
우타
선포식
낭만주의
잿
한건
피페라진
나래
~191
nh4
김영주
~광기
god
##네시아
##vs
오승
갤러
sce
태권
레벨링
지피
빨치산
광업
가림
~섞인
##대응
##erat
~댄
아브라함
메구
전년비
씁
라벤더
구불구불
라운딩
기거
##뽑
대환
##뷸
부잣집
~테로
~지원사업
ito
남남
구워
~케이크
~vegf
콜렉
입장차
면목
홱
양가
뒤집어쓰
나도
~대구
이리듐
오레
~vg
주방장
에트
객차
~reac
아밀
##페논
##린이
##독스
일교차
비정부
교성
~~시면서
서훈
방방
##지어
전병
마해영
마이너리
과식
##링된
##nsi
팔당
트랜스미션
참나무
정격
러버
검붉
~~온다
##고정
코코아
버크
게임상
캘리브레이션
~약세
~생존
~2o
시댁
매만
~트라이
부딪혔
~해군
굶주린
##케스
주작
얼라인먼트
리프레시
담소
고차
~핸드
##420
재조사
모스크
~살리기
표현형
볼모
##iv
노점
294
아낌없이
분파
미결
경전철
~창작
~입고
~로밍
~dlc
##말이
##men
섭취량
레디
지망생
실황
국내업체
~앵
~sip
~comme
##돋
인디케이터
싼타페
##게나
직선제
성내
도망간
트리아진
손해보
라디
~찬이
하이브리
청부
인터리빙
~보완
cac
간밤
잔상
이찬
시클로펜
부산역
부릅뜨
로사
꼼
하앙
캡핑
찌를
~아머
산산
김유정
개회식
crm
##ipt
포위망
격앙
##황산
##發
g4
하우리
나아간
조그맣
전북대
~파견
철광석
죽어
생활상
상용성
로젠
~코인
후지쯔
할수있
정착촌
원액
알카에다
##현안
다신
구박
~마음
##개방
죽을
~선원
~sv
f3
##연히
선공
~got
재미난
웃어
애석
들춰
나포
##nl
##iat
정당인
장준
상서
동질
김광석
회전각
두만강
김군
거문고
후진국
철혈
전문인
서울외
~내과
충정
졸개
식인
~고선
##데리
##ass
조태
관사
~서클
초슬림
움찔거
가쓰
통화량
내향
~기고
자멸
벨벳
화음
닝
어장
비상장주식
기내식
wm
티라
삼엄
산입
낚싯대
기준금리
견실
관계법
~전산원
올리비
백남
도축
~never
퍼뜨리
중동지역
조미
키토
원폭
론칭
탈주
아서
불현듯
보다폰
법당
~산정
##어들
시후
깎아
홍진호
마스터스
~폼
psi
팔목
즙
대덕밸리
~wind
대견
~~다느니
~nl
##코에
~~었죠
~ala
퀴놀린
빗자루
보듬
등골
신문지
넓힐
끄덕인
경비정
~dvr
이슬라
원터치
~지적
~비어
전산화
철민이
그만둬
팻말
##490
##lop
몇분
명세
되살려
~컨트
~가슴
붙어
~마라
뽐
##vid
재석
엄한
김보
게일
ox
짱구
기중
아르마
##그래피
기름값
고막
##very
장난치
요시노
무량
~조인
##流
인피
왜군
포켓몬스터
어어
악연
##천동
두둑
625
정치범
여쭤
강동원
부녀자
김진우
그라우
~배율
##브론
##바지
##미네
맥시
만취
만지작
건반
~mini
우람
~~답시고
rg
pga
##복합
유림
빌렸
명색
~엄
~emb
~dai
미국민
경외
##흰
##토론
중반부
~날씨
##티안
행의
교차점
~크루즈
~문화제
~beg
415
##리야
어레인지
공칭
건네받
~커플링
~미르
찧
포장용
송두율
무아
메뚜기
~수물
rm
피롤리돈
썬앤문
스윕
~유니트
357
크아
지배인
원탁
악질
사은
나아진
근황
그룹웨어
~기생
##930
화의
따윈
기본법
~~려구
##지르
들여온
~수사대
~edition
피델
레노
공손히
1s
장경
~편광
~~아봐
##제비
##뎃
##가게
##b2
티로신
질권자
절절
독대
ua
##스테이
지나온
걷다보니
~직장
~서방
~도비
##트랙
홍제
홀들
자유민주
소지품
거위
~정성
~~다더
1915
김신
3p
보문
루멘
이교
엿보인
세바스
방재
##니당
~워프
~시장인
##번역
험하
어진
아울렛
노마
개최국
##레르
허허허
파타야
첩자
점자
봉입
~폐쇄
~~때에
##상인
~rev
fdma
343
헛기침
초박
중서부
부활절
~석화
~nand
435
때릴
~국적
~공동선언
##딱지
불협화음
거래내역
~박과
##인물
~소켓
6g
##혜진
##발성
##fie
##eam
카네기
순리
~글자
티모
아다만
kospi
c30
##라운드
페난트
장식품
결석
파르르
왕자님
346
악장
슬로우
맷집
대중성
~루프
~~컨
##ifica
독립군
ind
프로피오
에델
~지청
~broad
##양식
##西
스승님
니체
##늬
##形
지부장
##447
뭉개
구급차
~데이타
~rul
엊그제
떠올릴
~차감전
~~하다
##리히
일베
물병
kl
##었나
특수목적
삼화
블루칩
범했
~시화
##산에
##nel
이미드
음절
오솔길
~도용
재소자
~큰
##强
예인
비키
~폭스
~wlan
~hos
##章
이맘때
동글
김현철
~라이스
##공신
부탁드
~가운데
표기법
사무용
무의
고금리
영어권
송민순
~상황실
~ski
##떨어져
함포
프리스트
임시회
어둠속
십중팔구
~bet
##나온
청천
부역
ue0
##폴리스
판도라
참선
지천
~지검장
##일체
##의전
호객
다반사
김삼
~형체
~바늘
##싱턴
출렁이
녹림
건드렸
##덕지
페가
진공하에
륜
s8
910
하이스
전반전
~청약
~~겠다면서
##아야
천계
오심
나진
호암
헝
테드
아이비
##집권
자임
아유미
火
합성어
유니버스
~펜스
~자별
백석
내줘
##h4
올드보이
~둔화
~nk
핏빛
진저
베트
되레
##케이드
##드릭
팀워크
사고력
~잔디
약혼자
액셀
박진감
민트
##리자
##sel
##ann
풍년
페녹시
강행군
~임상
전공노
용평
스피어
~테크노
xm
##bal
바람둥이
~체증
~교육감
##스팅
헤지펀드
바비큐
설정값
담담히
기흥
~간여
아쿠아리움
승차감
선악
##부위
##井
해수면
지관
~대리점
##影
##ock
척박
잘랐
~페소
~차종
~보충
~neu
연출자
덩샤오핑
##pto
포지
의료계
kaist
##쏭
##셉터
석류
꿩
다혜
핫도그
~법시행령
##천지
##루이
조승우
메조
~woo
trp
##연대
차세
~플롭
~~리라고는
~cris
번졌
~주전
##독재
알렉산드르
상무위
~피드
##gle
별일
남김없이
타령
철문
시범사업
공부방
편할
부재자
김경희
~비대
수입원
동석
아나키
수평면
설렘
갈려
~예수
~~ㅋ
329
한국과학기술
알렌
쌓아올
~prote
##모집
기본형
~천국
~잡힌
##올로
특목고
컨트리
유일호
프탈
판매망
신우
~트림
~close
##kin
말로
1916
이머징
바이올렛
단우
하구
이자지급
아우터
서역
무임
김두한
~젖
v6
##그린
##my
테일즈
~출발
스포일러
법무장관
딜도
혼내
재정립
겐지
찍혔
이코노
빙수
블루오션
##효소
코토
~당파
~fai
혜정
카구
원위치
베이커리
~일자리
~벡터
352
말해봐
덩굴
거명
uf
##숫
재입
아벨
~프랑스
~~세라
##kp
손금
사대부
마산시
냉연
~처치
취리히
~nuclear
혓바닥
##보트
흑막
끄집
스펙터
내각제
~밥솥
by
3km
##장자
벡스코
p5
명주
~합의서
##빤
##구장
흐트러지
에디터
애송이
~이슈
~phy
##로리
태사
~편차
p4
~운용사
호령
천혜
광안
~레이더
좌익수
에이브
고목
~수용소
337
프랑수아
청력
고된
~being
정유사
서아
##디자인
개헌론
##멋
이데
광고물
활황
화룡
품안
시부야
스터드
배고픈
무드
##껀
제련
브렌
뷰어
대마초
고저
~우파
홍종
칭량
구부려
##힛
초장
~스사
애환
시장조사기관
서울시장
가속기
##sed
한주
괴테
학교장
베르디
##홍색
##인상
곁들
~mri
팔미
카브
리더기
i2
##예정
우왕
논스톱
~ud
##노르
스웨터
발광체
릿
~java
컨텍스트
캐피탈
계셔
聖
~자매
~강변
~pap
조경태
~알파
케르
장탄
~수상
풀밭
~타도
##해제
상선
변화구
도취
경쟁국
프렌치
ao
훼이
걸어다
~dae
데워
갈릴
##헛
##iti
히스테리
온건파
시장상황
석면
372
텐진
백스
~money
제나라
적층체
안녕히
미중
416
##하늘
박지은
~나프탈렌
대차대조표
~언더
~슨
나이스
군집
~호법
##듯이
왓슨
문형
리포좀
강적
100km
호주머니
이어온
산림청
발명품
낄낄
~사주
펜싱
~ave
##차원
##불린
홍어
다가간
지침서
견본
~딜러
~고양이
##우트
오스트
방귀
먹고싶
니가타
1080
첫승
사이클로헥
##듦
##츄어
##gge
쾌활
용광로
분발
~~두는
##펀드
찾아다
일렉트로닉
369
##소나
##계자
역가
참견
동철
~수공
##려서
##let
차곡차곡
양현
##러드
자위권
윈윈
스케
김상훈
##384
##저러
##감기
일그러졌
묵상
~dw
배수구
기러기
~명세서
명산
##토마
##청구
학자금
디렉토리
뉴햄프셔
갑부
~골재
##무리
##orit
앵무새
~pdu
##빚
##wan
표시기
서모
보살펴
갈릴레
##메탄
##드레
##業
##uri
향배
이사벨
식용유
공인인증서
##히토
##테니
풋볼
진동자
입출
아인트호벤
##카테
##다음
주전자
~공여
##채널
가스켓
##間
충신
자원봉사자
이고
물리친
긍
구급
~지진
주거용
인수합병
시장지배
말씀드릴
367
후보지
정갈
유엔사
신검
문자열
여세
한국증
순국
비실
범용성
마님
기본기
##바이스
빨아먹
린치
##세미
##리딘
~these
##飛
선망
부끄러워하
망가뜨
~chemi
왁
높아지
~concer
##시클
이아
남색
##두르
하복부
원철
약체
노트르담
~iot
##반사
한석
운좋
리젠
잉곳
알타
~시보
~공화
##우성
포름산
가로저
~상고
~교차
~공포증
회계사
전단지
소행성
바이브
oem
대내
~지드
원광
스웨
미친놈
~크롬
##시르
##tus
임영
순교자
~위하
~~해봅
베이킹
눈뜨
~준위
##이야기
##ost
알고있
빙판
~목마
##페이트
러시아군
교무실
프라이빗
감쇄
~교재
차압
~평화상
##순간
영사관
##지코
지방선거
견고히
~~더니만
jtbc
판매고
동궁
공매
##族
슬로베니아
당리
~fun
##운데
허재
해내
한진해운
음식료
~수록
유고슬라비아
슈워제네거
들뜨
##태세
빼낸
버클
고지대
sq
순경
다수인
~지구의
5v
##제스
##고사
경수
##어버렸
##rol
블로우
하노버
조중
작살
응했
본대
막아냈
가슴팍
##팅된
화정
신뢰감
~콥
헤리
~인증서
~빵
~extr
##르카
후불
통제권
타임머신
윤태영
세태
公
##리고
칠판
출렁거
덜렁
경운
~문화예술
~문고
한국관광
숙련자
대잠
##공약
##ments
~뭉치
##포츠
요마
~360
풍족
축구장
불미
그제
##m2
영상신호
총살
생모
동백꽃
~제외
하수도
멀티플렉스
뛰어오
다이어프램
~천공
모로
##감각
흘릴
자화상
~스트라
ic50
엑시
보여드
들락
~정하
추도
주막
밀려난
류마티스
꿈틀거
~드리
##장군
##다오
##極
##pan
티브
슬래
격실
0m
##경찰
주워
스패
감독상
##북도
성차별
노량진
~복지관
~~로부터는
##ㆍ중
컨디셔닝
지를
은평구
위스
~case
##아시아
오르막길
백검
멀리하
##血
~휴게소
~대상인
화영
카카
재진입
대통령궁
대서
~특권
~산하
##음식
##yu
탕감
친필
섬유증
멜트
~결체
반체제
경리
~기형
~~감
~content
부닥
리모트
김동연
nasa
해녀
박노
##코르
정방
너네
##티오펜
##공자
병원균
~휴대폰
555
##541
##마당
카스트
무바라크
너클
~~시겠다
##개비
총상
ㄹ
~팽창
##방위
해파리
시커
vk
시각화
룩셈부르크
~stati
~ces
역공
얼티
쓰러트리
스트리머
불만족
476
053
살랑
국공립
계세
bw
핵심부
투표용지
임수
바르샤바
~~여서는
수빈
목전
과수원
~로트
~nmos
수금
파운드리
이러다
아귀
하소
카이저
자해
소도시
로더
~지그
~sep
~bsi
##도르프
파비
수행원
선친
뿌리내
대기록
~아세토
φ
##태도
##實
폰트
총영사관
육각형
~사성
~블랙
해운업
보안관
뒤척
~~하여
제보자
저고리
싫어
삼성물산
srs
356
##t1
절환
원어
아랫부분
~평의회
~고검
퍼터
수없
~도안
~검사팀
이원화
아수라장
까칠
~user
제2기
~포화
있는것
양원
백양
몰고
~스펙
~~새
~hat
a5
##제한
~베스
##일까
##이시
##idi
하하하하
식혀
드나드
##주고
~각형
~tal
~120
현업
시계탑
되뇌
~히클
##라리
탑승객
~호크
~천연
##닦
영업망
~financial
성큼성큼
~킹
~phil
~ever
특공
철책
나으리
디플레이션
끌려갔
~투표소
~사모
##도스
dbms
##ging
탈북민
알짜
기공식
토스트
전소
시칠리아
부산국제
추천좀
동대문구
##부수
##계리
임지
위니
스포티
16m
##ility
파헤쳐
족쇄
자못
임신부
오감
급소
~스크립터
스푼
뼈아픈
브람스
밀리언
~쇼크
~대리인
##480
안이
~유보
~관광지
~공공
##펌
##벨로
폴크스
이리로
병리
매운
~기통
pop
바닷바람
##찹
초구
퍼스
일깨우
광고비
크라우
출품작
빨아
매장량
~supp
##나다
트리거링
코노
장석
일변도
샐러리맨
베를
명치
국제공항
토드
사단장
대각
냉장실
##두라
~주점
##음료
프롤로그
저공
~한마
~래시
~고백
348
##cer
우거
박순
##술폰
##言
~굴절
##rin
해맞이
본업
머독
뉴딜
##馬
주홍
실크로드
뫼
~카르바
ddr2
041
##uit
흘려보
유생
유니세프
부추겼
~~가기
얽매
##이예
##세우
수역
손석희
렙
고사리
곁들이
취수
숙모
한그
종량제
성하
유현
유달리
엠게임
박연
감염성
~~지언정
숱
한국정보
정보통신정책
법학과
말이
말끔
가석방
~yes
남문
골리앗
고궁
~의미
초고층
~티온
##날리
형세
에스테
비무
문병
앙금
~애니메이션
쾰른
부대비용
인품
웰컴
떠받
니트릴
~출전
##셀로
흔히들
카테
만들어내
ji
##톨로
##크릴레이트
한병
빠트
무르
격납
~쳤
##퍼레이션
후측
이모티콘
심청
산신
~지원단
송어
로테
건선
크리에이티브
들여보
늘어남
lgt
코파
웨이팅
오의
어중간
승부처
비일비재
색소폰
밀릴
~일거
암초
##개편
콘텍스트
대우일렉
~밝
섣부른
끌어내리
~샘플
##tg
평시
##하나
속삭
##2a
##소녀
헤엄치
카르멘
냉큼
굽이
~~오고
발레리
파묻혀
예후
산요
금오
dps
##fact
콘트
만렙
개나리
잡다
테레사
탱킹
~키로
pdu
요오
사회성
김수현
겸해
##시트
임태
난소암
~필지
128mb
병세
오스테
~미지
##넣어
번잡
리스본
~해산
~한데
##lie
졸업자
##침체
바이칼
~플라자
##디메틸
올라탔
~번스
~발열
~~운가
##욧
속설
방향제
rat
페인팅
박경완
~탄압
코디네이터
정다
서장훈
~xy
쿡쿡
액세스할
로체
껑충
고친
##볶
모르타르
~economy
##잔치
##tb
##hon
케니
경총
건들
애너하임
부착물
보양
~배달
~~련
~list
~dmso
3300
##순환
모질
~사처
퀘
~라우
##에이트
일월
란스
간경
##슈머
##밀도
조감
스칼렛
385
탈선
비쳤
불거져
건네준
처소
~최근
~소연
~rea
거구
~지원과
##loy
합작사
숙식
임프
~퓨란
des
##與
요하네스
오하이오주
~숙씨
##케이블
##泰
##bod
펴내
순천시
중심점
오리엔탈
신학자
기술주
광란
##패드
##도라
수석연구원
가금류
~충성
~잇
~금융권
##블린
##가능한
헵타
영종도
나카무
~힘
##후이
동호인
~당직자
291
##인원
##세라
수납공간
맬
~왕자
##고래
지도층
전류값
자타
~해일
최광
얼어
상당량
부동층
군벌
##g2
##f4
에스토니아
빅딜
국공채
~ant
서울시립
明
~ministry
와타나베
##꽂
예배당
열도
~하영
##설비
##들레
이블
##게될
영생
비빔
##알케닐
다롄
형주
풀림
참상
사장단
물레
##愛
오월
속공
남중국
~기획사
nsc
칩거
우익수
갬
유희왕
마름
##룽지
명화
전자장
유병언
순박
~거로
호지
양계
~dark
플라자
중국계
심산
~neis
~fel
피상
주둔지
들켜
~brand
##블러
~경협
~fur
코사
가꿔
~승용차
319
절차상
레베카
도나
하롱베이
소르
법치주의
발표문
~wc
ipo
##당한
小泉純一郞
튀긴
총지
일군
무함
덴노
~플로우
~eva
##나우
~wp
~cry
pucch
k3
##시아닌
탈삼진
윤창
성인용
플로피
맺혀
들추
트레인
교통비
##999
지표면
조사관
산업단지
김종국
~~수가
~중주
##뒹
출회
저만치
부주석
부딪쳤
개고기
~소하
출연료
전국대
유제품
세브란스
캐럴
spe
주산
안시현
돌려보
극진
~미생물
~마사지
~little
##뵈
수강료
~우주국
~도교
이터
이군
그루지야
409
붉어지
내연기관
tre
##맡
##대역
끓어오르
가이드북
~작물
~만을
##옥사
뻥튀기
나타냄
~종결
~갤럽
##o1
장동
~lon
진력
여수시
계량기
현준
정보기
陳
새집
리미트
남부지방
갈렸
~변론
정치사
공예품
~채취
~부동산세
~광자
~requ
##pect
함흥
청담
말릴
~변조
풀어낸
퇴비
텍스
섭리
디알
~테인
~궤
~vir
##셀러
##상담
##무관
~템
##정상
##소드
실링부
끌고
길동
기술도입
~결제원
~child
##벽에
##堂
##xg
증가폭
울릉
~원서
~jc
카르텔
~입출
##산화
##yon
본좌
~~너라
##자카
오천
아라비
~지방산
~naoh
~exp
##고요
왈츠
능한
##나제
케임브리지
지혈
렛
내관
##레이드
갤러리아
묘비
내던지
경험담
건실
~픈
~승2
##르기
매시
~~다고만
영락
게오르
~지봉
~미제
윈디
글리신
케이프
사무직
~문구
~덴
역이
##330
헤어질
편협
정실
빔포밍
412
##겁니
페르난
전전긍긍
성병
두드
~~러서는
##스쿠
장롱
씨네
금번
~kw
키퍼
최지
이바노프
예술품
~중형
~이루
일념
가차없이
경조
河
~일제
~안착
완파
아킬레스
의사당
남단
구시대
~~둔다
~total
아슬아슬한
보실
고만
~nbc
##ele
생보사
삼킨
델라
##hou
~군사훈련
부대표
~~은데도
347
##경험
설리
내비친
~진압
395
##남부
~토시
~muse
042
##아아아
펠트
부신
~콤보
대가리
##ept
파드
엉엉
선처
떠나보
괴멸
##메일
의뢰인
~마츠
표범
뾰
대연
吳
##vie
##oss
크으
제정안
온스
맹렬히
1박2일
환부
말일
~우려
~기준액
~pcs
nl
토고
~지속
~조기
##미술
접철
##갈이
팽이
박대
~특사
~내공
uni
##란스
##공주
칠하
기폭제
극대
~order
##아릴
~헵
nba
조나
정몽
이승연
리사이
~yu
~arch
##lio
디비
~dv
##hic
애스
양키
금관
~헤이
~wire
~mms
수도이전
손주
세무서
미끌
치앙마이
나타냅
끌어당겨
##社
체임
리셉션
노총
~distri
##cation
건너갔
~의존도
영롱
가비
ol
ah
좋아합
적층하여
낚싯
가엾
~trac
##대사관
첩부
뇌파
~심사위원회
##so4
헬게이트
프란체스
생산공
알카텔
##ease
즉답
~속박
##ying
회장직
동봉
노사모
현대식
인티
슈렉
송두리째
한국여성
특가
##초프
역주
물망
헛된
캐디
아처
경축
헤스
파라솔
~주위
##프리카
성미
##지길
혹한
손맛
##원인
##cast
와전
과전류
~지간
503
##玉
환대
저지대
~스톰
~thing
부칙
~wm
인터랙티브
안국
~분석가
~~어냈
⅓
##즈마
##냔
홀대
어쩌다가
알갱이
목돈
동그라미
강호동
##한국
##bli
아파하
소린
성동
미망인
##요미
상견례
~450
하승
뒤떨어지
~프탈
~점프
~blo
app
019
##이씨
최준
차인
절망감
##dia
신동아
##들과
##꾸라
##ata
하기야
분지쇄
구현예들
~측정기
~dea
흡습
담금질
~기내
프리스
일석이조
고즈넉
경영성과
진흥원
여아
안압
단테
기름진
##땜
휘몰아
황하
애리
~학사
~개인
측방
운용리
우리민족
~자녀
~mom
볏
한희원
유공
얼룩진
아돌프
벗겨진
~외국
man
gf
##ale
지브
을사
서킷
상심
머큐리
~~겠군요
국방비
fda
버핏
기어코
~고보
##out
패티
재간
~공급관
##bility
십이지
버지니아주
구석기
~블로그
~동결
외래어
분업
관련기
가버
~이웃
~elisa
##텝
최상위권
섭렵
이랜드
사행성
~십자
~industry
흐지부지
했다
수익자
빗살
##질화
초중
스켈
스나
내보이
ur
##조원
한국교육
지기
온정
김현정
~테니스
~에디
~~을래
~blu
~bad
~join
ctla
##페인
초동
스트렙토
~도내
##rat
적국
안젤리
단품
굴비
구나
~비례
~건설업
해나
캠벨
높은
~잉크
for
호명
평촌
킷
지평선
히스토그램
카다
알아봐
그런건
선물시장
~election
미선
지저
용호
안상
안드레아
목도리
~jac
~count
행주
패리
공익성
~해지
프로테
큐어
##두사
우마
기시
趙
~~구먼
##ulation
##pf
조진
~한옥
너구리
~another
종이컵
어린이용
##투족
프린스턴
내압
~방정
##n1
금융주
~box
흩뿌
월북
리히터
디펜스
황족
스텐트
볶음
~심화
~무적
~model
해밀턴
클라리
생물학
문학사
곤륜
~dmb폰
프라다
백씨
데릭
염가
엑시즈
불명확
로저스
계산치
485
형민
통기성
주체사상
원추형
소선
맞아들
넙
진과
왕인
신부님
비상임
##었고
휴직
트이
우영
~펀
~광학
~gas
##부부
##꺼야
황금색
맙소사
리저
##시안
장기전
이동형
묶이
nk
##觀
카약
정글러
독극물
~~리만
##넬라
##秀
평가전
주철
~루피
~aav
용자
사용상
글레이
건졌
~항공사
~개선작업
~expected
지남
신춘
베레
따돌림
~부모
~kid
카티
요점
오무
부에노스
과천시
~sens
##lit
송시
사별
~선성
~데미지
~ren
~audi
프란츠
국가기
~페닐렌
~투자신탁
프러
박중
##긍
플래티넘
시니어
문중
~일찍
rv
##526
경제성장
~div
활주
재결정
아라시
두절
~short
위스콘신
우미
~시세
킬로
증권가
자빠
엄폐
서가
배상금
바느질
무라카미
낭랑
~산형
페인
전해준
육감
버텼
~~을지도
##폐기물
흑색종
북해산
미군기지
##헴
신사동
~치즈
ez
흩날리
키르쿠크
초판
득세
~의례
##르고
하반
~갖
착상
##흐트
전고
양각
소류
다당
박관용
마도카
덧붙인
기업고객
~눈물
단비
~자책
~등급제
정권교체
오실
고착화
~펄
~터부
##회생
##방아
출마자
만경
~생산성
고한
고성군
탈영
이청
~인출
~국악원
~~보고서
##ㄴ
하바
운영진
아크릴아미드
로타
폐선
채혈
정동진
올리브유
건방진
~원숭이
~사역
copy
##훠
##작품
말랑
~스페셜
##차림
푸셔
포텐셜
~~었으나
~ask
##정원
버림
心
~꾸
##헐
~사토
sho
털어
참다
마음씨
가연성
~이렇
~cham
##감사
에어리어
심려
버젼
강지
~발주
511
천기
오는
모일
~ill
##졸리
##nz
해돋이
~강수
해조류
연금술
아산시
쏠림
근저당
~미션
##평통
크롤
엉성
설계자
마르크
~회생
##매일
열반
비쥬얼
~라크
364
발행일
네오콘
괄호
~센티
조슈아
강우량
~간대
##걷
빌헬름
~도자
~medic
~3일
##렉싱
사형수
동물성
~사서
##데로
은연중
상트페테르부르크
1890
##k1
해질
아스코르
소등
샤시
~메탈
##티넨
##차례
준설
~본산
~tdd
##옥틸
##ake
제품개발
저스틴
이라
~~런지
~those
이니
대야
~엔딩
~samsung
~deli
청소년기
자동차업
신격
선물용
~염증
어태
시큰둥
문물
~옵
~가닥
12m
##x16
흩어졌
찔리
수초
개보
~패킹
##회의소
오릭스
스바
남자애
~철근
지긋지긋
조이스
마에
독거노인
##g1
일감
인에이블
넘보
소임
~우야
cho
50mm
행복감
쿄우
##쪼
페라
시디
보헤미
~member
접히
자아낸
굿모닝신한
~더미
2x
하지메
~대손
##흙
##알라
##뚜껑
~트랜스
~jam
정수근
법문
뒤바뀌
~바흐
##나게
##과목
##ities
제강
##mil
해롭
불어닥
부총장
##영향
진드기
수출품
wl
##날린
평하
~해온
##장이
##사관
슈미트
멀뚱
##천후
투덜거
칭해
조로
늦잠
~~으려니
증가분
밀워키
##타우
트랜드
크윽
~임시
~pci
##nal
재전송
도망갈
당산
이창호
반국가
로버츠
~policy
습한
속일
~소비세
737
해치우
펠레
전투병
와트
미주리
c9
지구력
~투여
~개미
인코
상현
사다리꼴
빈집
부질없
지껄
수만
세포질
김두관
~~라하
뾰족하
블라디
계발
~~시는데
~센타
506
##덕수
병적
발밑
~buy
저울
사랑스
ste
뼛
##불안
##노선
악플
~민국
##촉매
칼자
~민간
~건너
틔
##구치
더스트
나뒹굴
##치히
##금속
~소식통
휴머니
추서
스테아레이트
발레단
못살
~액면
msc
ω
##이온
기념행사
##리크
강봉
~~다나
##었으
쏟아내
레이나
~fore
dn
파생금융상품
재검
단핵
꼬리표
~growth
~flu
##에따
한의원
장쑤
~fer
##不
##해하
##edi
쿨러
싸이더스
~수개
~관리공단
##살리
##공산
적층한
~장내
~~으십
재투
시청각
무참히
경호실
~독일
~건하
예술성
세개
빈손
베이직
미시간
내분비
~교구
##대리
신택스
스니
서연
생식기
꼬인
~어진
##세지
혼미
한국썬
피디
클래드
등번호
끙끙
##뉴클레
칸나
친위대
~전처
~inte
연금술사
사마귀
~risk
켤
##자키
왕녀
금호아
구역질
고학
직선형
어포던스
뮬
~파장
~~다기보
프랑코
초정
벨크
목검
~650
漢
~선형
전위차
비트맵
##死
수출용
돌이켜보
~onc
##ham
보우
30k
1t
##논리
풍랑
뮤탈
~crc
~비서실
~~줘요
##이었으
##사위
연산군
랜디
가냘
~지닐
~강하
##에라
지속기간
~~냐구
~social
##박터
잡몹
숨막
세면대
상품성
본안
멋졌
마태
기념물
~acid
exp
##정거
히타
헤아려
두덩
공동개발
~~관
##실업
##부품
지구인
~합격
~블레이드
thf
기녀
권해
걸어놓
~천대
~도부
~mpeg
굶주림
신민당
~형대
##の
초일류
오래간만
앞당
곡예
##\
##업종
임파
부귀
교육학
격론
~이타
~시큐
##말했
전시물
백열
메추
~정말
~동호
~var
~smart
띨
##衣
있는건
일견
속개
불합격
##지점
##지부
주검
임창
쏘아붙
숨져
샌디
배리어층
무게감
결산일
~쿠폰
~past
손꼽힌
세렌
메티
냠냠
감쌌
##nda
이지스
벌어들이
닥칠
~요양
~떡
왕창
끊어
~compa
윷
##티움
##져스
투철
이루어
어버이
공인회계사
~후생
~소위원회
~~에서까지
##휴가
##티올
##과장
##late
투명도
슥
~일주
전영
클라우
제조원가
공모주
집대성
우비
스테파니
눅
alk
##특별
폭발력
주식발행
자유로
들이켰
들었
~지국
##cat
조림
영호충
심은
메드
궈
검침
~인가
382
##진영
해줘
옷걸이
~행태
~해역
363
리커
푹신
트릴
사이보그
변두리
~세운
~lead
13a
##스러워
체급
~cab
패트
산성화
확약
주요인
유아용
상했
##맣
외할머니
맥없이
##las
청구서
중정
유명무실
~환수
##글리콜
##계층
##cti
쩡
적출
빌릴
박광온
명태
~실용
354
##수집
##ppi
##ath
살기
명왕
두리
~에만
##509
해면
스킨십
범어
데일리안
~개혁안
##린내
~미러
~01
중독자
송기
석가모니
~온수
~빼
~~살
##화되
현세
비씨카드
##pit
살바
근해
~~다지
두근거
##촐
한소
첫인상
또하나
esp
408
현아
헬싱키
규장각
교반기
~경향
##신도시
큼지막
보관함
아이소
~이율
##장소
동대구
~피대
~도계
~게스
~cru
##源
적십자사
나타납
가재
##掌
한줄
진상조사
연구회
역겨
들꽃
~spr
오모
신용장
무리수
끊어져
굶주
필명
여기자
알리바
~tip
##세가
진상규명
오픈마켓
방만
##타에
칼질
적대시
이해당사자
~ofdma
~dsc
##리닐
류시
~114
bsi
하층막
서혜
고용주
~돌출부
~기행
~기밀
~mec
##x8
아스파라
스투
나침반
##이바
##zen
여종
시카
샴
만석
논할
~거울
처진
~퀴논
임진강
양다리
스터디
보는
佛
영통
子
chi
##타카
##마시
연지
봄나
김훈
저래
센다
방지용
도원
##격차
호탕
미뤘
마무리짓
김성식
tlr
##스에
외장형
어여
토트넘
초류
소대장
고객층
거뜬
~광산
~nv
##실레
##네트웍스
##xo
혁명가
여러명
백악
갓난아
~축하
~걸음
##루프
##깜
입법예고
남달
sin
##뮬
용왕
열전도율
박하
레미
~~겠다던
usd
페트로
조사위원회
인젝터
요율
##뜩
북적거
무서워
가등기
~beh
##精
울주군
양전
戰
~예상액
~기본계획
캐롤라
재판소
사메지마
무과
창업주
가만
~유상
~슬리
~상금
~~시나
##장어
일평균
눈치챘
~account
b3
롤러코스터
~모멘텀
~~은요
~epi
366
##語
isp
##승인
##메톡시
짓거리
~플루오
~적임
##설명
한국오라클
아르빌
리포솜
~revi
~pers
출판계
아물
미나리
aw
##장사
유력시
구대성
과중
~area
##무니
##구요
아란
~붕
~마인드
쫀
민간기
대표실
~상당
~~우면서
~ger
##일간
친아
제언
어불성설
비구니
루슨트
도봉
##說
핵보유국
433
##gat
바나힐
~농도
~swe
##ley
xa
##고도
이만저만
아쿠
무한정
강시
~유화
~~내야
##증진
시에나
삼산
##來
##time
레이커스
건너뛰
~rema
##이론
오락가락
발언권
~전문학교
주무기
야식
럼스펠드
대여섯
넓어
##비트
##火
장항
붉은
보탰
~둥
~pct
u3000k
콜레라
체득
순시
손뼉
뛰어내
~rv
##안타
탄원서
오뎅
식품의약품안전
비포장
무기인
~론도
##탱크
빼돌린
마일리지
구보
~제고
찌질
쭈그
비칠
건현
들이마
한국행
##리버
하기위해
빼앗겨
고초
hv
이환
식상
경기대
초현실
이소프로판올
유로존
술법
텔슨전자
진혁
그래프트
~만료
~독점
~term
##체인
허둥
~화랑
~경색
##성인
우등
424
행위자
내친
국가경
~거주
~level
톨레
~관능
~jan
인질극
양초
##확인
##무지
창민
오디세
~기획관
~검은
##pin
맛깔
김응
~티아졸
~나선
~pmos
트집
클루
전기전자
유별
시이
솔저
러스
##인드
##앱
이공
다다랐
sto
한국정
점차로
예원
~줌
je
덧붙
##3n
##디드
아테네올림픽
부영
될거
도기
~시비
흔들려
태공
코펜하겐
음악계
윤재
범법
김승현
~~가의
##시청
헤로
하게
장님
에볼
본당
궁금해
~욱
~싱하
~격투기
~~는단
##cuti
효과음
탄산나트륨
고간
~이노
oo
아킨
f4
손해율
살림살이
~가기
양방
##귤
쿠루
실선
국립현
쐈
##국어
화근
재분배
상연
방위청
머무를
~최저
~psp
##이지만
##막에
혈기
칼바
예를들면
가람
판매액
칫
김태년
~지판
~구슬
1000m
소보
박재홍
~피리미딘
~temp
~fle
mba
캥거루
##웨이브
주제가
~히데
~순례
~솜
달려있
##qua
연습장
비공
##面
30g
1903
##패로
턴온
중앙위원
종주국
육질
위층
야오
안도감
소영이
성숙기
꿈꾼
~통신기
##ane
아르기닌
~ty
u1
뗏목
##이소
##서인
폭약
이일
알레르기성
~채권자
##다하
퍼블릭
아슬
~배제
~미용
##gm
~한일
~수목원
##져서
##eve
포르쉐
차례차례
주력사업
~부수
~moo
통고
싸이클
손안
로레
되새겨
구스
##화재
##입장
록히드
올랜도
362
오링
망쳐
054
0000
스탠스
~~로다
~통증
~스케이트
~간섭
##808
~경하
~~까하
##칼라
흉노
스로틀
브리트
레아
궁핍
~보여
~발매
클로드
자기자본
당파
오판
연대기
소치
감기약
~교환기
368
##추장
미납
~코오스
~국밥
한국국제
짓누르
오키
양끝
4km
406
주쇄
예속
아씨
살갗
녹록
코리아텐더
족하
위업
북부지
떄
##임금
포브스
이광재
액티비티
넘겨준
굳어
횡보
~싸이
산시
배리어
데려오
~리이
~~는요
~standard
##화산
테디
죄의식
염치
수만명
다보스
~mass
ya
회랑
한한
원생
~박이
~express
blu
오르골
시큐
맞대응
~스탠리
~society
##산성
장미꽃
공격기
~과학관
##face
쏟아져
라바
~가죽
~~아냈
폭탄테러
음량
수지상
르네
황폐화
그렇게
~횡단
~~현
##주사
피사
양부
시타
생산품
무극
~memor
##cel
함구
치카
비토
명망
~plc
화학요법
취업률
집에
되는
넉백
김연아
짓궂
지론
성산일출봉
비웠
랜턴
~흑
~nox
축구팀
개선문
~만만
~bill
##뀌
경계면
가봐
~곤란
얽
##큘러
솔솔
野
~세차
##불이
독학
옻
판본
~진작
~비서관실
~hg
tw
비정규
군량
1902
##河
호숫가
~길로
star
초콜릿폰
아일
bj
##쟝
프리스타일
왕후
불러모
~출마
~left
##헤이
진면목
의정부시
떠돌이
장밋빛
일대기
연습실
지방대
자양
군산시
관체
가타
~관부
쩔쩔
다대
과수
풍향
반사체
20c
태초
들어준
##삼성
후부
혜연
박찬욱
마드
관자
~막대
~~다던지
##해버
파고든
체취
철벽
유하
다급히
낌새
개혁파
~프트
##미야
매국
덕후
~sar
##지않았
##적자
##미에
조기상환
큭
초콜렛
라트비아
~산행
~sing
~rus
##람회
한모
폐열
~occ
선인장
~그래프
~chip
##암리
##블랑
존댓말
브레이커
불신임
ei
##지주
재료비
단색
~qp
~nac
##康
여생
비행선
~code
##우기
터무니
출전권
민방
동면
~양지역
~대표제
~eff
##수로
하교
칠해
유성구
~ecb
호족
헤겔
가서
~서리
엇비슷
동북부
공민왕
##셔닝
도쿄대
끌려간
##화장
##도서관
한계점
~~해집
~~러서
~basi
pressian
쩔
브랜치
~쇄
~visit
~rad
##uti
##ses
지원사업
장축
어루만
수탈
소기업
레플리
도톰
감췄
##행성
##rate
하는것
단역
교보문고
고마워
계단식
~개항
~tele
~mtv
##누르
신품
박신
~오락
~bab
##천우
와이셔츠
더더
권고안
~프린
~벌이
##하는데
야스오
멀티플
동호
##여지
파이낸
얌전하
시소
디벤조
담대
pmi
해리슨
접힌
심슨
대장군
노닐
개인차
~딸
~경시
455
055
황주
현탁시
오마르
수국
세무사
레니
경제정
~치인
~분해성
1901
~resi
사립대
~tol
eg
##왁
특종
번들거리
가려내
##청년
제품명
사형제
~카로
~bin
##어가
##구려
필링
천일
꽂힌
챌린
##할것
불러들여
모처
멍해
~sli
##len
유우토
대한축구
엎드
관계회사
~무공
##스파
스타일러스
민박집
##블록
##hang
##해방
##앤에
##아악
##슬로
##나와
~항체
##현대
##넣었
##공동체
##ans
슈바
꺾인
##ㆍ일
티격태격
카슈미르
차석
서찰
권노갑
~neg
##근무
##ings
하이드라
작고
두리번거리
~캐년
~follow
##라비
##노사
중재자
교무
강일
~소요
~heav
찔끔
임금님
국밥
~해왔
~음모
##테지
##富
소방차
~생명과학
~drive
##법한
유럽시장
~스테이
##첸코
펌
카이스트
송악
~주최
~글로
##頭
##tec
하일
짜장면
이동속도
상전
밀어주
##gon
에베레스트
언성
~삭
~180
##oun
~워커
##메라
환송
합심
함경도
~격자
하자보수
피소
궁예
~지원국
백내장
급부
~갤
##러니
퇴폐
음해
도감
김정태
기특
~라벨
##누이
터너
캐러
##지션
평신도
코미디언
조산
버퍼링
놀람
~차림
~정맥
~ox
##일드
에필로그
로도
~포대
살점
~처방
##취득
##셸
다비
~거래일
##惡
##mes
메마른
거긴
~electr
##턴스
~재건
##케이트
혜림
큐리텔
둔감
꿈쩍
~빌라
fgf
##월동
##熙
형수님
푸딩
##쎈
~언덕
쥰
녹색당
~브레이크
~cent
z2
친자
정규군
##다녔
##鬼
##pro
회의록
중환자
땅굴
낭떠러지
그라프
~화적
쌌
묽
10k
##말라
##노바
통신비
소설집
고토
眞
後
1p
##ux
폭군
젠더
##니티
~무용단
##申
포터블
야자수
머드
건넌
##라르
형평
에디슨
러그
너그러
##었는데
크렘린
뿌옇
구렁
~사설
##보로
헐렁
투런
종착
시주
~food
##덧
##늄염
##ega
탈색
업들
신무
독약
김혁규
~지바
이익률
동력원
~~라나
부가물
~일고
~rece
cont
##퍼런스
침출
~신라
망가져
대호
깎이
백골
미장
~먼저
~~었을
~din
주춤거
제조기
앞가슴
썰물
봉고
~각색
~~으리
~hv
흙먼지
~필요
육각
안들
살펴봤
관악산
설욕
비에
대게
~cau
코크
~vt
339
##nde
태종대
정정당당
싸잡
굳혀
전임자
아참
시장경
무튼
~트의
##이미
실무진
~여장
~104
##었지
생산기지
비욘
휘성
민속놀이
~앱
~모세포
~~돌
qu
##으나
가망
##mos
상속인
~확충
~~으로라도
퍼니
토지거래
재취
이륜
사냥감
발길질
급조
~여섯
~농협
##도에
##isi
혈마
물약
내줄
교반된
外
유례없
오바
~tw
##紅
폴리오
최소값
귀기
~slo
에나
경북지
pos
부주
니키
2050
##친구
웨스틴
법정동
떨어뜨릴
규격화
지희
윈스턴
모국
리바이
닫힘
~기관장
##츨
##lation
전도연
레스터
갖다
~스타트
##세인
##발트
##nts
조타
잊어버린
위사
소득세법
생도
~사용료
~기증
~kill
##전용
##월일
패망
광합성
고속도로
~한자
~제강
##창출
##phe
뚝딱
스킴
된것
~치부
~소음
농림수산
##조치법
##육청
후레
쉐도우
~industri
##제기
작금
대격
~비판
~도감
김태우
김건
q2
d2d
##스포츠
##곳에
##小
하인리히
안과
~상항
한권
~검정
##렁이
진자
건방
~대첩
폐위
봉수
061
아래위
슈마
사피
##너지
##나지
##골프
조의
재선임
본교
~성사
측위
울려퍼지
~돌아
~귀족
잘츠부르크
##칼슘
##설되
##名
너도나도
테크노마트
~저곳
##으려
舊
연준리
앙상
건설업체
##동작
##yan
제너
~타율
프로레슬
특징점
순한
사카이
대흥
난전
##즐리
##가라
쿠쿠
지우개
~expl
##榮
주술사
~sla
##먹기
한국예술종합학교
판도라tv
집정관
중고등학
워런
어버이날
아르카
소매업
그럴싸
~cos
##인이
##어있
##부시
로시
가르켜
~연주회
~tbs
조선대
정호성
자괴감
브루클린
##암사
우메다
브루나이
돗
~총연맹
~주교
##타일
##각화
##tru
##rec
허심탄회
전여옥
~공학부
361
미요
머뭇거
계약시
~import
##圖
##rop
크로우
용존
동화책
힉
무용단
대산
~소집
흥덕
프로드
섀
번질
반했
~cad
##게더
허니문
적도
스네이
~hun
빳빳
##톨리
~트랩
~산소
##2s
##지요
##制
탈루
전국구
에브
뼈저리
~타스
##좌석
나일
~타선
~~야지요
508
인두
~rach
~future
푸르덴셜
통영시
토속
증거물
밸런싱
다함
##012
##마에
~샌
~perform
~cut
급매
~레이드
~노바
##파노
##구름
##can
~해한
~연구팀
~균제
##지않아
##사라
전횡
받아먹
~도시인
##승지
한기총
공의
공급기
~모음
선폭
모니카
게양
##똘
##出
우체
ㅈ
후륜
할아
폐회
츠바
죽기
싱그러
봄꽃
두자릿수
~크릴레이트
~nacl
5h
##위한
않는
삼대
~면판
353
이용한
시전한
다름없이
~wis
her
~다각화
~fast
~demand
새빨간
미니어
##놓고
이번달
아보
김기덕
금값
~oss
트레이시
쿨하게
자연사
~완이
10km
사업분야
둔덕
~fed
천민
유도성
상용차
공격성
팩션
중흥
아슈발테른
대협
단죄
csfb
378
구소련
~일곱
##차장
##노이
##vd
##oma
하시모토
수미
못생긴
건너온
~~시게
당락
농수산
351
##woo
폭력성
비올라
aig
##터널
풋풋
크리스털
~sph
421
##진인
프로텍
고비용
~페인
~pot
515
##무원
틀려
트위스트
마로
기어들
~~주셔
암스트롱
선거운동
부소장
갉아먹
불러들이
목줄
##포위츠
##토피
##어하
##야겠
##대해
키노
츠키
종반
아쉬워했
~자율
~모래
~관리국
##inat
툭하면
크실렌
코닥
설계사
베르사유
~깊이
아멜리
슈도
사이렌
비굴
불태워
김동수
데스티
달랬
교도관
겁쟁이
~석씨
히비
호날두
진풍경
읏
~캠핑장
미니멀
도매상
개량형
~쓰기
~공이
##멘토
대장장이
피폭
적대감
신선도
복수심
~why
~sor
슌
흑산
세종증권
##xp
행크
~행중
~장단
특설
트레드
수행자
##뮬레이
온대
양서
부부간
남경
걸어갈
몰카
~다툼
~냥
~wifi
~institute
hg
##디올
##ged
호주제
큐슈
대감
다비드
경남지
하네
정혁
식전
시퀀싱
~pie
##운동가
최상단
신동엽
세부사항
군요
~현정
##읍성
##띵
구스타
고행
~텍사
##왔어
필사본
보살피
문화행사
루시퍼
~전성
~바인
##어먹
##미티
##레미
##ch3
현정은
올라갑
부풀어
~테크놀러지
~job
##sg
쿠라
~장난
##ory
고감도
~개량
한국수
피리딜
음역
~흐
##돌부
이뻤
사진집
~랭
##코니
카드뮴
권리자
피울
~파워콤
##미트
##ign
~아크릴산
##습니까
프로듀싱
트레일
사심
바나듐
금속제
~증권거래
~~로구나
콜럼버스
치세
~줬
~sars
비올
나리타
~입학
##으러
설원
북중
날려보
고현정
~명의
단의
ㅣ
##혔다
##검색
태웠
중얼거린
매회
~크리스
##洪
정범
간지럽
~판서
~ult
100mm
황동
활기차
제8조
인베스
고쿠
~value
~mig
##350
##미니
##llen
태빈
~장악
화전
조루
투싼
청운
라니
건널
##마이크로
지분투자
중대장
옹기종기
싱겁
~아암
##욥
##pic
골칫거리
~조율
##쨋
카누
졸졸
전준
서화
~bac
##었지만
증평
무상증자
대해서
~return
~luc
~award
##크루
##마는
미이
계장
정명훈
욕먹
외기
세일러
밝혀내
믹
~다수
~ㅜㅜ
##루션
##녹스
##派
##uction
##dent
일요
~제1호
~무지
##쾨
첩합
욘사마
##라치
元
~재분류
bf
30mm
부러워하
로케
라는
time
이재정
위드
아파치
기무사
~thu
스테판
먹일
분한
박근
~계열사
##정화
총독부
원군
도프
~카보닐
~메트로
~sav
sea
있으
인천항
미워
~가문
~zone
~energy
##갈기
짭
감식
~~에게서는
영의정
~읽
트럼펫
정반
밀려드
~로부
왜인
양떼
알렉산드리아
##志
하지말
인천대
왕릉
대만여행
~전시실
화주
추켜
찌개
진일보
~토기
##self
~핸들
~브래킷
~~코자
프리드
폐막식
여주인
귀부
~방패
701
518
##그레이
플라스
만질
기근
여승
사회인
벽걸이
~뜨
타나
원종
수서
~라도
~공해
커미
우석
산봉
바륨
문근영
기제
~띠
##키지
일렉트릭
뜯어내
~스코어
ju
용산역
시장개
~~어만
아소
~의제
~ale
##mme
다이싱
~impr
~2500
제도권
예진
뿅
벗어던
미실
##준화
타방
일가족
에터
슬라
데프
이뇨
~zno
##시지
걸어간
~~으로부터는
중견기업
어시스턴트
~채무자
##하도
##왕조
349
##용수
결합체
~가락
치이
음각
성기능
맺히
철퇴
사일런
百
##라라
##들고
향로
피동
추력
지드
임금피크제
고배당
第
##췌
##enc
##boo
위약
안채
바로바로
라지
강은
~도보
~core
##여러분
##수석
비껴
기할
~진술
~그리드
~pub
~ini
처방전
저널리즘
열애
피조
포경
조일
은근슬쩍
우림
삼일회계법인
고명
가관
~멸
~군사위
##lor
봉천
~corporation
##199
무좀
도미니카
~~엿
##맞춰
평행선
귀양
과테말라
~대법
혜숙
중무장
주서붕
아이즈
~interest
~circ
사준
발빠른
~환형
##010
회사명
평창군
~~라거나
##설포
최순
워크스테이션
열창
어울렸
대신증권
눈썰매
선실
모빌리
~tod
5p
처칠
시클로펜틸
세희
선거권
빙자
~아닐
~경위
##나졸
플로트
제구력
신청인
겔화
~que
유레
수그
대퇴골
~ymca
볼드
박완
료코
고결
##출자
짐바브웨
손보사
소세지
~교과
황창
대피소
김혜수
~복식
##차이나
##외과
##廣
파블
케토
중역
정함
엇갈려
디너
~요의
##833
해외파
최고점
쇼군
감모
##ization
입적
이준기
등정
대함
pcs
##ious
~~법
##臺
헐크
산양
그런것
~플렉스
~ecc
혈육
장고
앞줄
압살
불도
~피해자
~~등
여자부
삭막
박혔
~남성
##공학과
패스너
대좌
~페이즈
~선거구
~결재
~smi
##나미
문산
~살균
~갱
~build
동률
~렉
ch2ch2
인터럽트
따님
공속
~wid
~exce
##서버
##式
##ano
동정심
그애
~고지
##마케팅
##궁이
##uk
에미터
눈망울
가열기
##gd
히프
양고기
애틀
수면제
~그러
~spee
~cid
yb
##인민
##스마
##oth
정크
비컨
본고장
~초점
~gf
~atp
##肉
트리밍
~경기자
플루트
지급기
공동주택
앞치마
비옥
##혜택
망연자실
분쇄기
가택
~마운
~~나이다
~association
##홈부
쑹
숨가
~프린터
qp
조금더
~엔드
##xc
정의용
안대
~년초
~공동대표
##든다
##글거리
인감
김운
cdr3
##필러
##대가
플래닛
~석탑
##부의
분산성
~문제연구소
##孫
~노사
향합
수천명
갇
~엘리
##시가
꼭지점
~지급액
~~을거야
##이저
##메시
탐탁
세면
살포시
내팽개
~부티
~~라던
##지급
##옥시기
##爲
하객
온풍
마두
##히코
해학
~규준
간행물
##밴드
##미디
성희
노나
~대선자금
철야
부딪힌
보완책
모기지
마쓰이
락톤
광둥
##bh
파라오
얻어맞
아스피린
놋
~털
##난다
예찬
~헌장
##살라
##드린
질권
어떻게
싫어해
중장년층
유원
공증
##동맥
캐니
심폐
선거대책
~전구
~chin
~cancer
##집에
##나시
##鍾
라우릴
괴롭힌
~밑
카토
도검
~크래프트
~~니는
항진
함의
박종호
박미
그레인
##rf
큰아들
조리법
마르티
넉넉히
기싸움
~용접
~disp
part
천수이볜
조바심
재선거
~산부
~~에서라도
튈
##멘탈
집단소송
정보원
~~렸
~disco
##검토
##kv
최민식
아닐린
서양식
북동
다운타운
관련국
감독기관
木
~위축
1898
##테이트
##가는
검경
##주름
한발짝
좌시
오베
양천
~안전망
##라이언
##界
착용감
영신
황영철
피비
웨어
약소
드리우
~화용
~사후
~변성
~나토
~bou
하다못해
요술
##손실환입
##남용
홍길동
카린
아프로
고등학생
~stru
666
처짐
~이티
토키
종적
이정재
유조선
보초
~모터쇼
~군청
374
##兵
##v1
##oph
훈계
부추긴
~subs
최전선
묵묵
페퍼
최연
절충안
명동성당
공들
~그레이
환우
조용필
디버프
~~무
~deb
mpa
정보통
인다
실용주의
눈사람
~tou
아이작
답지
~일행
~equi
##타드
이누
신용불량자
뒷자리
##플루오
##tube
적의
건강보험
~세라
~~겠으니
홍순
시제
##응력
##레로
##vin
허접
여교사
넘쳤
김흥
~princ
sou
태릉
아르테
셋트
부셔
갑오
~~시더라
토코
의령
반대표
돌아다닐
018
철망
스플릿
소학
발로
##셍
##그래프
##kr
타단에
배불리
닉스
경제전문가
~베트
~hou
북제주군
객잔
~파수
~kai
516
##인돌
##스커
##미아
임단협
##투기
##리톨
한술
외지
수성구
~smb
허황
몸서리
##겠지만
진박
x4
hsbc
##양회
셋째날
사하라
라마단
다칠
~퇴치
~데크
~however
~euv
##마저
후딱
픽션
티샷
타프
분뇨
~~생
휘말린
죽도
아루
들여와
늑장
뇌성
~쇠
~~다가도
ver
tec
kbo
##연기
##만원
정률
사냥터
북촌
~voc
~530
존치
~화호
~hit
##부측
##마이크로시스템
눈독
393
이뤄낸
디스트
~za
##광성
잘됐
범상
##븀
~five
아칸
수효
본론
강혁
~부흥
~consum
책임질
굼
감퇴
~~프
정해질
숙고
~nav
v8
##해상
##자와
적개심
엉거주춤
##억원
##볼트
##늦
호형
역명
북일
~종별
특전사
세라믹스
말씀드
##펠러
##순위
##dde
셋째
비열
무도회
놓일
~환시
~davi
~brow
~추진위
~npc
doc
358
##酒
타미
리믹스
검문소
~박수
~movi
r13
9500
틀어박혀
연계성
맞교환
대표주자
결정문
040
아주대
새콤
데비
결빙
##프라자
##치노
젝
끊김
공급망
~물체
##슬레
##뎅이
혜화
커지
카오루
사립학교법
보배
~의석
~보궐선거
~differen
플루오라이드
임실
나프타
##결에
##ken
진돗개
인류학
~자당
~arti
덴버
고금
~lab
##헌법
##트니
성교육
~fcc
알프레드
동인지
~세르
~감리
~~울수록
ly
펜던트
비슷비슷
구민
간곡
##cript
훔쳤
피가
시알
삼계탕
망자
따로따로
2o
후사
수족
가정집
ser
##봐야겠
코러스
조반
거들떠
~하키
~스킨
~교육기관
조한
에노
스펜
방일
동아대
~사우루스
~~건데
~210
키티
이병규
군장
##안경
##tit
처량
쓰기
스포티지
~개발은행
~cfo
심의위
~eno
##펩
엠파이어
변별
##디어
쓸만하다
바퀴벌레
로데
~항만
u3000s
##호흡
천태
모더니즘
~운항
##멜로
아우구스
고선
~분수
바람직하
가챠
##所
질척
선지자
들러붙
~~년
~sai
##샐
##nder
~bh
##씨에
##룩스
브런치
377
##트리아졸
츤
억세
뒤섞
대별
각층
가까워
~너무
풍겼
타라
오코
오리지날
민희
뒷머리
~fas
2s
클로즈업
추돌
집집
정상회의
시해
~정령
vol
정종섭
여우주연상
개포
개발이익
##노미
율리우스
안규
스타크
모터스
로니
기술지원
~관청
##運
주택건설
~seem
현영
킬로미터
밑부분
목수
드뎌
~cross
##cb
훈련소
안전장치
계획안
##포장
##쪼록
##드득
다세대
정제용
일메
강공
~통제권
##온천
##d2
현행법상
헹구
아제르바이잔
시루
##큐리
키프로스
아는
단예
~준수
~선교회
~법정
~dom
##테트
저멀리
연준
아스파
상임위원
로슈
東京
~안보회의
~뼈
##120
중산
복사기
물증
~이야
~베르크
apec
##olut
철부
제빵
##디메
용마
산유
격노
~~뿐이
~sy
##ora
제너레이
낄
##체로
##lig
축구공
술술
수북
라세미
~추진단
신광
~학년도
~쥬스
##dle
리더쉽
~칼리
~재조정
~sound
##책임자
푹푹
토박이
탄화물
게르하르트
~메디
~organiz
bh
##월드컵
폐차
추락사
키위
제주지
제공업체
엿새
보훈처
~상식
~~두면
##405
버진
묻지마
~사망
얼큰
뒷다리
그만둘
피보
직제
영령
서유
미드필드
~정찰
~hil
특공대
~mas
##비에
추격전
야광
수업료
~의결
##웹
##로마
페테르
재구축
염화물
~쉐
프로스
전야제
~운전자
토닥
철자
진시황
인터컨티넨탈
먼바다
~학살
##콜리
전어
울트라맨
온되
스탬
북조선
모하마드
단타
##비히
저금
빈사
바캉스
네바다
~고려
~isla
##빡
창법
연접
바이너리
~셰
##영상
휘청거리
~enc
ecb
##어치
##cho
풍운
지닐
자이로
웅성거
어질
보호대
발주자
경골
가황
~타이틀
~이미다
콴
##560
##르겐
~무소
~break
토네이도
웨일
##나타
생활권
끼움홈
~연산
~부의
~spring
##훤
##프로판
그레이엄
~덕분
힌두
페어리
~투표율
~슈타
자하
핵문제
막아낼
금식
lan
돌려준
데려간
그럴듯한
개새끼
~스팀
~닉
~copyright
fab
1039
워치
레프
~편입
~새우
~region
432
황상
10n
##난방
관광산업
~패킷
~~아온
~exte
##비행
펄럭이
솟아
방송용
어플리케이터
비엔
볼로
반지름
매킨토시
뒤덮인
~oi
##탉
##폴라
##루비
##思
홍합
주안
내시
ktb
과밀
wor
##시클로헥
아이파크
문병호
뒤로
545
##nan
##alo
당정협의
검수
##표시
##챘
##버거
경영활동
##prise
제3조
싯
붙박이
멀쩡히
드라이빙
~fv
##피디
막다른
김영남
~uh
~space
프로페
어렵사리
스칼라
북아일랜드
成
~차리
~자회사
~리프트
장주
두번
단오
##黨
해탈
콧구멍
중신
윤이상
외국산
뮤즈
김영진
1만
한국어판
내방
~탐방
~잠수
~공군
##똑
후판
들일
검찰총장
갈비뼈
~혼란
행패
카로
넘버링
tnf
##적으
##바키
##ming
서스
국방장관
교반하
개별기업
이임
복층
밤사이
김포시
~하하
~도선
~wsj
##sr
자연주의
동아태
~방지용
##ient
아랑
돈까스
도파민
~카운트
잦아들
엉망진창
막아서
~자책점
~라이언
~가봐
~~으니깐
~ftth
최진실
여행길
##흡수
##시도
##몇
합착
점철
산업재
비젼
매티
도상
대체물
mic
##품질
##코타
##갖
늘상
##롤린
##itive
스퀴
김충
~오산
~사자
~분과위
김민석
~~가보
~lang
이베
안사
복합재
목공
개발사업
월화
배전반
담즙
~사이언
~health
##dh
운집
버라이어티
낮아졌
~세자
~lac
##양행
##내셔
중국집
레즈비언
~사비
생리대
멍청이
~nmp
##rant
타다
~성서
~mab
칼데
유성엽
얌
반팔
박문
~custom
진안
움켜쥔
널찍
~운영위
~스탄
dram
##테이블
흡입력
허난
폴리실리콘
~습지
##세나
웃겨
알렉산
##전망
##이엔지
캐피털
방사청
pw
~주중
키요
앞발
두들기
은하계
오르간
불감
박력
노드들
거듭난
~예우
~브레이
적응력
사업단
마에다
낙담
해괴
안트라
솟아올
상등
~조림
~설파이드
~pusch
5n
오목하
~~대고
형용
시한부
~peace
##셀룰로
##벌이
인벤토리
엿보이
아말
마사회
덩그
~운하
##했어
##젤리
피쉬
장제원
셰이크
~연습장
##lus
꿀벌
~형틀
~관리소
~eth
⅔
413
##채로
~지노
~ax
sm5
##여인
##ege
목포시
홀린
마운팅
~스틴
~농축
~경제협력
##ffer
팀들
티벳
커리
~삼거리
카푸
일거수
끊어버
1150
##150
천거
차범근
임원진
베티
내리쳤
~비즈
~미한
tri
활활
핀들
꾸러
~appro
gen
50k
화승
웅변
실각
꾸역꾸역
~붕소
1544
저혈
인덱
앞질렀
순백
성찬
군마
~disa
0v
##lr
주천
알렉산드로스
아우라
수정이
섭정
가로챈
~도기
~~자구
##낮
자료실
묵념
뒷날
~해주셔
~reserve
~find
##그먼
한테
탐험가
멍멍
~추산
han
화환
헝클
최종안
부가서비스
더듬이
~북부
~릿
펍
##덱스트린
##가니
##side
엄하
스케이팅
##볐
##orat
터미네이터
알맹이
미립
큭큭
434
솟아오른
배불
간소
##자들
##옆에
##거리며
청원군
조규
절체
손재
~experi
~542
##신성
장학생
원근
워싱턴포스트
~화장실
~호프
##났다
화인
투니
보호용
보고싶
군악
~로보
15c
제럴드
전혜
노리코
공자님
~~아줄
##입구
몸쪽
내년말
날아오르
~도해
##았어
질색
단돈
권양숙
~참배
fre
100mb
한센
한국경제
좌변
삼장
마무
리얼리즘
~egfr
##프랑
##소시
##iu
원가절감
옥살산
새빨갛
볼만하
레드햇
##가에
##ific
##aw
이대로는
애꿎
압출기
상형
~~밖에는
씨드
비린내
닻
##에이터
흥국
친밀감
알아차
석회석
노볼락
~위원장직
~iraq
376
피난민
지그비
~ky
##타머
~꼭지
한국토지
앰플
시운
수묵
베이징시
막연히
구국
533
~tcr
~130
##록시
사미
淸
~펠
~적합성
~~었어요
##위성
##야해
느릿
~명분
세포막
배팅
발린
낙오
575
##보인
##t3
파싱
인지질
여자분
성묘
룩업
롤스
덥석
덜컹
다이스케
나이츠
~매출채권
~대회인
~~카
gra
회계법인
면했
~생성물
1860
##이츠
쫓아다니
공동화
북리
미토
매운탕
~피크
~아기
~mich
ioc
542
안내원
비스무
홍기
유목
동아제약
괘씸
~퍼시픽
호우주의보
중얼
예명
영업정지
근엄
544
##체에
허어
북두
배기관
371
##티시
##닐린
프래그
오타루
공용어
컴프레
완고
경박
~원고
~빌리
앨라배마
아람
갸웃거리
~오도
~부총장
##마이신
워리어
보여줌
뛰어다
##덕션
##대화
신세기
니나
~해외
~대병원
~1011
현대전
얘긴
반다이
무한히
##심의
정보이용
모건스탠리
~알콜
~베스트
~모를
~writ
~tax
##아프
쥬크
서툰
버트
##돌아
어안
교미
ㅏ
~사공
패터닝된
태진
질퍽
담벼락
늦가을
~월이
##454
측정시
멋쟁이
~체적
##절감
학군
외지인
변증
늠름
내리치
~willi
##흘리
##셀들
한민
텍스쳐
스피어스
매도인
~선용
~국경
##테로
##男
탄자니아
알려지
앉아있
썸네일
마저도
공포심
~메리트
안광
~평가기
넝
##하스
페레스
바티
달갑
외박
세출
박혜
~dig
##맨더
이지스함
아열대
먹어보
도종환
다관
계간
~연출
최도술
직역
일본계
백그라운드
따돌렸
노동법
~첫
~앰
이해도
신학교
##먹어
수리비
도면상
~금융업
현시점
~~었나
~sport
nll
##비오
~opera
##습니다
프라자
팀플
상도동
~철수
~~레반
~bn
pan
##란타
크레이그
이광수
비씨
~club
구질
교육장
~컨트롤러
허연
주르
사탕수수
견줄
##긴했
타종
결박
##미네이션
질렸
뜨거워
~직경
~등대
~capital
휩싸
445
하타
폭발음
주제곡
옹기
매커
관심도
강제성
~fn
환차
아톰
~협조
~민당
##즈니
호각
도금액
높임
~자산관리
##솜씨
##보시
##ㆍ부
##lon
헌장
~레터
~crit
##띄
##대학원
유은
냉온
국가보훈
##gro
연륜
아세아
섬유산업
샷건
##으리
찌푸
미소년
마르티네스
her2
##산면
군관
~관리사
414
핵무기
외표
료칸
pvc
##데하이드
##urc
퇴보
컷팅
적잖이
동로마
~소닉
~다이아
위령
악곡
욕지
언론개혁
볼튼
리볼버
드림위즈
~꼬치
~kof
##ino
퇴학
윤경
~여덟
##801
~kar
##굉
데우
곶감
~제트
~commit
##편이
펠라
안타까워
~전남
~reve
##주시
카메룬
스캐
~리티
~관리부
##국립공원
화초
중외
운영위원
~수사팀
~공중
##매매
##像
샤먼
뻑
박수근
모병
김동주
~얘기
~lett
4k
1899
##랗
##시디
환골탈태
스르
소금물
삼위
극렬
~소개서
~걸림
50g
아더
숙연
##더러
##修
핏물
큐레이터
괴짜
~mel
##토에
프로스트
칸다하르
조심조심
남한강
634
##주민
##멜라
胡錦濤
~탄소
##습니당
##단말기
소염
~항공우주
~franc
##부도
제위
모국어
메트로폴리
0x
해주시
금남
~구획
~~아드
후려치
핵폐기장
중앙회
되도록
##르드
##나잇
수출업체
~정식
~점차
~산업기술
~보호원
##치카
##로시
##ney
함평
취기
이루어지
유의성
명도
이발사
쓸려
##원칙
##꼽
하수관
채권잔액
씌운
발군
드루이드
굴삭기
고드
ufo
외견
삼신
마르세
~우대
##sco
서일
부산광역시
~삭제
##도프
평전
~본적
낭송
~~왔어
fet
##무덤
##라마
남성용
~~중
~~겠노
##기니
펀드매니저
퍼거슨
트리클로로
켈트
엑시머
깔아
tim
힘겨루기
탈의실
즐거워하
오슬로
기대주
~퇴직급여
~면도
~레드
~1112
481
##712
자일렌
질내
눈발
공동위원장
~제주
##데라
##mati
출발지
마티즈
~불황
~계속
~vd
지휘권
에볼라
당긴
~around
600m
538
##멓
푸리에
레시
갱도
~six
##읽기
##로피
포세이
윙크
며칠전
격변
~면상
##zer
해수욕
접안
양귀비
상급자
보자기
~vm
##계사
동의어
개학
~ind
윔
1010
프릿
발레리나
박헌
~우량
제1회
~옥사
##뻐
##tag
여류
~성격
~산악
폄훼
##을땐
한계치
조촐
마애
##태평
김범
건이
~흡착
모자랄
개중
~생물학
~ada
##파시
저흰
~존재
~정착
~니어
부탁드린
~묵
판유리
판매대
오경
에스트
~스폰
~cer
~advanced
##001
운전대
시사점
밤바
띵
도곡동
##상환
##빠른
훈련병
~kam
헌원
대축
akb48
521
자본거래
불공평
루이지애나
~체형
~조형
mmorpg
##킨슨
##tte
솔트
ada
폐광
통신장비
엄중히
서울광장
개척자
~계측
~bat
##밀리아
전체주의
부실화
따분
공격자
~스케이
063
532
호쾌
초경
~공용
##ime
소방방재청
부대장
~하마
~저감
~sql
##ties
이진영
바아
~중시
499
##타시
투기장
엄포
반구형
대정
가차
鐵
~처리시설
vod
##터지
데니
김성주
~provide
##해줄
##異
입법화
~보복
##중이
##무부
##까짓
##~a
철강산업
참고예
적당량
덕아웃
~자사
1050
알라딘
~사우
kth
##롤로
분양가
~간호
512mb
##모아
신야
도가
촛대
##殿
서방님
되새
~font
##일로
##끄럽
~~겠단
##워스
도파로
~들어서
##퀴논
##장수
화로
태울
아몬
술수
블랑
면전
##먹이
킹덤
##호란
원지
불타오
병리학
강원대
~소나
##디지
자금조달
emc
##저드
푸에르토
비애
부둥켜
우후죽순
배아줄기세포
내야수
~패밀리
미처리
~등록번호
##숯
허드슨
정소
에치
슈즈
레진
노스캐롤라이나
곡운
~acr
##탱이
##but
~보세
~prose
~plat
체어
예의주시
도드라
~방크
##이로
국민학교
~전후
hea
한군
커스터마이
골프채
381
##현지
##란티
커리큘럼
임수정
맛이
456
1e
##궜
플레인
프리미어리그
울먹
~마개
친동생
정보부
에이치
미취
내려섰
~좌상
~divi
핸드볼
칭기
침통
에뮬레이
단란
gam
집속
디나
~읽기
##우림
흥얼거
인왕
야시
신한카드
슬금슬금
뎀
궤변
~~는거냐
bmp
쯧쯧
한선교
고평가
陰
~골퍼
~usn
힝
현화
철렁
위패
~제정
~교주
재정부
인텔리전
어젠
관원
~약자
~과대
lpga
도량
~체육회
##봅니
형진
고고학자
~주둔
##에너지
포만감
찝찝
~minister
3800
##어오
플루오르화
럭비
관개
~한계
~딘
~kit
##은사
취임사
스핑
~poo
~keep
~ifn
##펠라
##키드
~street
활보
컴플
재보궐
엔비디아
~공룡
~sex
~esi
##하기위한
항저우
착탈식
직지
셔먼
선발전
미시시피
~수유
int
##적거리
##nse
윗쪽
##빈이
##데타
##有
##nam
티크
레크
녹두
~논평
~goba
~doub
##루냐
좌충우돌
~증강
##py
휘닉스
포상금
예비비
383
##공개
~화합
~confi
김호곤
391
요상
사절단
베이스볼
##멤
604
첼리스트
~가옥
##융합
##실러
##만두
파내
퇴적물
1250
위작
연제
시발
~리트
40k
##카메라
정겹
서평
~으로는
##司
위자드
~앤드
~로딩
##슷
짜임새
안민석
안동시
답변서
꿍
~슈퍼
~table
~record
~inno
##즈미
##때문
##ean
염라
마조
~레스토랑
##웜
##오빠
재무제표
명종
##퓌
핸드헬드
천무
찾아봐
양식장
샌더
북한강
곱창
fpc
헌책
폴리메
막아낸
구미호
~수전
성충
성불
~설포네이트
##예요
~제적
~사안
wh
뇌혈관
간지러
~잡지
황천
시끌벅적
새천년민주당
벌목
도요토미
##음질
##엔진
초단
정신질환
전음
비잔틴
부틸렌
베가
~시적
##121
##포레
##조심
으로
수출시
소국
부푼
막후
두레
展
##으윽
##공유
##ras
홀가분
~stee
##놔서
~lot
~asic
##포넌트
##패턴
코크스
제2부
월성
영서
뉴에이지
경비대
~ace
##uni
추스르
최기
쇼타
능청
각부
~행성
~강령
##tz
준엄
임한
은서
녹말
~민정
~각층
~tig
유태
옵티머스
신식
본분
구성성분
##튠
##통치
##英
마침표
뒤섞인
끝이
~application
uae
##이랑
##스프
##리리
부탄올
대합실
one
map
j리그
##1a
##라토
의경
시그니
슬레이어
~판부
남정
~수관
~변색
진취
디지털방송
들어감
난류
~상궁
##264
저학년
슈터
데님
~인당
~관여
~mhc
1870
##파라
트레이딩
통신용
카바이드
소백산
메시아
~리상
gu
##바로
##icat
황갈색
포메이션
자신만만
아사쿠
데칸
갈피
##특구
흘러내려
장군님
아네
맨션
~203
417
##dor
처리용
잘사
##게트
##開
##竹
플라잉
종착역
~다방
~~급
주필
~~라네
ze
##홈런
자유무역
고육
~취지
~소유자
ova
꽃받침
ㅋㅋㅋㅋㅋㅋㅋㅋㅋ
731
##마운
봐줄
머리끝
마공
##더리
화이팅
손책
~secur
1880
이귀
서사시
마지노선
고강
~tfa
짓이
전회
예문
약어
드라큘라
~칠칠
~850
cell
##휘도
##돌리
일거리
동양화
기후변화
주도하
재추
여비
분산형
미셀
문맥상
~색색
##회계법인
##부아
지원군
전패
~여분
~발효
##피롤리딘
##방침
펙
중학
레코
눈총
납북자
~방송인
~radio
~partic
602
##농사
##och
인터넷쇼핑몰
와락
##현주
##폐수
##bar
쿨링
미군정
기관포
##金
##hg
버닝
딜량
~염소산
~구균
~union
##무르
##랍니
##我
헤드라
장애아
월간지
연경
광야
탐지기
충진된
심령
~외부감사
##간부
해사
월동
우렁
불어난
~안경
~fee
##140
##캅토
##두두
##는줄
해야하는
인종차별
영구히
반자동
내버
곡이
八
wp
##되기
잊어버렸
사진찍
블래스터
기물
그사람
~hom
장금
산포
대구지
남상
##챌
코스모
쩐
의기양양
난장
~bir
396
##카타
##zation
화장지
컨버터블
인입되
보톡스
##eno
메딕
과체중
갑갑
##거구
편직
판국
미반응
람다
끝맺
##cket
토션
보틀
대퇴
394
##슈타트
##니스트
중얼거
서드
분해능
갑피
~~고선
~gap
~dn
~ara
oil
##바도
차오르
전자선
국가재
##스리
##로닉스
##도어
추태
쫓겨났
신용평가
석기
서곡
고위험
고바
~국물
##치락
##메테
요새는
아코
비협조
방송분
~ange
진주시
위메이드
다문화
광교
##히드로
##니오
##靈
재방송
일예로
이왕이면
울산대
안트라센
그렉
軍
~세정
##트롤
탈황
전리품
인더스
방충
머나먼
디퓨
다이묘
~년내
373
12b
한용
이매
보지털
~분법
~~다면서요
##블링
##eral
하진
주소록
대연정
낙조
##오위
##니클
장호
사석
~우산
~영사
~대방
~~산
##레스트
떠보
대구경
낙찰가
각당
~아대
509
##히사
##젝터
쨍쨍
베르나르
~관서
~~다는것
케라
진과스
곱씹
감독직
~상회
~대문
##스케이
##col
삼삼오오
개악
~주립대
~~대는
크라이스
주가상승
로자
ssd
##닥거리
푸른빛
팔릴
수출증
살구
도망갔
~퀴놀린
~검찰청
~~내면
495
##를로
퍼블리셔
양모
공유기
~mater
2nd
##160
##스톤
해운대구
하달
튜토리얼
치여
내동
~생부
##tional
~일방
~오한
##두어
장장
애매모호
알토
사변
노르보르
~퀘스트
##차오
##메네
어니
덜한
~레코
##되며
~에게는
~경영인
##지말
##emi
냉한
~섹스
홍등
특별상
자활
스완
서비스업체
병인
~삼성전자
~국사
##가고
이름값
간다
~번영
치히로
##코아
카게
방위각
뒤꿈치
~할증
~기수
~hyundai
어라
볼록하
##환식
함경남도
포카
튀어나
추심
~이스트
pag
##공작
케이디
~~주게
~near
~both
##용량
##秘
통렬
용착
신바람
변전
~thi
528
389
##콜라
##아있
##너드
페이크
소나
다라
yg
##버님
##발행
핑크빛
재외동포
서대
생명체
~포커스
~ball
u2
껐
##고비
제1야당
보세
변형예에
명예회
멍하
구본무
~family
##처음
있을거
수도사
부러져
나레이
김관
~벽화
428
프로방스
장현
이디
마성
~운영위원회
~구내
시행일
군위
~스테이션
저장성
생년
데려갔
너덜
계획서
~~려구요
버서커
검소
~레슬
##tori
##lity
오뚜기
아까의
당돌
금융거래
~발판
~모션
~매직
~~구는
##티누스
엑스레이
무진장
강약
426
##까이
##phy
피습
조무
게시글
市
~팝
조합일
423
##평론가
차이코프스키
용법
소프
부러뜨
~매수세
##글라
##cing
흑발
젤라또
모노레일
##가하
화면상
푸어스
마이어스
##익스
소서
보안법
데포
~허가제
~여일
~수능
601
120m
##立
~혼합물
~html
##同
휴즈
태평로
치트
서당
##퍼트
찜찜
실험예
무반
라그나
덜미
~인도
~blood
##투성
퀘이
세븐일레븐
벽산
먹혀들
뛰어내리
기숙
~프로펜
~주인공
##락토
##라지
형용사
폐장
제대혈
부당성
422
##시계
필기구
토요타
사운
금천
~~겠는데
~final
홍련
제아무리
보철
백암
~낭비
##聖
테츠
웰치
토폴로지
성공회대
~원사
##늠
국내법
거상
~~되고
##교섭
팽개
작품상
살인범
다녀갔
내려다보이
~캠핑
패럴
양친
알라닌
성훈
~감찰
##ember
프로그레
큰아
재림
서강
레조
남한산성
~천여개
~반환
##알데히드
##기조
켐
재보험
다사
~walk
##연휴
환갑
패트리
삼성네트웍스
다부
~유니
~와이드
~매트릭스
햅
465
잉글리
~환급
~배속
~마우스
~해양부
~recent
~jin
##펙트
##퍼런
##기어
##갚
탐내
알아챈
새파
사업시행
빌런
대북정책
금의
##폭력
##와인
##쌤
##l3
피청구인
싱귤
루체
낙뢰
미인식
~kan
392
##카보
##har
바삐
값싸
~oa
##미르
장의
끼리
~분규
~~시더
배란
면한
구부러
~덩이
##생각
##블라
##ngt
크레이지
위크
소현
북태평양
라세
~compet
##눅
~튜
~결정질
##따기
##thing
황선홍
하데스
올림피아
드문드문
광로
~만찬
~대행사
~sect
##게이션
육교
바그
맨몸
답보
개질제
~continue
cla
##재현
##봇대
초특
내장재
~개발비
##식이
##비우
토리노
술폰
생생히
낙인찍
~관리실
~lsi
원균
살롱
발치
~정가
~~는지요
##老
좌절감
사숙
목말
먹혀
뢰
~자판
~듀오
~source
~sma
~intr
~arg
##타마
주렁주렁
~연시
~msc
##古
조총련
에니
앙골라
도비
논조
명언
라틴아메리카
a6
##母
하룻
에고
앤서니
수적
고대사
~층하
~profess
퍼뜩
방책
반독점
~푸스
##마자
숙달
삼지
뮤비
~커넥트
~섭
~analys
##rence
교육기관
~매립
~ov
~550
##네시
책망
정약용
소경
과장급
##주부
##담회
~prev
789
##표명
특이점
야누
##다닌
패트리어
이미경
~http
흔들거
투자활동
지향점
베네딕토
오신
손예진
성기사
~rela
##연방
##갈비
큰길
줄넘기
양희
새하
노른자
~ㆍ2
~~을려고
~offe
~gua
연회장
빨려
~실습
##476
##브라이
지나다니
전자빔
염전
부톡시
그래미
宋
~rich
765
초경량
으흐
오르토
수여식
~포스포
~수법
##533
##itu
이루어짐
소환조사
몽생미셸
논어
근로기준법
거수
1bb
정회원
인천지
손길승
발생연도
##협동조합
##다해
킬츠
크래들
암환자
민진당
내부자
~공연장
~amo
##뻗
어겼
룸메
~주영
~웍스
~countries
013
##eni
하원의원
아폴
동중
~장력
~광체
고글
경영대
~~자산의
~consi
~ado
티파
투자유
뿔뿔이
밥솥
동업
도립
기찬
~화함
~상계
~매화
##시인
창시
중압
송백
소매점
그람
구독자
~트러
##빨리
##air
페르소나
염불
스쿼드
사용후
꼼짝없이
게으른
~덮
~chr
pri
##폴린
미완
~rr
fac
514
1천
##마마
푸근
언짢
번스
먹물
다차원
네이트닷컴
~컨베이어
##초롱
클라우디
총사퇴
조창
엘레베이터
달서구
걸쭉
~프랑
##248
철재
제퍼
~eq
388
비합리
도외
내이
국민주권
고름
ch2c
##뿐이었
빗발치
채움
참호
일소
~confe
합작법인
연분
꼬임
##wr
회원제
투자은행
급경사
조안
모계
뇌출혈
~화전
##uct
##she
출정식
~전보
~반응기
지역주
지망
쓸어내
뻐근
총책
일목
아녜
다관능
~제안서
~슬라
화풀이
물개
~유치원
##싫
어렸을
~혐오
~물리
##흐흐
##주실
지긋이
일렉
슈피
노여움
~멍
통화연결음
진보정당
보잘것
박치
급류
~집행위원
총계
일맥상통
맞물림
442
##흐름
##투르
##찜질
해박
제ㆍ개정
내로라
~불화
##주로
##oy
홍경
신안군
베아
~펠트
~재활
~리겠
##플린
지새
김수민
##재인
##설명회
육영
신장세
살필
기필코
~shee
##레도
##데나
##佛
걸출
~특허출원
~베인
~결함
형식상
탈탈
코커
작문
분홍빛
논밭
~말로
##場
용신
명했
~정애
~~져있
~ih
##자문
쿨럭
커밍
일레
불사조
문집
가호
~권고
~soo
~pip
##클러
##커리
캐빈
성유
국제관계
##볼만한
##마이트
백홀
페일
터닝
지킴이
올여름
얄팍
밀로
국정운영
3cm
##일이
자연산
이어집
사채발행
사업상
親
~자락
~붐
~경전
~protect
천룡
~도주
~aol
탈지
이끌어내
아방
샹그
부동산시장
목도
~캠페인
~산역
~디이미드
~~고라도
##van
영안
섬식
도일
~일과
##향상
##시아나
포물
최용수
고에
~무결
~~파
~~동
~oct
확증
출출
재판매
외국기업
알비
송치
좃
##님이
트랜스퍼
장관직
민기
마젤
라미네이팅
대통령상
구부러진
~대별
~ite
##엇다
##津
취입
일본해
오락가락하
고농축
##콧
##노피
한천
깻
말발
~스텝
~~로써는
그딴
8km
##시클로
일렁이
용건
비취
봄바람
민변
덕양
구태여
~풍선
~whe
##피롤리돈
홀연히
해트
전출
방송계
눌리
~~있는
##sur
케이시
북악
문상
강효
1897
친이
조례안
재검표
알게
신파
김현수
고학력
~아실
##퀀
##열지
##강하
##가요
자유형
다녀간
개찰구
~절개
~dro
utra
최상층
다진
계곡물
~코미
~oppos
x86
hfc
ck
##오지
중경
소리지
러빙
뒷바라지
~강정
제스
재도전
응대
부채비율
군살
건평
~피자
~lev
##아일랜드
타스
무수단
글리세
##거예
환타
신시장
벌어
~어버릴
~손님
~복지부
~기념사업회
웰스
시장규모
노려볼
~ase
##건전
##gress
~부르크
~deve
##펌프
##왕이
키이
~dete
스테이플
머슴
넌지시
~조사위
~배향
~고온
~tradi
고갯
~디이소시아네이트
~개서
~hotel
⑧
##쁩
##ved
정치공세
전투복
적반하장
단파
~word
##zed
하절기
판테
소노
노영민
~로서의
일상화
메르캅토
래프팅
국제연
##449
집어삼
광각
##아이스
호비
하네스
아도
~peri
##憲
전동식
stat
448
##wor
학제
진용
조정제
시냇
미국시장
뒷바
뭄
오버플로
야구부
스크램블
##인다
훌륭히
중화민국
영양제
다스려
~안전청
~capa
##림동
##m1
행차
첨성대
전근대
~착공
~도의
~private
~mach
적조
실라
금천구
~생태계
##감치
운영권
서해상
번째
~story
bpm
최태욱
일국
미룬
네이션
~튀
~캐스터
~건축물
파프
통설
~연화
~로터
~alb
##라디
##vr
전세금
명실공히
롄
~산장
##san
##ffe
오리콘
레귤
경화증
~아픈
스포츠칸
스팅
망정
~수염
~moto
fb
##롤라
##그런
##nar
##mina
탐사선
카알
쥬느비에브
인터벌
방위사업청
방긋
~사무처
~넥스
##모터스
##간에
탐닉
상대성
베벨
도코
##ement
스러스
무직
~전문기자
노르망디
가누
~더블
~dyn
휩쓸리
##던중
##니시
총회장
좌담
영숙
숨죽
류승
낙랑
~절도
~신기록
~빌리지
##어봤
##노실
##ont
축이
남북관계
기록매체
~국기
serv
##언정
##e2
그렇다
~플러그
~~겠다면
043
속삭임
세모
경제협력
~트래
##vati
705
##탐산
##이었지만
##duct
절단기
부스러기
바인딩
기프트
근세
##olo
타조
천운
신망
만니톨
김세연
x5
1020
##난성
##경화
##mun
박준영
리베라
~우회
##osa
송창
산탄
맛사
닙
공주시
##래프트
##oft
횡행
역광
아린
부사령관
~bot
s12
##동산
표준어
커티스
째려
야무지
브라우징
마고
~정축
~아웃소싱
~상관
inf
##620
##뮤니티
출입기자
중수소
영양가
레즈
~세무
##티르
하미
특산품
장생
심랑
불굴
부단히
만듭
##iq
퇴직자
주얼
장발
블롯
디프
국민건강
##남자
태현
코넬
총소
주구
임채
여지껏
~상승률
~identi
퓨쳐
석궁
삼권
당비
~보통
찜통
술주
김여정
~유니콤
~pcm
418
빛난
~종가
##자나
##나프
이상주
돌아봤
~젤리
~생산량
하이네
되돌아간
hl
488
충진되
빼곡
니오
노성
~양봉
~생계
##작물
##떤
만도
금나
~~는데서
mx
폴리페닐렌
유에스
삼남
~batt
dvr
##機
##利
클라라
~인트
현대미
신태
~len
오금
속세
도법
납품업체
공문서
~호실
~bul
6km
427
일심
김강
감소율
~cand
지방간
선거제도
가증
~이제
~가공물
~serve
base
##실거
##베로
준결승전
왕도
대토
내상
극지
~techno
~clin
tbs
##무사
바둑판
~shin
~secret
##막히
##nati
자동차세
배기구
무정부
도봉구
~못한
~theo
~telecom
~mob
~dbms
##피티
징표
성연
비사
하프늄
토픽
액토즈소프트
떡갈
날치기
~manage
##市
클레오파트라
유철상
앞지르
설훈
물고
다툰
429
##333
##황후
##오오오
허풍
수산업
루테늄
~전율
~실용신안
~식기
~dmc
헤모글로빈
토레
세정수
무허가
~환부
~edaily
##인형
공급과잉
가덕
l4
##출발
##규칙
호무
팔아치
로커스
고니
##파인
##부상
울려퍼졌
##po4
빗발
내후
~속살
~미남
##담당
##chem
이을용
마우스피스
금기시
~transf
산탄총
들이마시
~tin
~activ
피어난
자궁경부
잊어버
인상률
유량계
갱년기
~위로
##동아
##~c
하북
솔선수범
무릉
디일
詩
~화장
~통신서비스
~카미
~qual
523
##자지
##변동
##버드
네명
~프론
~관상
~tta
##구석
##虎
짱짱
좋지않
수의대
세계은행
생활화
~한의
~국전
##리게
##yle
진행상
사경
험지
~이력
507
회수율
소음기
소상히
서영교
굴렀
~치코
~without
##tions
퍼옥시
제형화
##獨
바소
견습
~자살
~~점
s30
cd19
##하르트
##없다
##사탕
##그스
##dx
한국무역
맑스
~어셈블리
휀
##확정
##펜탄
##네오
##草
풀업
파선
친부
월계
소상
~연소
~jon
화폭
킨텍스
컨센서스
시장조사
빈대
모토롤라
들어올린
~전투기
##락호
##mic
활달
오용
불연
돌덩
~도일
주근깨
어휴
##티딘
##뽑기
##랑드
지속가능
불매
##유럽
##께서
국호
관군
~저수지
조잡
순유
셰프
무공해
~suc
##르가
##까기
##vii
홍은
어드밴
도카
##내역
지방정
장악력
이상돈
사마의
복학
발주처
맥아
~내지
##quen
집앞
내구력
~도박
##주식
아재
석쇠
삼청
~보호구
data
채플
비상식
교류협력
~dam
##컨설팅
##출연
역수
여자아이
벌어들
대모
끌어들
##데없
지각변동
어종
세후
성철
렐
~자문위
mit
##쿠로
하는건
고분군
~das
##재훈
##리케이
##데이션
찡그
움츠러
마징가
~텍사스
~presen
~official
~gaa
입석
발벗
면도기
~~지더
~vdsl
nx
으스
어허
시장점유
수원지
산마
박유
교향악단
##니르
##곳이
정류기
오웬
수채화
반제품
##롭스
평가기
팔걸이
체인지업
김부
##gas
화훼
푸코
백옥
글라
쌍방울
모집단
~cri
~adc
자지러
스타팅
숨어들
##풀한
##차관
웁
심부전
데시
나태
~숭
d50
지역사
적극성
~기병
436
학술대회
周
##흔들
##스라
##bas
한남동
주왕
래디
동양종금
##들에게
찔린
불자
개런티
~택배
##을만한
##대결
##dar
없었
~우체국
전화통
불모지
~지관
m6
##정기
화끈거
사격장
능글
~프로농구
~soul
612
사먹었
~유무
~unt
웅크
랜서
~피니
##슈얼
시클릭
산채
산더미
~쥐
~~버렸
~og
387
핫라인
최태
~mbn
~dem
##프라이즈
##오고
##냐고
##ico
디코
동창회
당화
저상
##톨릭
##이인
##共
재량권
아이리
쌈지
싹싹
신경쓸
비숍
북문
모략
들머리
##에나
핵위
천여
상비
반역자
##판에
후장
축성
입질
신일
국제올림픽
~mad
wo200
##scr
정적
실험용
세계시
기정사실화
##테러
##낚시
해마
철인
엔코
악독
비프
더럽혀
~슬레
~교도소
~stand
클러
장황
쓰임새
볼품
미성숙
##丁
한평생
병폐
끄집어내
現
##주주
창백해
원자핵
쌍용건설
~주요
~브러
~로리
~ans
##깨비
##cl3
휘어진
추석연휴
조마조마
에이징
아틀란티스
결정형
~해양수산
~포탈
~mind
총영사
접대비
꽂히
702
##제어
##어본
기웃거리
1cm
진귀
분화구
루퍼
레지던
공단량체
~ani
359
몽고메리
맞힌
디밍
구부러지
~영이
~승차
~능률
~교향악단
~meeting
~crt
##코노
재우
이민우
위험해
에멀션
산실
~computer
##sin
옹립
어지럼증
~~왔었
##유기
아체
내보낼
관망세
고스
~저리
풍문
포어
써내
묻어나
한니발
산책길
보편성
무구
글로리아
bis
##트렉
##게리
제레미
양자화된
십만
괴롭혀
가마솥
~카르복시
822
5kg
##cte
오진
연공
승훈
~저녁
~로코
~twi
##row
채찍질
방청객
만곡된
그만하
~프로야구
투스
asi
##오로
##라며
##鎭
야곱
~biot
~az
##수리
교육과
가스전
~윤리위
~가치평가
~trea
테네시
커스
부석
##백색
##cen
파천
와이너리
오름폭
불량배
밤잠
라이드
뒤따랐
불친절
대동강
~만점
##쥬게이
크로노스
총연
언론보도
국립중앙
~hall
~cmp
dmr
##렇게
흠결
잎자루
요람
마그마
낚아채
~휠
~부사장
~끼치
pc1
##소닉
##넥터
환풍
한림대
뒷심
깨질
##손가락
##穴
##mf
패싱
쿵쿵
카를로
인증제
~키트
~도요
##영이
해초
출정
정례회
베이루트
미꾸라지
끈적끈적
~퍼드
##nol
핸디캡
치뤘
정창
~트레인
~등등
##女
##렉터
싶은
무선망
로펌
~표지판
~정렬
~~어짐
~auth
##아보
##골목
어귀
~hea
j2
##은경
파이브
이언
스트롱
봉산
~블로
~~성
~hope
##튕
##얍
폴리락
투명화
충북대
몇차례
기산
##통제
##lect
도굴
銀
~safe
35m
시정연설
##두었던
이주민
달달한
~프로그
~셉터
##분배
어찌해
##637
##urred
조비
봉합사
먹음직
맞부딪
갑신
~대항
~chemical
##숭이
##별로
~록시
~기업회계기준
~교양
~gnp
후일담
청평
소초
단기금융상품
~band
~ari
spa
유기용매
련
끄덕거
~말레이
~somet
##꼬치
리카르
개사
~주름
##꼭대기
화덕
팜플
어웨이
바칠
~자건
~마인
~int
##뷴
##610
##스부르
행방불명
카운팅
십팔
뮤스
김신배
공작원
~bas
##치레
##있게
절곡되
원만히
꺾여
~작은술
첫날밤
증조
주채권
주인장
제4호
~질소
##래미
##tter
~프라임
~승계
~승1무
##화면
##혐의
##영사
훈민정음
응석
식음료
명경
괴로워
~~여라
~rain
평수
팩토리
전말
~sym
##원경
##봉이
옮겨갔
리피
~평화통일
~파이터
~199
##헤드
##nit
행정청
정수장
용리시
불거질
타워팰리스
재희
~명예
##파워
##mol
발생량
~펜타
~according
~950
##식당
##석회
##샤르
한자어
융해
끊어질
~자카
~불리
~동월
##도바
항법
팬미팅
책방
워크아웃
소스라
반짝거리
그리워
~스마트
밀려왔
드러머
~서생
~무수
his
##秋
함께했다
차떼기
제품가
本
~에코
##성사
##부서
후들
자이툰부대
일러스트레이터
~끌
~걸리
##파니
~스트럭처
쏜살같이
##최고
##상대
##로했
최우
옹진
~러시
~~마다의
~tac
##하거
뒤엉켜
낙농
~~주자
~und
~ami
~adsl
##펭
##티닙
피임약
시드니올림픽
면역학
다그치
~여행지
~색깔
~away
땔
##세탁
##서로
##乙
정부조직
다소곳
~음식점
~미사
##030
##티아졸
##트호벤
젖산
새한
믿을
레이다
뛰어내려
나섭
가우리
~이숍
버추얼
담보제
~active
한방울
푸치
패륜
카시오
성애
미심쩍
김종훈
기도회
~행정위원회
~아일랜드
##렌지
##더레
##네그
한국시장
위독
오티
뛰어갔
그레고리
~flash
추적자
부득이한
명호
둘리
~수저
~device
379
##말린
혹여
폴리알킬렌
서태
계모
개축
30cm
##평동
##중지
천한
입상자
관세화
~~에게나
##옥션
##oid
~film
##피랑
##베니
제동력
정부여당
워드프로세서
725
70m
606
적산
보관소
김세진
~외화
535
##클래
##늑
##少
이정우
앞당길
시뻘건
라켓
~출혈
14a
##청소년
휠라
질긴
맹장
딴지
검광
개선책
~떠
451
##110
##프린
얼려
안수
~미트
전란
악세
김태환
그새
이프
뱉어내
근로시간
~한사
~릭
~ham
r20
혼나
헤메
총감
무츠
가려움증
가네
##덴셜
##wing
우디
세사
몸상태
마르셀
광주광역시
~위상
~시어
##이냐
##상공
줄타기
cqi
코브라
찍어봤
언쟁
류현
당의
기철
##캬
##저널
##뻔했
##비지
잘살
시스터
만델
~청원
~글씨
~asean
xc
##度
칼빈
촤
제품화
저탄
엉켜
~통신기기
~외대
##자식
##복구
포박
태교
실정법
둘러앉
급유
~시의회
~lip
~dic
##藤
침윤
장변
목련
로보트
날아다
~defen
##콰이어
자퇴
아시아계
~바랍
~dma
~160
lh
##여당
##실색
##라키
후순위
잘록
아키텍
속단
마스트
##포화
티오펜
생산직
바알
꺼졌
~칼럼
허둥지둥
재의
물안
기무
~종합지수
큰형
에틸헥실
기준시가
거버
~플라스틱
~소문
폭침
판매시
지질학
암담
개강
각주
dmz
##위안
##썽
##ffic
왼손잡이
약용
새누리
삼바
산자락
공히
##칼립
##車
##忠
설렁
리액터
니혼게이자이
공소장
~officials
##로락톤
##강화
수출기업
갑각
~초청
~제비
한국정보통신
태깅
징그러
~semi
2025
커버링
디버
넘실
風
~타당성
~롯데
~결시
~respons
~beat
##덕에
하이마트
사분
~틴
제조법
사랑채
까불
~전개
~리움
~pea
~192
ccd
541
##자르
##ught
트란
전직원
시분할
733
징그
주옥
아종
난수
~심의관
~oil
##550
##解
헷지
사직서
기본급
~tree
~kisa
현호
풍림
재의결
~핑크
~democra
##食
화끈하
여과기
보여줄
로마군
밈
야영장
애프터서비스
금자
~~시는지
~ism
착시
~마니
제28
영부인
분무기
반수
거머쥔
##럭거
##祖
참고서
재편성
~최강
~bru
팔라딘
토금속
연등
앙카
아밀로이드
승리자
벚
~메카
~integr
##표현
암사
알마
뎅
##시놀
항전
큼
잎사귀
뜯어보
~flow
##유선방송
접어드
면내
교도통신
~~적으로
~alon
휑
합헌
클리셰
조간
외설
뽀얀
말함
고영태
개똥
갔을
##어어
제1차
~화대
박신양
루시아
계대
각사
##포기
월례
시험지
두어
대단지
노쇠
~부제
##의대
전기료
미감
로코
~대안
##차로
페티
재발견
이음매
우버
온타
##휼
##압기
##남동
카루
인스트루
울렁
알킬아
수정체
삽입구
법의
그라비아
##필로
카메오
초전
언로
시흥시
꺼림
~실내체육관
퍼시
판매가
솟구쳤
소어
라그
~rin
~poli
##였지
코린
세로축
삼천리
부지기수
박효
기스
감속기
玉
och
##밍고
##剛
초사
슬램
브렉
망국
네르
갸웃거렸
~~시네요
##빠지
##도구
플라이셔
키르기
창조주
직능
솔리
내수용
~센티미터
늪지
##녜
회전운동
환승역
아랍계
기찻길
감별
~세션
~02
##성향
##ibm
~글라스
##양도
##앓이
씨제이
외유
국가안전
~hen
~cam
외화자산
스타일리
박성준
~시게
~shop
~limit
~english
##토론회
##ㆍ무
##cor
연구기관
수소문
소굴
~에틸케톤
~마로
~glo
폭정
최재성
~조직위원
~광주
##ena
햐
바지락
미명
될만한
감칠맛
가무
~배터리
ln
##아노
##its
한말
기울어
뺑소니
##원소
##빈스
##ional
이맘
약혼녀
돌이
도합
꼽혀
개간
~~호
~~인듯
##쳐스
##솥밥
산악인
방음벽
등한
김유신
계승자
각목
##룰루
##cie
삼성전기
란제리
~loa
~culture
dsp
##지니
##리인
##eme
프라이스
유러
왕년
드라이어
고속철도
~작곡
##츄에이
축부
주르륵
정상부
인트라넷
바라봐
나탈리
김기태
~~던걸
평면상
찬송
쥬얼리
안현
아릴렌
김래원
~유틸리티
포레스트
턴오
캐뉼라
분당구
mode
##범벅
##모노
##uce
진두
용무
야금
미스테리
남몰래
~iz
cdna
##씨름
##tas
오창
수빈이
석화
667
축척
멋스
머쓱
경기침체
~톱
~~놓아
~services
##시노
##궤양
해설자
전반부
일어설
곰곰
~스크립
~~서의
유니버시아드
보로
미치광이
名
~배틀
~라켓
~mill
~choi
1kg
##106
필히
예금보험
백부
다이노
~happy
~cdna
##카복실
##발이
##uar
외교위
부유물
메가트
너무하
견줘
~지르코늄
~thir
수억원
대범
거리감
##stry
영속
번번히
모하
~존속기간
~레트
톨게이트
백정
남면
~스케
##nis
워렌
실토
공업화
위법성
성감대
결격
##카르복
##로비
절단면
##엔시
택시기사
코스타
~problem
##종훈
##가능하게
찬미
더운
당단백질
~유량
흰자
해야할
직육면체
올빼미
스쿠버
메타크
걸쇠
전조등
신군부
~형광
##챈트
제타
워크샵
새엄마
~열전
~수다
~voice
~univ
##리디
증권거래법
싱글벙글
분투
북풍
결막
eq
##활성화
##피언
##기름
댜
내의
40g
조사기관
전현직
경기불황
결판
~alle
하전된
인간계
열에너지
김씨
경제팀
~half
200g
##정밀
##저리
제적
밸러스트
반작용
람보
국민일보
~magic
부평구
민노
가디
~애플
645
삐져
반나
~~려는지
##차인
술포
분사기
교우
~육상
##엔스
##둥거리
세피
도라에몽
니콜라이
~atte
##잠수
##서야
##ㅓ
식로
비아냥거
발병률
##울림
~안정화
gh
##雨
주의보
점증
외평
샤브
무응답
동구권
청아
이발
언사
박남
바닷길
들러리
~종족
~실질
~대처
~가요제
~mess
~aus
에에
엄청났
알프
교습
##xy
청라
재지
번들링
wo201
##지않다
##종합건설
피펫
암술
미혼모
100ml
##270
##六
##창동
##일전쟁
##에타
##리츠
희진
복음서
느낍
##난로
수의사
세찬
만병
남제주군
~각과
험준
정양
이기심
쉐라톤
부끄러워
거목
og
605
##치즈
##nia
~도별
~fir
707
응찰
왕이
~애애
##세키
최재천
자당
안트
성취감
빙결
납북
4x
흑기
자갈치
삼자
~pus
빙글
구축사업
~여중
철탑
전태일
이창동
~우마
##캠핑
##램프
이쿠
소르비톨
세터
성소
봤을때
떠돌아다
나갑
기발한
~hell
che
##파트
##錫
탄막
좋을것
오역
백병
각권
회한
컴투스
정보기관
보광
명예훼손
대번
노인네
ips
초인종
질화막
주변기기
원상태
디딤돌
관리종목
~~으라면
454
15a
##웡
##igen
우선배정
앉혔
신중론
방조제
바이스
~팬티
~김밥
~강제
##먹으
넷째
~ita
17a
##商
헌병대
피라진
툰
동질성
~위안부
~분방
~룡
inter
522
##901
##깝
형무
창수
우스갯소리
옥주
~모뎀
##kes
준플레이오프
예정자
거머
~갈리
~가상
~une
##오버
저농
아세탈
망설였
대장간
~일보사
테일러메이드
~윙
wwe
nao
##해졌
##sic
풀뿌리
파우스트
총총
야성
애쓴
드링크
노랫
내리쬐
김태식
~스위
~sel
~err
~cold
dslr
##로일
##itor
법선
끄트머리
광수
~프로세
남사
기업구조조정
~이부
tsm
##체류
##신다
##igat
##abi
스트레이
생산비
모낭
군의관
경제살리기
~ess
437
으름
외조
어두컴컴
실란트
병조
돌림
회일
~방재
자라난
로이스
고속화
~기운
masp
자랑거리
곁눈질
가녀린
~경화증
투표장
외손
메웠
인덕
용인대
병살타
~~미
~mems
##플랜
~듀스
~계절
~est
##소화
##머드
후아
알았
몰려가
두꺼워
~박쥐
~~어여
~zo
nac
##192
##다면
장입
바리톤
김성호
고소득층
~립니
~dar
호메
학식
영업용
~도말
~기자재
##722
##177
##변호
##교동
초승달
어법
~~라우
~apr
##리로
##레시
형틀
컥
유치원생
~deep
##슐리
##入
찰떡
엑스선
끔
~트기
~paul
##3k
진태
세배
뜯어먹
경화막
~슈팅
~당규
~days
뮐
상한제
~무덤
hk
중화학
재방
옥스
나가떨어
745
##ubl
창경궁
진실성
속속들이
발수
군세
과전
##기장
##漢
##qa
룰루
또박
다이스
##장로
##길에
호그
폴리곤
조응천
왔을때
얼터
아고
신한국당
문지기
~리토
~rob
431
~신전
##운지
##덕트
포타슘
센터링
~ico
##도상
##zar
노독
귀인
gpc
휘어잡
호떡
편했
팸
쏘렌토
~예규
val
á
필터링된
자이툰
서든
lev
##테롤
##맹이
존폐
저장고
유년기
신교
쇠락
소가
김완
~완주
~무력
~~아줬
~provi
~collect
453
시간차
벗긴
~autom
##rv
유인물
무인기
라이징
도호쿠
대저
김영호
##사채
##믿
부글
보툴리
미닫이
무혈
무보
기독교인
##확산
##하드
##일렉
##atory
활동량
진구
스케쥴링
경자
~비행기
##태우
##융자
통일신라
퀘벡
~pleas
462
441
##보우
##尊
##adi
클로버
먼로
덧글
견과류
~협력단
615
윤태
난초
김철수
~명한
~멀
~간판
최종일
에리어
밥값
금사
굴러다
~문화연
##060
산기슭
논증
논거
##3c
##권도
##구만
불출
~정책실장
~당일
서먹
~비운
~기술연구소
~~우려
~1036
##닮
##ibl
##h5
황산마그네슘
쳐주
생긋
같이한
~believe
##두고
밀입국
김정선
규정상
##성기
##보노
##농업
김근
##뮴
폐쇄성
토핑
취학
쳐들어가
삽입홀
디히드
경무
~비빔밥
~soi
~impa
##골격
조성비
우렁찬
레임덕
녹내장
~시부
~상시
~반등
~무비
it839
##코로
##父
항간
미술가
땅끝
단백
~nato
~fb
##틀링
##을지
펼쳐지
알로에
사무차
대한주
~cert
~addi
##경대
음압
~절제
~missi
##류기
##丹
##い
후행
명운
런치
국유화
구한말
~도읍
~나코
##혜정
히알루론산
홍일
호남석유
비계
버나드
미니언
메테
뒤틀리
~소수자
생산라인
백분
마검
cdr1
켄지
어닝
알버
교계
##틸러
##産
차태현
지린성
윽박
대단위
~로킷
~겹
~psa
웬만큼
여유롭
시먼
기출
광명시
고1
시보
다채널
~피니온
~인격
~여래
~과일
~physi
윤택
복어
마이컴
~판매가격
~마이어
~oo
##제일
##loc
인천광역시
사익
##mber
체불
에게
새정부
노부부
너스
~문화관
~~더란
##maker
존경심
의료인
목부
~~가라는
468
질벽
유압식
김정희
건넜
~천역
~반응성
시의
삼국유사
발칵
甲
~오가
~등락
##256
서플라이
생산지
상제
남중수
건드린
가권
~주유소
~vit
~partner
no2
lig
술기
묵과
~판매업
~브스
9c
##729
배격
낙제
끌어모
~vin
cw
씨알
시코
몸안
~쿠마
~지름
~민영
gly
##백산
잇점
상고심
삭스
##220
##비시
##밟
##박에
삐걱거
~상점
~광선
~mai
~hla
##봤는
##萬
허성
상민
~움직
~예매
##표에
##x4
외환보유액
소르비탄
下
hla
##421
##에는
짝짓
증손
원상회복
낑
~mart
~dol
##칼레
음악사
위기관리
아동학대
문질렀
4t
##단에
##tis
카무
애들
쓸어버리
공천제
~대박
~relations
피질
저평가된
~중기
~레우스
호언
한둘
우러러
~죠
~~은데다가
##클링
##엎
헌트
쪽팔
지식정보
자넨
랜딩
397
은화
공회
감독관
~true
~pmi
~going
##중에
피험체
중미
자산가
유부남
뇌물죄
가즈니
##507
##수건
재소
융화
숙적
수석비서관
사회부
극장가
##반트
프로축구
퍼프
명보
내음
과분
프랙
직영점
사림
꾀한
것은
~즐
~금주
~nrt
##361
##포니
##명사
중앙행정
염화칼
아몬드
쓰루
샤라
근육통
##탬
##졸브
##pes
수송선
보그
명희
매표
~토라
##릴리
##로트
##吉
프리메라리가
시르
샌안토니오
상호연
남태평양
그사이
~심포
goo
##5400
증서
완강히
~중추
~persona
~age
~140
##184
##질렀
옥죄
nh3
팬이
큰딸
카르타고
초이스
반대론
대학별
기획실
~송부
##電
센트리노
각료회의
~공통
##使
##jin
중축합
~이차
595
##설립
분교
몰타
##227
장도
놀란
계기판
Ⅳ
##레일
채무보증
그레그
##티즌
유인태
빼들
##쿠폰
##기위
##破
##洞
프론티어
이택
순금
딴판
##하수
한국사람
테스토스테론
잡종
상법상
붙잡히
병법
발기부전
만신창이
경료
요량
시부모
명한
노론
나가노
꾹꾹
~케이싱
~진수
~국간
~becom
너그
~특검
~말기
~lad
##마라
##로디
재조
안받
밀어붙였
관아
~rose
bga
##카트
친위
아낄
셜록
석굴암
글루타민
~인대
~기름
##쓱
헝겊
말러
김영수
~comb
##iso
옥살
동남쪽
~시타
~1102
##윤수
자고
이동상
위지
오현
쇼핑백
처세
사유리
라이즈
##문자
##모함
선희
##자네
통틀
뛰어오르
경배
~원판
빙긋이
미디어칸
~페이퍼
~ald
##정수
임페리얼
송승
~추수
~operation
~hdm
피리디
총관
즐겨찾
쓰시
뒤집히
덤프
~트립
~관현악
##ined
카산
참정권
비겼
룸살롱
~~움은
~moon
세탁소
서병수
사업계획
디엔
~이온수
~단축
헤어스타일
슈가
主
~올레
~기자회견
~2006
kdi
##사령부
현대오토넷
생태학
~포항
~청정
~제목
~소급
##높이
홍용
참깨
주목적
스스럼없
~피어
~~게라도
##닥다
##ked
삼차원
살다보
말랐
뜨끈
가만있
~천상
~붙이
~보훈처
~phone
~link
lag
##꿨
##키키
##라닐
하키
드미
~국세
##노이드
왠일
볼멘
별것
문관
경축사
##어어어
##론적
##pb
훔
남아시아
##erv
이구동성
슈투
손전등
무릇
덕성
##봐라
활개
초자연
생색
~결구
~administrat
##피닐
컨덕
주름잡
정나
양날
선군
새파랗
nei
##짬
##유키
여신상
묘목
몰탈
레토
土
~야시장
##젠더
인디펜던트
노동시장
603
##음보살
##敵
콜롬
인터리버
유복
애슬
붙임
두나
~연구가
~시책
~색소
~공명
~~겠는
당금
다영
~본능
~반민
~덩
##대군
유장
부업
뛰어올라
따라올
더비
##미어
후렴
뱃길
마도사
둘째날
다날
노안
~카인
~micros
##무용
##따른
점착력
서승
사황
디엔계
뉴욕시장
~삭스
~내륙
속리산
산둥성
뉴저지주
~복지재단
~기시
452
##포이
##유도
##uat
에스파
램버
계측기
~tha
##ㄹ
한비
살찌
뒤집기
광운
d4
프랑켄
폭포수
서울고등
사물함
사랑방
밑바탕
넘넘
~적성
~나루
~cel
##興
후발업체
타법
차축
용궁
꿈나무
고유번호
~squ
##백과
평단
출점
초청장
기술표준원
~사운
##나들
피츠
커비
平
~법률안
~리코더
##植
평양시
세차례
서편
균형발전
7g
513
##쿠젠
주의깊
버무
~uri
##청정기
##설계
##문안
평화유지군
여성복
설법
~increase
흐흑
장식물
유홍준
어나더
노도
기병대
~해방군
##통령
##ald
하방에
이착륙
윗사람
곱셈
~2003
4800
##의견
이루어져
번안
~1500
##아니아
~회계사
~communications
##불능
##무드
한수원
쥬라기
윈저
##간지
브라더
변재
건질
감쪽같
~sofa
~fort
xbox
##앞에
##신거
후련
삼매
벗겨져
미니밴
미끄러짐
mat
##ㅜㅜ
하멜
아놀드
링거
뽐냈
300mm
타수
이끌어
~조사기
~fina
543
472
프로파
주사제
악귀
두브
금은
~제시
##버러
##나보
행사기간
핀치
주무시
요실금
밑반찬
~장자
~인터페이스
~단독
##줌마
환노위
랩터
이숙
야사
애증
레프트
디럭스
경쟁상
~만건
egf
##910
##콘산
##올레
수비대
삽입물
뿌연
빙산
기획단
금각
~vot
##벚
##勢
플랑크
유정복
양평군
아랫입술
다이옥신
064
~장조
~오케스트라
~아메리카
~commo
~cio
##目
희원
크로마토
원주시
슈페리어
~분립
##트먼
##어디
황석영
크린
청초
아아아아
머시
당문
건축비
~민중
~wel
##tee
회분
혈투
오륙도
성과물
번진
라이베리아
~기를
3700
장단기
잠재성
아웃사이
씽
빈스
~해당
~득표
~rei
운남
역모
보검
~~시구
dmso
쳐박
전화벨
안드로메다
사사로
대출채권
~스테이트
2021
##지먼트
##런티
우우우
양치질
셔플
##편성
##σ
##tern
빼곡히
따라나
등줄기
동업자
김길
glp
815
##토세
월영
다주택
~조류
~소드
추모식
재산상
올라탄
역변환
망친
땡볕
경비행기
##암산
##공이
##logi
피페리
카우보이
온순
상영관
다툴
~~으려던
coa
##기간말
##歌
##pter
컴플렉스
성룡
꽉꽉
~자치단체
~allo
##더위
인핸서
보육원
구울
~forme
##특허
##식사
##uo
외사
마주앉
~자라
인스트
옥세
옥새
벌점
~크루
~일로
~여기
~숫
~봉쇄
~보건원
~계량
##았기
편두통
안드로
내조
김영만
~보니
##설폰
##베트남
##둘러
컨셉트카
외가
~의견서
~세관
피피
표현력
류머티
~월말
식빵
~추출물
~발음
i1
헹굼
크러
진동판
순례자
비발디
~성경
~gpr
프탈로
수마트
사각지대
극구
~기획실
~iu
~centra
##유진
##f6
힐난
히노
효종
이츠
움츠리
라흐
~우표
##떴
##ctor
혐기성
제스쳐
~target
~1019
446
##질소
환멸
정방향
내구재
남북교류
경애
~history
corp
##팰
##동욱
파스칼
영장실질심사
수급상
도화선
내려치
남강
거포
~룰
~style
801
홈런왕
일그러지
마족들
마대
김재홍
고통스러
~형편
~field
551
##첵
##음부
헐떡거
초호
생활고
색색
권좌
~원천
##525
우두커니
디멘
광대뼈
~모나
~player
~nym
##사체
##기일
프로페셔널
시뻘
보형
방지막
권력형
~prefe
휘둥그레
한국프로
피롤리
~부품업
h5n
##블레
해피엔딩
판지
~including
~fact
##았지
~아씨
~구청장
피크닉
평강
명확성
만천
챔피언스리그
조시
~예술인
##세점
최태민
임시국회
엄살
언동
부엉이
기현
~mmol
419
칸쿤
~어른
64mb
1850
##토시스
##러들
##v2
##por
출루율
원술
올바로
더글러스
~특화
~제보
~예탁금
##gw
오클라호마
악덕
생크림
~가산
mimo
##키스탄
##rou
터뜨
탈것
청성
저유
가을철
~~리다
##五
페니실린
자문위원
빼어
방독
맥그
~cool
##660
##단일화
적벽
이슬이
운구
안성기
손절
비뇨기과
부추겨
더듬거리
~전만
200k
##프론
##노미야
후단에
엑세스
아스타
아세틸렌
물위
먹어봤
도라지
~예정자
~xbox
판타스
콜렉터
채석
재훈
법전
방이
lic
808
어떡
~1113
포인팅
채권은행
선규
문화사
기진
것이
~나물
##어올
포스파
인트라
유투
우완
소리친
떠받치
동교동계
~tps
칡
코미
온천수
닐슨
고주
개발팀
##519
##356
##루엔자
##ston
##eut
진흙탕
정부부처
인력난
이정희
월미
버드나무
sem
##야드
##雪
연직
어둑
아샤
블룸
~ses
~gate
##올림
튼튼히
최저가
알미늄
등원
~page
##덕이
##sca
힘듭
클로스트리
왜그
동파
~카프
~strateg
##태영
키키
어둑어둑
반고
~해리
552
##atic
전정
~증권사
##리얼
##kh
장백
인발
이목구비
위신
역활
수입업
뱃사
scfv
drm
##멕스
투자수익
통도
침지시
유기성
영업실적
기예
구심
실내공기
뛰어들어
동판
덕유산
더럽히
근면
##dal
카드채
진언
일천
보드카
내복
과묵
~유업
~구조조정
##치마
코네티컷
초간
상점가
건드
~지금
ar1
##준다
##법률
반비례
다림
기네스
~에서부터
~아이디
~ora
~nx
014
##언어
##서는
##미딘
표영
차치
상여
##데일리
~virtu
##920
##터링
##변조
부술
개정판
타겟팅
총점
송년회
~라이즌
~디바이
~동영
##인회
성노
~산간
##테리아
편치
원석
삼영
뉴트
~와중
~셔츠
~resu
##생태
케로
컨테이너선
운문
악착
분극
먹고사
##데카
##가슴
##蘇
회계년
임형
양로
몇시
라떼
난투
~시들
##어봐
##rre
홍진
행정구
악법
빼돌리
몽마르
ㅎㅎㅎㅎ
~히토
~셀룰로
~녹화
##에이션
후유
~인류
~왕복선
##993
##계곡
한서
프란
방배동
돌기와
~~배
##788
##씌우
이민족
서생
붉은악마
~재벌
~zr
##비언
하렘
우물쭈물
술값
수요증가
##프로농구
##oration
집적회로
저전압
요것
~노동조합
~난도
~scfv
8mm
동일인
강장
100nm
##선동
제2회
장맛
잡아끌
원구성
양미
안티몬
슈베르트
국경선
~올림
~분쇄
~unc
~exa
원천징수
우경화
삼형제
부압
벗어
미확인
~연석회의
##1패
은의
에일리언
소수점
데카르
~불만
호라
카운트다운
야하
교호
##사찰
찡그렸
우현
머릿결
난바
~아내
##오이
##禪
##mw
양화
서호
~factor
~envi
~eli
##서열
##때도
아부다비
볼프강
~사무국
~~대서
칼로
아이엠
맛봤
갈취
~saw
~pon
spo
675
후처리
총신
정족수
고고씽
~education
지배하
빅토리
공리
격납고
~어사
~wall
##見
##ape
최문순
이니셔티브
영산강
안일
뽑아
더스
강도높게
~스위칭
~ina
풍화
판매실적
조정부
웨슬리
병목
김제동
가오리
尹
~트레이드
~dri
##mpa
총망
북새통
~신세
~lam
~ck
##아마이
하이파
치주
안전망
스머
냄
공정거래위원장
갱단
~uw
##냑
##tom
##dra
돌려보냈
~험
~~걸요
~organi
하울
진두지휘
아라미드
밤거리
글쓴
~아군
##341
##부티
최연성
에이지
심장부
식품의약품
세도
메틸화
~호주
~150
~08
##563
##사인
홍보관
자숙
이정훈
온종일
예제
스티로
난세
~beaut
##떨이
##가로
홈스
재교육
완봉
~군대
~same
~nin
~generat
##xxx
주나라
불태웠
봉사자
~용구
~당내
준칙
어메
별호
노처녀
경제권
~스퍼
성조기
빨대
내레
가학
##이까
히스티딘
찰라
~보상금
~문화사
##스기
허치슨
치바
츠루
이브라
위구르
연좌
수문장
멀찌
가우스
lim
빕
헤헤헤
응접실
에스티
깽판
~야만
~삼진
reg
r14
##마바
##대한
타임즈
십일
갈무리
~꽃차례
~ppa
mon
##처링
##중독
##걸림
헤게모니
일왕
듣기
페트병
컴뱃
상훈
갈리아
~trav
##이라고
##넬리
호완
프란치스코
마요네즈
~퀴즈
~몰드
~같은데
~sac
~conne
##urin
헤이룽
이용섭
용케
슬하
로메
~천마
##라진
프로리그
웨딩드레스
원혜영
시즈오
반력
랍스
~~줌으
~sio
~self
화염병
푸젠
표적화된
콜린스
조신
수나
대공황
~세척기
~simp
~brit
##감소
촉매제
예물
결속력
~실조
~sales
~fec
443
##ㅋㅋㅋㅋㅋㅋ
화검상
자주색
시장진
시원찮
방아
공보관
거무
~통신사업
~비결
loc
##593
##신부
퀴놀
카스미
뉘우치
~차질
~~을뿐더러
~dance
##카페
##떻
환해
정역
이춘석
동의보감
~지터
~sele
~event
##헤헤
##bon
뇌관
가업
~~즉
565
임진각
시니
생보
밀랍
~koh
vb
##쁨
##혜련
##cent
플렉스
이은주
뒤죽박죽
감나무
~sui
san
이장우
이완영
방현
뛰쳐나가
더딘
~보험법
~molecular
##치우
##아래
홀짝
익산시
기저부
~본사
~도우미
~곳과
~~타
~hyp
~170
##진호
휘슬
치우친
이누야
은하수
수처리
선물환
~밖에
~~3
~rss
~does
hiv
3k
##다테
##넣고
역정
보살핌
건강식
同
환율하락
평안도
캐딜락
이달말
뒤떨어진
~홀로
~스테아레이트
~노우
~감독위원회
##파로
##입찰
##왕에
##cvd
청록
족발
또한번
뉴스쇼
고레
~quest
elisa
코스닥위원회
죄목
자존
빠짐
~상간
~도자기
rec
4mm
초파
스레
수련생
넷피아
걸쳤
화개
협심
텀
중탄산나트륨
이글거리
스티치
막무가내로
디제
가기전에
~코르
~~주거
~vari
~georg
##빌라이
##북면
점장
인사이드
반겼
모든걸
~금이
##하철
해악
전반사
적장
오덕
씀씀이
떠넘
~설계사
sars
풀백
포고
아드레
아낌
성정
비아홀
방열핀
~전동
apc
홑
##틸렌
##민이
##ila
하윽
야무
멍에
도봉산
~안트라
~구체
~single
~regi
~function
##als
예정일
수뇌
온상
안젤라
매경
~문양
cdr2
임형섭
일예
인터폰
은상
ins
##지엄
##다지
포권
여캐
서민층
배뇨
무면
딤섬
~지만
751
##시즘
##sw
헬스클럽
병원성
고신
고광
~소용
~사화
~다능
~날짜
~공감
556
##로바이
##구니
카에다
울화
박진영
그년
~~내지
~techn
~less
m5
##폭탄
##prom
혼조세
조합장
재외공관
모반
머리띠
라말
권취되
英
527
팰리
경제위기
~태자
~deal
##트륨
##매니아
키움
제이드
영흥
奇
##터키
##rce
##gy
코레
카리브해
채영
조계사
암소
받은
##쩡
##ulat
후견인
햄스터
키예프
콜옵션
신대륙
시경
랭커
동아일
~trip
##치면
##kcal
활동성
컬트
아틀라스
~풍속
~~어갈
뒤따를
가넷
~하향
~자식
~오신
~상륙
k2c
##내각
타르타
입출금
연료비
성공회
비확산
부킹
~배출구
w3
sam
##콩달
##ntion
트레이서
연개소문
아침밥
멋쩍
루빈
독립국
다먹
~정형
~우진
~robe
hn
##참사
페스트
~무제
##297
##록사
##bus
알현
브뤼
경제상황
~쟁의
~독소
##인사이드
##인도
피안
어세
백색광
마요
~~요ㅠ
~worke
##디니
휘둘
장천
도야
~intell
~ice
posco
홀리데이
한밤
의료법
뒤덮여
공물
~징역
~jsa
3400
##인것
자두
따돌
글리코실화
~매개
폴리아믹산
정두언
장병완
베르나
매수자
겸허히
게바
~힌지
~정보사
546
##dv
해외투자
xl
567
어쿠스틱
쉬운
번민
밀리터리
데이터라인
권법
~터지
~도라
~ima
0176
홀로그래피
지략
점령군
자애
숭실대
설하
끊어졌
~door
bbb
##한가
일반직
윤현
군사위
~dead
씹히
숙의
몰려온
내인
군것질
~~주던
gpu
##860
##퀴놀린
##안먼
##다나
##그마
##entia
龍
주고
백산
미국대
루소
rnt
##익부
타공
초이
안타까워했
순매도로
부딪친
~포구
##레온
참고문헌
집행위
스틸러
들을
교수진
~기업청
704
##아넘
지온
전항
광천
~주말
~스템
~밀착
~강습
~quar
##츄리
##디셔
##돌기
##대문
최돈웅
저녁때
벽부
라보
~튼
~스피커
~mut
~alg
##여론
##아온
##eng
위너
~자보
~선대
~부속
~natu
438
##파일
##윤식
생활습관
새겼
살로
컴파운
디온
~카게
~enb
757
##트가르트
제쳤
시궁
남성복
~ics
~hdt
~drug
##광역
##teri
보험가
발행가
민족사
답방
꼰
~찬회
~당국자
##말리
##마로
캄캄한
오버레이
엘튼
문종
촘촘히
585
##랙티브
##갠
##高
키친
무쇠
루리코
~화음
~christmas
##투자가
##모금
##ick
진필중
머리맡
리에
~동표
~니혼
~mount
##2d
##智
휘둥
회초리
이설
앨버트
버팔
다보
관록
殺
~불일치
~~나간
삼층
브롬화
낙안
~컴퓨팅
~military
##수한
열융착
보론산
##콘티넨탈
##무로
##꾸기
현투증권
전자화
오퍼레이션
억측
~dns
~corr
~constr
##스도
잡혀있
빠져나올
노성일
경남대
~~옵
##생기
##線
뒤틀린
~병합
~리기
~engineering
~csf
##dis
함침시
정보공개
서럽
붉어졌
대폭발
~tgf
~citi
콱
##器
철봉
와세
신율
달성군
馬
~이음
~시료
~상향
~등판
##교부
천금
수매
뉴멕시코
내추럴
골수종
##평리
##려고
##夜
태백산맥
지린
솔잎
서울랜드
막무가
들킨
담아
~중질유
~profi
veg
eps
##왕자
웹서
오고가
술포닐
등식
##주도
##tem
신고자
~돌이
~~아만
##lude
학명
카운
중도파
시치미
~fest
##2m
##네임
##rag
프놈
붓다
보랏빛
근사치
개관식
~증폭기
##토바
##디난
해직
텀블
서막
부양책
미발
~북스
~로센
~됩
홧
##잇감
##ㄱ
##acte
청신호
옥수
스테인
##如
입력장치
성감
사력
dmf
##헤더
##렁거
주걱
전셋값
엘로
~폐수
##수룩
~탐험
spc
461
##628
##lte
매듭짓
~lear
eo
##농협
##pera
지척
##슐레이
##가노
##常
홍성흔
창궐
지터
이러다가
위임장
싱크로
스탠퍼드대
방사형
~철심
~조영
~stock
665
호법
응집력
암암리
서둘렀
벨로우
~실명
~삼이
진선
끌어들였
##bil
피날레
타야
창비
악사
비용처리
라쿠
~시광
~교육법
~hear
##츠카
##글라이딩
축구단
요식
光
##신화
뒤엉
도농
~ron
##제프
응응
메이플스토리
~시향
~~르는
##사단
##a3
에쿠스
세한
브릭스
드셔
강형
파스너
적재함
뻗치
반색
내려다본
국순
강보합세
##292
##지하
##eti
피타
~푸어
~신뢰성
~~는대
~ws
~seas
~compo
##라이즈
충전소
안지
롯데리아
레지스탕스
~ua
mas
##톨레
##사미
##비크
카보닐
사업소
마네킹
~tril
60k
##gina
티끌
자산ㆍ부채
못미쳤
라이프스타일
~~라고나
##냐며
##sio
주먹밥
김무
촛점
554
##공여
##같아
치고
재워
이네
슈나
민주화운동
라이코
가족사
~스코프
~공수
466
##들만
퇴근길
서체
밀물
~영재
~polic
250m
##조작
~산중
~stu
~sche
~phi
~epg
~aug
~arp
700m
##하키
##월드컵경기장
행시
우군
스칸디
철강재
좌대
자소
유학자
바드
리놀
~among
##ret
항행
폴리비닐피롤리
차내
엠텍비젼
슬레이
별난
매상
꺼내들었
~칼라
~wcg
~parti
~cano
~action
##모도
흥선
한사코
메이킹
김용수
~촉구
~~주니
##철호
##웨스
##운전
##어놓
초임계
중책
윤선
새정
금융시스템
검체
~케이블카
~오고
~practic
##애애
외톨
맑음
나프틸기
갈대밭
~지중
됬
##장관회
##여객
##알라닌
##까하
##玄
##inu
한국자
유람
마셜
검단
##닿
##구경
주재원
일초
김지훈
##당하
의형
~tpc
빼돌려
메틸피
~빠진
~hac
crc
052
##통수
##당류
유튜버
색차
들락거리
경제활
~은이
##펙션
##眞
회백색
홍지
토글
체결홈
잘생겼
미하엘
무하마드
괴질
~특공
~의향서
~섭취
~상임
##핑된
##동사
으르렁거
역병
아모레
디트
吉
~연합군
~미디
588
##포저
##철강
##던지
##tati
확답
매일경제
~lbs
##시프
##구청
##khz
##cam
프로그래머블
최일
일로
영풍
보건부
바리케이
~note
~cash
~appe
##민스
한국표준
쌔
신천지
~액정
~christ
##철수
패혈증
크레스
주재료
재설
반투
도판
데미안
##아치
##롤러
##tics
전년동기
열렬히
보유주
동형
~제3항
퓨어
외진
상한값
삼도
몇일
넓힌
공격용
~헬스
~중고
~lit
##인권위
##겔라
함재기
타오
지방의
비관론
무심히
로울러
라시드
대학살
기업형
기네스북
견질
~pdsch
##디안
##값들
용인시
외할아버지
왔다갔
삼총사
~시스템스
##티비
##사에
호반
재채
완력
발파
고경
~alli
js
##실린
하이데
제사장
든든히
대회인
~차이나
~장시
~~주십시
~lum
1884
##309
##八
##gme
카프로락
충렬
송호
무중
농업기
글루코스
~개관
~room
~pva
참전용사
지역발전
블리스
과한
~유동성
##테네
##레타리아
##가장
상복
단짝
##라들
회당
윤여준
나바
~살해
~~뭐
~fair
##젬
황도
투수진
어패
삼류
도려내
~인멸
2cm
##rap
아첨
불치병
457
##스피
##uss
페데
유틸
~미크
~~다를
~domestic
~aaa
해장국
영일
숙박업
노랫말
까무
~sei
##436
##프로필트
##록산
크래프
심양
불새
레이저빔
##잡기
##령부
##덕거리
주진
어루만져
솔더링
##요연
하이킹
입헌
유전학
속였
분가
김재중
급여액
##남북
프탈산
캐년
제모
보청
毒
~유전체
~억원
~packag
~measur
ter
##스텐
##만하면
##리온
폴링
억지력
교섭단
~헌터
~년래
~tdm
~mlb
##샀
##가다
탄산염
진양
윤종용
엘비스
랍
~회계처리
~퀴
~금성
##하하하
태연히
있었던
이훈
온도조절
색다르
보유지분
마릴
~지문
~수습
##온라인
유기상
~브라더스
~미씨
s13
##zu
흑해
에토
묵향
건널목
~성모
~~으련
~~업
횟
習近平
점할
쓰나
~절의
~사와
~브라우저
~기도회
~dda
축약
엘케
방향키
루루
도미니
데일
대공포
담보권
누렇
~대학생
읊조
1882
합스
주식순
외채
거시기
##호조
##직입
추한
제삼자
바이브레이
래더
기사화
~norma
##레지
톱니바
저항선
예조
어큐뮬
신애
불법복제
남부지
관타나
지대공
의협
~비드
~cast
##spe
홍세
찌푸려
스크램블링
소비심리
소로
~~다니까요
~esta
atp
쉔
4200
##put
패턴화
카심
치프
치타
임업
도곡
가희
~protocol
휘황
페이커
자색
으스러
~트레이딩
~심의회
~rive
##으르
##wel
코카콜라
준후
주택담보대출
전천
요구불예금
브라이언트
무찌르
겹겹이
휩쓴
474
##피에
##커뮤니케이션
훌리
내손
~2007
##799
커머스
송전선
면발
도로시
고슴도치
~참판
519
##농구
전나무
이발소
여옥
야속
북벌
~가장자리
~~투
~pvp
##호정
개기
~피롤
~사체
##옇
현숙
적설량
이나영
외동딸
쌀밥
시원시
맞물
~면허증
~deat
~caf
~bette
##피르
흑사
투사체
물집
~증설
~roy
b4
##다섯
혜수
최홍만
비폭력
~특징
~어레이
##함에
##not
한국가스
하행선
톨스
최루탄
청백
질량비
진유
중앙로
실내악
들어줬
계도
~프라이머
~알데하이드
##크레
##바늘
##ways
좌전
이운재
싶어
스필버그
보안군
변산
무담보
~의정서
~possib
~otp
퍼옥
패퇴
찬송가
지포스
적지
잡아냈
보타
공개시장
~공식
##호리
##眼
휴게
페예노르트
크리에
캐치프레이즈
정부기관
에든버러
리나
~태스
~chie
##게되면
카프카
총경
열역학
朱
~우거
image0
##3동
##행정부
##디우스
##고쿠
임명동의
위압감
버무려
남자부
唐
~큐슈
##順
##몫
##亞
##魚
##想
##쌩
##죵
##將
##求
##臣
##а
##о
##節
##삥
##溫
##孝
##셧
##殺
##新
##ㅣ
##뒷
##넓
##集
##園
##뻥
##덮
##守
##印
##賢
##鉉
##九
##洙
##阿
##老
##容
##感
##藏
##哲
##씹
##낄
##썸
##起
##댜
##徐
##虛
##客
##變
##樂
##喜
##勝
##씰
##直
##밝
##以
##白
##俊
##承
##寧
##섀
##保
##可
##찡
##팸
##私
##禮
##土
##и
##헝
##毒
##앨
[...]
